<pad>	0
<unk>	0
<s>	0
</s>	0
——	-0
经济	-1
国家	-2
美国	-3
▁但	-4
一个	-5
20	-6
我们	-7
政府	-8
中国	-9
可能	-10
他们	-11
欧洲	-12
问题	-13
▁这	-14
世界	-15
可以	-16
▁在	-17
政治	-18
政策	-19
全球	-20
没有	-21
这一	-22
增长	-23
已经	-24
主义	-25
需要	-26
这些	-27
其他	-28
如果	-29
因为	-30
以及	-31
市场	-32
银行	-33
投资	-34
金融	-35
社会	-36
必须	-37
欧盟	-38
国际	-39
发展	-40
支持	-41
不是	-42
应该	-43
危机	-44
重要	-45
大的	-46
影响	-47
领导	-48
地区	-49
它们	-50
200	-51
因此	-52
19	-53
货币	-54
通过	-55
事实	-56
所有	-57
▁而	-58
认为	-59
总统	-60
这样	-61
民主	-62
方面	-63
尽管	-64
组织	-65
美元	-66
的是	-67
的人	-68
成为	-69
201	-70
提供	-71
计划	-72
部分	-73
现在	-74
无法	-75
自己	-76
包括	-77
▁但是	-78
英国	-79
就是	-80
同时	-81
许多	-82
进行	-83
导致	-84
公司	-85
改革	-86
目标	-87
实现	-88
贸易	-89
开始	-90
情况	-91
解决	-92
增加	-93
罗斯	-94
能够	-95
欧元	-96
如此	-97
债务	-98
自由	-99
正在	-100
德国	-101
日本	-102
这个	-103
人们	-104
▁如果	-105
俄罗斯	-106
安全	-107
事实上	-108
印度	-109
的一	-110
机构	-111
企业	-112
收入	-113
带来	-114
的经济	-115
财政	-116
风险	-117
获得	-118
主要	-119
发生	-120
未来	-121
斯坦	-122
什么	-123
00	-124
▁当	-125
之间	-126
一些	-127
任何	-128
行动	-129
世纪	-130
长期	-131
结果	-132
伊朗	-133
变化	-134
关系	-135
持续	-136
要求	-137
人的	-138
工作	-139
技术	-140
存在	-141
▁事实上	-142
那些	-143
基础	-144
这种	-145
作为	-146
目前	-147
到了	-148
那么	-149
研究	-150
资本	-151
的国家	-152
年的	-153
性的	-154
生产	-155
领导人	-156
成功	-157
利亚	-158
稳定	-159
以色	-160
以色列	-161
不会	-162
采取	-163
联合	-164
国家的	-165
甚至	-166
造成	-167
更加	-168
▁此	-169
中的	-170
并不	-171
最近	-172
法国	-173
过去	-174
价格	-175
特别	-176
也是	-177
时间	-178
对于	-179
更多	-180
一种	-181
建立	-182
决定	-183
成员	-184
不同	-185
比如	-186
合作	-187
利益	-188
国内	-189
新的	-190
▁我们	-191
战争	-192
规模	-193
这样的	-194
如何	-195
保护	-196
以来	-197
an	-198
十年	-199
er	-200
并且	-201
力的	-202
如今	-203
严重	-204
产生	-205
选择	-206
反对	-207
教育	-208
历史	-209
意味	-210
一直	-211
只有	-212
)。	-213
挑战	-214
继续	-215
希望	-216
▁因此	-217
面临	-218
公共	-219
央行	-220
拉克	-221
能源	-222
▁此外	-223
出现	-224
作用	-225
行为	-226
水平	-227
美国的	-228
威胁	-229
他们的	-230
意味着	-231
on	-232
西方	-233
环境	-234
同样	-235
国的	-236
利率	-237
协议	-238
来说	-239
选举	-240
令人	-241
气候	-242
生活	-243
不能	-244
措施	-245
实际	-246
方案	-247
希腊	-248
表明	-249
实施	-250
成本	-251
DP	-252
部门	-253
最终	-254
人民	-255
竞争	-256
战略	-257
机会	-258
下降	-259
提高	-260
似乎	-261
消费	-262
的问题	-263
特朗	-264
拥有	-265
制度	-266
系统	-267
上的	-268
学家	-269
GDP	-270
欧元区	-271
控制	-272
特朗普	-273
亿美元	-274
原因	-275
接受	-276
还是	-277
),	-278
能力	-279
伊斯	-280
使用	-281
”。	-282
▁尽管	-283
伊斯兰	-284
需求	-285
或者	-286
多数	-287
亚洲	-288
时候	-289
资产	-290
他的	-291
基金	-292
是否	-293
不仅	-294
谈判	-295
服务	-296
方式	-297
改变	-298
为了	-299
和平	-300
一步	-301
巴马	-302
随着	-303
不可	-304
冲突	-305
0%	-306
奥巴马	-307
联盟	-308
▁美国	-309
阿拉	-310
而且	-311
程度	-312
承诺	-313
关键	-314
军事	-315
外交	-316
来自	-317
资源	-318
特别是	-319
的政治	-320
仍然	-321
有效	-322
非常	-323
非洲	-324
体系	-325
减少	-326
降低	-327
管理	-328
资金	-329
人口	-330
一样	-331
委员	-332
ar	-333
从而	-334
而不是	-335
其中	-336
是一个	-337
伊拉克	-338
联合国	-339
由于	-340
得到	-341
价值	-342
共同	-343
▁”	-344
几乎	-345
真正	-346
en	-347
受到	-348
的情况	-349
▁这一	-350
即使	-351
▁这些	-352
阿拉伯	-353
叙利亚	-354
力量	-355
监管	-356
大部分	-357
还有	-358
一次	-359
各国	-360
重新	-361
完全	-362
劳动	-363
经济体	-364
就业	-365
自己的	-366
出口	-367
项目	-368
委员会	-369
土耳	-370
的最	-371
虽然	-372
类似	-373
和其他	-374
土耳其	-375
因素	-376
出了	-377
考虑	-378
那样	-379
创造	-380
年代	-381
观点	-382
移民	-383
有可能	-384
石油	-385
中国的	-386
参与	-387
也许	-388
者的	-389
决策	-390
▁与	-391
不断	-392
之一	-393
保持	-394
援助	-395
相反	-396
确保	-397
出的	-398
▁他们	-399
某些	-400
进一步	-401
化的	-402
变得	-403
in	-404
越来	-405
越来越	-406
地方	-407
▁不	-408
自身	-409
帮助	-410
破坏	-411
避免	-412
结构	-413
”,	-414
都是	-415
as	-416
恐怖	-417
设施	-418
基本	-419
贷款	-420
活动	-421
超过	-422
责任	-423
运动	-424
领域	-425
之间的	-426
了一	-427
好的	-428
赤字	-429
中东	-430
关注	-431
权力	-432
利用	-433
发达	-434
根本	-435
将会	-436
巴勒	-437
的大	-438
巴勒斯坦	-439
地位	-440
今天	-441
限制	-442
al	-443
模式	-444
取得	-445
起来	-446
民族	-447
武器	-448
制定	-449
平等	-450
数据	-451
个人	-452
关于	-453
条件	-454
过程	-455
失业	-456
表现	-457
但是	-458
具有	-459
改善	-460
法律	-461
只是	-462
199	-463
%。	-464
公民	-465
现实	-466
知道	-467
民众	-468
ti	-469
方法	-470
在于	-471
独立	-472
的新	-473
很多	-474
刺激	-475
通胀	-476
努力	-477
▁对	-478
城市	-479
发展中	-480
成员国	-481
家庭	-482
贫困	-483
的话	-484
传统	-485
会议	-486
革命	-487
大量	-488
危险	-489
相当	-490
支出	-491
结束	-492
联储	-493
推动	-494
预算	-495
状况	-496
000	-497
维持	-498
▁从	-499
重要的	-500
共和	-501
就会	-502
首先	-503
信息	-504
▁中国	-505
事件	-506
▁他	-507
美联储	-508
私人	-509
应对	-510
▁当然	-511
的影响	-512
的政策	-513
朝鲜	-514
至少	-515
气候变化	-516
相关	-517
两个	-518
是在	-519
医疗	-520
之后	-521
整个	-522
时代	-523
全世界	-524
最后	-525
当前	-526
发现	-527
显然	-528
▁欧洲	-529
or	-530
上述	-531
可能会	-532
健康	-533
巨大的	-534
创新	-535
直接	-536
克兰	-537
规则	-538
上升	-539
繁荣	-540
新兴	-541
确定	-542
而言	-543
成了	-544
债券	-545
乌克兰	-546
第二	-547
尼亚	-548
而是	-549
压力	-550
税收	-551
基础设施	-552
代表	-553
%,	-554
试图	-555
这是	-556
及其	-557
报告	-558
错误	-559
尤其	-560
平衡	-561
人类	-562
巴基	-563
我们的	-564
相对	-565
机制	-566
政权	-567
经济增长	-568
巴基斯坦	-569
极端	-570
埃及	-571
公众	-572
之前	-573
▁比如	-574
用于	-575
才能	-576
2008	-577
日益	-578
必要	-579
根据	-580
▁我	-581
所谓	-582
投资者	-583
穆斯	-584
官员	-585
可持续	-586
此同时	-587
▁其	-588
陷入	-589
选民	-590
穆斯林	-591
或许	-592
制造	-593
▁如今	-594
证明	-595
不再	-596
的情况下	-597
依然	-598
失败	-599
识到	-600
做出	-601
标准	-602
文化	-603
意大	-604
担心	-605
后果	-606
总理	-607
主权	-608
布什	-609
衰退	-610
更为	-611
理解	-612
意大利	-613
现代	-614
▁有	-615
的时候	-616
金融危机	-617
科学	-618
难民	-619
交易	-620
扩大	-621
进步	-622
50	-623
达到	-624
不可能	-625
明确	-626
经济的	-627
30	-628
难以	-629
一场	-630
反应	-631
意义	-632
唯一	-633
来的	-634
普京	-635
产品	-636
商品	-637
解释	-638
流动	-639
大规模	-640
爆发	-641
10	-642
商业	-643
经济学家	-644
预测	-645
拒绝	-646
十分	-647
核心	-648
相信	-649
依赖	-650
进入	-651
更多的	-652
大多数	-653
政府的	-654
并没有	-655
es	-656
然而	-657
分子	-658
权利	-659
今年	-660
有的	-661
达成	-662
引发	-663
理由	-664
ash	-665
融资	-666
▁它	-667
60	-668
有所	-669
内部	-670
外国	-671
劳动力	-672
暴力	-673
并非	-674
个月	-675
损失	-676
▁S	-677
问题的	-678
排放	-679
承认	-680
这一点	-681
行的	-682
宗教	-683
缺乏	-684
领袖	-685
比亚	-686
指出	-687
统治	-688
针对	-689
儿童	-690
不足	-691
▁相反	-692
手段	-693
讨论	-694
调整	-695
削减	-696
复杂	-697
工业	-698
MF	-699
愿意	-700
只能	-701
年前	-702
正确	-703
;&	-704
年轻	-705
,“	-706
准备	-707
md	-708
视为	-709
主义者	-710
面对	-711
mdash	-712
工资	-713
数字	-714
的全球	-715
积极	-716
媒体	-717
每年	-718
时期	-719
重大	-720
伙伴	-721
应当	-722
大学	-723
阻止	-724
后的	-725
IMF	-726
正如	-727
复苏	-728
期间	-729
广泛	-730
趋势	-731
加入	-732
干预	-733
范围	-734
议会	-735
短期	-736
阿富	-737
阿富汗	-738
不到	-739
网络	-740
容易	-741
灾难	-742
数量	-743
带来的	-744
形成	-745
袭击	-746
年来	-747
允许	-748
原则	-749
巴西	-750
经历	-751
发展中国家	-752
去年	-753
进程	-754
政策的	-755
协定	-756
储蓄	-757
也不	-758
宣布	-759
建设	-760
财富	-761
主义的	-762
无论	-763
共和党	-764
一位	-765
欧洲央行	-766
吸引	-767
条约	-768
自然	-769
下的	-770
知识	-771
高的	-772
汇率	-773
开发	-774
大幅	-775
▁与此同时	-776
方面的	-777
地区的	-778
代价	-779
毫无	-780
欧洲的	-781
充分	-782
往往	-783
中央	-784
紧缩	-785
仅仅	-786
将在	-787
不平等	-788
开放	-789
迅速	-790
实际上	-791
了一个	-792
最大的	-793
联系	-794
调查	-795
▁C	-796
快速	-797
过度	-798
集团	-799
沙特	-800
第三	-801
失去	-802
投票	-803
▁然而	-804
▁虽然	-805
反映	-806
办法	-807
▁首先	-808
促进	-809
腐败	-810
11	-811
一致	-812
道德	-813
合法	-814
某种	-815
12	-816
正是	-817
平均	-818
行业	-819
足够	-820
并不是	-821
政党	-822
联邦	-823
通常	-824
主席	-825
有关	-826
承担	-827
恢复	-828
购买	-829
它们的	-830
经常	-831
之外	-832
韩国	-833
显示	-834
所以	-835
感到	-836
的支持	-837
在一	-838
宪法	-839
预期	-840
保证	-841
形式	-842
批评	-843
赢得	-844
,000	-845
多的	-846
ic	-847
好处	-848
女性	-849
一项	-850
纽约	-851
市场的	-852
疾病	-853
助于	-854
墨西	-855
提出	-856
即便	-857
西班	-858
墨西哥	-859
西班牙	-860
目的	-861
工人	-862
治理	-863
el	-864
除了	-865
潜在	-866
▁现在	-867
死亡	-868
合理	-869
基于	-870
is	-871
部长	-872
有利	-873
困难	-874
it	-875
巨大	-876
再次	-877
工具	-878
确实	-879
军队	-880
收益	-881
简单	-882
支付	-883
卫生	-884
▁“	-885
国会	-886
崩溃	-887
加强	-888
引起	-889
程度上	-890
角色	-891
两国	-892
▁随着	-893
曾经	-894
5%	-895
国际货币	-896
态度	-897
中心	-898
立场	-899
储备	-900
鼓励	-901
经验	-902
公开	-903
人都	-904
思想	-905
为什么	-906
效果	-907
:“	-908
基金组织	-909
理论	-910
评估	-911
美国和	-912
执行	-913
分析	-914
的方式	-915
处于	-916
货币政策	-917
的主要	-918
的社会	-919
精神	-920
优势	-921
寻求	-922
也会	-923
建议	-924
另一个	-925
任务	-926
肯定	-927
福利	-928
▁一	-929
看到	-930
▁这种	-931
它的	-932
转移	-933
生物	-934
事情	-935
扩张	-936
苏联	-937
生产率	-938
的不	-939
美国人	-940
打击	-941
经济学	-942
也有	-943
全球经济	-944
强调	-945
▁P	-946
am	-947
毕竟	-948
2010	-949
伦敦	-950
只要	-951
速度	-952
▁该	-953
妇女	-954
框架	-955
发达国家	-956
集中	-957
198	-958
其他国家	-959
明显	-960
不管	-961
成立	-962
遏制	-963
生命	-964
本身	-965
的信	-966
想要	-967
是因为	-968
崛起	-969
例子	-970
农业	-971
表示	-972
供应	-973
防止	-974
候选	-975
全球化	-976
效率	-977
完成	-978
追求	-979
所谓的	-980
人员	-981
外部	-982
▁更	-983
实力	-984
转变	-985
全面	-986
决策者	-987
这场	-988
的风险	-989
国民	-990
坚持	-991
另一	-992
保险	-993
情绪	-994
tion	-995
东西	-996
”(	-997
担忧	-998
很大	-999
公平	-1000
的政府	-1001
民粹	-1002
国际社会	-1003
处理	-1004
的目标	-1005
▁由于	-1006
动荡	-1007
和经济	-1008
核武器	-1009
第一	-1010
贬值	-1011
15	-1012
使得	-1013
同意	-1014
秩序	-1015
削弱	-1016
少数	-1017
认识到	-1018
比例	-1019
▁为了	-1020
大约	-1021
人权	-1022
百万	-1023
种族	-1024
负债	-1025
基因	-1026
治疗	-1027
群体	-1028
的增长	-1029
放弃	-1030
更大的	-1031
执政	-1032
证据	-1033
的结果	-1034
▁A	-1035
怀疑	-1036
▁这样	-1037
的一个	-1038
统一	-1039
进口	-1040
真正的	-1041
il	-1042
满足	-1043
共产	-1044
分配	-1045
国际货币基金组织	-1046
找到	-1047
有助于	-1048
当时	-1049
问题上	-1050
组成	-1051
当局	-1052
就像	-1053
相比	-1054
造成的	-1055
逐渐	-1056
策略	-1057
天然	-1058
膨胀	-1059
转型	-1060
可能性	-1061
70	-1062
专家	-1063
re	-1064
马斯	-1065
▁毕竟	-1066
例如	-1067
区域	-1068
一定	-1069
at	-1070
犹太	-1071
补贴	-1072
都会	-1073
民主党	-1074
▁M	-1075
和政治	-1076
俄国	-1077
退出	-1078
强化	-1079
也在	-1080
保守	-1081
▁发	-1082
前景	-1083
很难	-1084
▁结果	-1085
▁200	-1086
系列	-1087
北约	-1088
失业率	-1089
状态	-1090
的欧洲	-1091
ro	-1092
制裁	-1093
常常	-1094
燃料	-1095
增长的	-1096
做法	-1097
意识	-1098
独裁	-1099
将是	-1100
其实	-1101
胜利	-1102
2015	-1103
分裂	-1104
▁许多	-1105
各种	-1106
负担	-1107
的原因	-1108
冲击	-1109
巴黎	-1110
正式	-1111
观察	-1112
恶化	-1113
现象	-1114
一切	-1115
美国总统	-1116
普遍	-1117
▁目前	-1118
大选	-1119
政客	-1120
具体	-1121
值得	-1122
事务	-1123
利润	-1124
解决方案	-1125
18	-1126
也没有	-1127
欧盟的	-1128
回报	-1129
糟糕	-1130
该国	-1131
债权	-1132
规定	-1133
▁最后	-1134
加剧	-1135
严重的	-1136
消费者	-1137
不得	-1138
技能	-1139
的世界	-1140
通货	-1141
的重要	-1142
远远	-1143
人民币	-1144
▁发自	-1145
峰会	-1146
立法	-1147
宽松	-1148
年中	-1149
清楚	-1150
斗争	-1151
波兰	-1152
1.	-1153
争论	-1154
强大的	-1155
需要的	-1156
进展	-1157
▁一个	-1158
左右	-1159
竞选	-1160
了解	-1161
总体	-1162
注意	-1163
也就是	-1164
▁而且	-1165
得多	-1166
永远	-1167
精英	-1168
体制	-1169
角度	-1170
道路	-1171
势力	-1172
设计	-1173
宏观	-1174
最高	-1175
负责	-1176
▁即使	-1177
二十	-1178
迫使	-1179
▁对于	-1180
并未	-1181
克里	-1182
则是	-1183
25	-1184
阶级	-1185
不同的	-1186
不过	-1187
局面	-1188
▁但这	-1189
提供了	-1190
人士	-1191
方向	-1192
2012	-1193
即将	-1194
的美国	-1195
的关键	-1196
团结	-1197
工程	-1198
的高	-1199
的那样	-1200
om	-1201
为止	-1202
▁同样	-1203
泡沫	-1204
真实	-1205
天然气	-1206
障碍	-1207
年以来	-1208
贡献	-1209
增长率	-1210
不但	-1211
华盛	-1212
华盛顿	-1213
空间	-1214
候选人	-1215
ac	-1216
为何	-1217
2011	-1218
重要的是	-1219
质量	-1220
激励	-1221
▁但在	-1222
发挥	-1223
总是	-1224
的对	-1225
▁R	-1226
停滞	-1227
学生	-1228
的国际	-1229
也将	-1230
提升	-1231
个国家	-1232
th	-1233
见的	-1234
而非	-1235
的能力	-1236
下跌	-1237
想象	-1238
有着	-1239
看来	-1240
和社会	-1241
▁5	-1242
武装	-1243
官方	-1244
新闻	-1245
双方	-1246
可以在	-1247
人和	-1248
显著	-1249
相互	-1250
▁最	-1251
至关	-1252
信心	-1253
岗位	-1254
▁它们	-1255
取决	-1256
投入	-1257
内的	-1258
土地	-1259
很快	-1260
ol	-1261
脆弱	-1262
▁欧盟	-1263
取决于	-1264
在美国	-1265
多少	-1266
食品	-1267
这样做	-1268
银行的	-1269
局势	-1270
之中	-1271
符合	-1272
共识	-1273
正常	-1274
情况下	-1275
在过去	-1276
效应	-1277
几十年	-1278
是对	-1279
2013	-1280
有效的	-1281
当今	-1282
盟友	-1283
阶段	-1284
从未	-1285
互联	-1286
尔德	-1287
巴嫩	-1288
彻底	-1289
..	-1290
黎巴嫩	-1291
停止	-1292
面临着	-1293
类似的	-1294
信用	-1295
否则	-1296
孩子	-1297
本国	-1298
▁世界	-1299
教训	-1300
计算	-1301
2009	-1302
▁要	-1303
产业	-1304
依靠	-1305
欢迎	-1306
不仅仅	-1307
和美国	-1308
变革	-1309
方针	-1310
领土	-1311
考虑到	-1312
金融市场	-1313
呼吁	-1314
前的	-1315
最大	-1316
预计	-1317
90	-1318
信任	-1319
直到	-1320
而不	-1321
接近	-1322
还要	-1323
▁G	-1324
克林	-1325
有人	-1326
▁自	-1327
消息	-1328
分之一	-1329
称为	-1330
竞争力	-1331
哈马斯	-1332
破产	-1333
身份	-1334
流动性	-1335
当选	-1336
替代	-1337
幸的是	-1338
▁因为	-1339
2014	-1340
当地	-1341
禁止	-1342
一体	-1343
忽视	-1344
▁B	-1345
更好	-1346
都在	-1347
ent	-1348
▁所有	-1349
法院	-1350
尤其是	-1351
160	-1352
后者	-1353
充满	-1354
塞尔	-1355
紧张	-1356
结构性	-1357
对其	-1358
估计	-1359
对此	-1360
普通	-1361
有些	-1362
退休	-1363
最近的	-1364
外交政策	-1365
攻击	-1366
▁F	-1367
过程中	-1368
通货膨胀	-1369
透明	-1370
强烈	-1371
但却	-1372
汽车	-1373
主导	-1374
的基础	-1375
大国	-1376
大大	-1377
学校	-1378
是一	-1379
遭到	-1380
ation	-1381
除非	-1382
出现了	-1383
推进	-1384
ed	-1385
摆脱	-1386
更大	-1387
激进	-1388
被迫	-1389
的机会	-1390
有限	-1391
这类	-1392
地产	-1393
万亿美元	-1394
重组	-1395
197	-1396
利比亚	-1397
协调	-1398
氧化	-1399
安倍	-1400
就能	-1401
100	-1402
寻找	-1403
旨在	-1404
采用	-1405
年轻人	-1406
发表	-1407
怎样	-1408
面临的	-1409
新兴市场	-1410
真的	-1411
程序	-1412
右翼	-1413
地球	-1414
互联网	-1415
萧条	-1416
恐怖主义	-1417
以上	-1418
警告	-1419
也可以	-1420
痛苦	-1421
批准	-1422
自我	-1423
首相	-1424
差异	-1425
伤害	-1426
自身的	-1427
▁(	-1428
社区	-1429
#160	-1430
取代	-1431
开支	-1432
当然	-1433
格兰	-1434
克尔	-1435
而易	-1436
分歧	-1437
约束	-1438
不确定	-1439
转向	-1440
的观点	-1441
民粹主义	-1442
未能	-1443
现有	-1444
概念	-1445
波动	-1446
指责	-1447
消除	-1448
适应	-1449
0.	-1450
正确的	-1451
民族主义	-1452
团体	-1453
要么	-1454
质疑	-1455
▁新	-1456
低于	-1457
单一	-1458
股票	-1459
带来了	-1460
供给	-1461
世界上	-1462
上涨	-1463
取消	-1464
阻碍	-1465
and	-1466
发生的	-1467
更好的	-1468
该地区	-1469
来源	-1470
保障	-1471
在这	-1472
增强	-1473
▁人们	-1474
多样	-1475
对手	-1476
世界的	-1477
长的	-1478
》(	-1479
周期	-1480
说法	-1481
遭受	-1482
发动	-1483
ou	-1484
比较	-1485
▁正如	-1486
的一部分	-1487
出来	-1488
边境	-1489
那里	-1490
▁那么	-1491
是不	-1492
药物	-1493
▁政府	-1494
层面	-1495
部队	-1496
这意味着	-1497
得以	-1498
提振	-1499
不得不	-1500
)、	-1501
生存	-1502
集体	-1503
在未来	-1504
邻国	-1505
言论	-1506
几个	-1507
▁类似	-1508
性和	-1509
那就是	-1510
将其	-1511
有一	-1512
混乱	-1513
疑问	-1514
凯恩	-1515
左翼	-1516
年后	-1517
克林顿	-1518
相当于	-1519
受益	-1520
然后	-1521
签署	-1522
▁根据	-1523
今天的	-1524
严格	-1525
答案	-1526
增加了	-1527
伊斯兰教	-1528
举行	-1529
双边	-1530
最为	-1531
量的	-1532
争议	-1533
包容	-1534
美洲	-1535
另外	-1536
有利于	-1537
的行为	-1538
造成了	-1539
2.	-1540
多边	-1541
让我们	-1542
▁D	-1543
实行	-1544
并在	-1545
的前	-1546
的确	-1547
获得了	-1548
二氧化	-1549
差距	-1550
扮演	-1551
的反	-1552
相同	-1553
80	-1554
担任	-1555
阿根	-1556
le	-1557
的投资	-1558
属于	-1559
成就	-1560
明白	-1561
过于	-1562
得到了	-1563
的财政	-1564
盈余	-1565
随后	-1566
阿根廷	-1567
▁)	-1568
告诉	-1569
▁没有	-1570
中央银行	-1571
导致了	-1572
在其	-1573
背景	-1574
指标	-1575
重建	-1576
一直在	-1577
司法	-1578
帝国	-1579
三个	-1580
学习	-1581
辩论	-1582
危机的	-1583
所带来的	-1584
ad	-1585
报道	-1586
房地产	-1587
二氧化碳	-1588
二战	-1589
变暖	-1590
缺少	-1591
尔兰	-1592
由此	-1593
监督	-1594
▁作为	-1595
的研究	-1596
意愿	-1597
大陆	-1598
▁一些	-1599
爱尔兰	-1600
ch	-1601
内容	-1602
富裕	-1603
重点	-1604
反对派	-1605
意识到	-1606
强大	-1607
▁这是	-1608
提出了	-1609
自由贸易	-1610
指数	-1611
显而易	-1612
40	-1613
▁I	-1614
持有	-1615
乐观	-1616
力于	-1617
放缓	-1618
▁英国	-1619
温和	-1620
不应该	-1621
取得了	-1622
影响力	-1623
逊尼	-1624
困境	-1625
安排	-1626
官僚	-1627
理想	-1628
假设	-1629
以前	-1630
升值	-1631
▁德国	-1632
et	-1633
倾向	-1634
成果	-1635
科技	-1636
管制	-1637
▁这个	-1638
2007	-1639
之下	-1640
电视	-1641
者们	-1642
高达	-1643
定义	-1644
的同时	-1645
矛盾	-1646
▁类似地	-1647
▁就	-1648
与其	-1649
致力于	-1650
可以通过	-1651
基地	-1652
▁通过	-1653
生活在	-1654
的发展	-1655
时刻	-1656
都有	-1657
可靠	-1658
而这	-1659
至于	-1660
加速	-1661
捍卫	-1662
of	-1663
地缘	-1664
理会	-1665
鉴于	-1666
发生了	-1667
法案	-1668
尔多	-1669
恐惧	-1670
▁但如果	-1671
的可能性	-1672
▁据	-1673
金融机构	-1674
国有	-1675
思维	-1676
形态	-1677
量化	-1678
▁不幸的是	-1679
宣称	-1680
才是	-1681
机器	-1682
这项	-1683
▁T	-1684
我的	-1685
者和	-1686
定的	-1687
德里	-1688
维亚	-1689
可能是	-1690
下去	-1691
什叶	-1692
足以	-1693
▁只有	-1694
45	-1695
议院	-1696
需的	-1697
产生的	-1698
克服	-1699
发布	-1700
给予	-1701
价值观	-1702
妥协	-1703
感觉	-1704
日程	-1705
滋病	-1706
走向	-1707
违约	-1708
都不	-1709
同样的	-1710
众多	-1711
全国	-1712
疫苗	-1713
缺陷	-1714
10%	-1715
全部	-1716
所未	-1717
理念	-1718
贫穷	-1719
其它	-1720
对抗	-1721
很少	-1722
深刻	-1723
提出的	-1724
的民主	-1725
可持续发展	-1726
逊尼派	-1727
这些国家	-1728
污染	-1729
记录	-1730
犯罪	-1731
缅甸	-1732
会在	-1733
加沙	-1734
缓慢	-1735
艾滋病	-1736
展开	-1737
明智	-1738
▁2	-1739
具备	-1740
拯救	-1741
衡量	-1742
就必须	-1743
访问	-1744
▁纽约	-1745
党派	-1746
实验	-1747
思考	-1748
抗议	-1749
”——	-1750
还没有	-1751
世界银行	-1752
沙特阿拉伯	-1753
油价	-1754
的改革	-1755
冷战	-1756
许多人	-1757
启动	-1758
认识	-1759
两大	-1760
扩散	-1761
杠杆	-1762
粮食	-1763
安理会	-1764
毫无疑问	-1765
17	-1766
所需要的	-1767
年间	-1768
构建	-1769
毫不	-1770
什叶派	-1771
是一种	-1772
的计划	-1773
▁特朗普	-1774
特别是在	-1775
足够的	-1776
账户	-1777
▁实际上	-1778
特征	-1779
信贷	-1780
描述	-1781
示威	-1782
有时	-1783
公司的	-1784
掌握	-1785
遭遇	-1786
预防	-1787
瑞拉	-1788
统计	-1789
地缘政治	-1790
的作用	-1791
意识形态	-1792
委内	-1793
表达	-1794
委内瑞拉	-1795
发达经济体	-1796
中产	-1797
占据	-1798
凯恩斯	-1799
伊朗的	-1800
事会	-1801
说明	-1802
奇怪	-1803
损害	-1804
说服	-1805
▁印度	-1806
按照	-1807
习近	-1808
灵活	-1809
结论	-1810
几年	-1811
尝试	-1812
习近平	-1813
危险的	-1814
科学家	-1815
▁以	-1816
低的	-1817
政府和	-1818
os	-1819
传播	-1820
兄弟	-1821
屠杀	-1822
用来	-1823
能否	-1824
制造业	-1825
的核心	-1826
美国在	-1827
us	-1828
一代	-1829
农民	-1830
喜欢	-1831
抑制	-1832
高于	-1833
看起来	-1834
第一次	-1835
占领	-1836
资本主义	-1837
专业	-1838
加上	-1839
动力	-1840
究竟	-1841
传染	-1842
税率	-1843
▁其次	-1844
入侵	-1845
历史上	-1846
刚刚	-1847
国外	-1848
荷兰	-1849
的人口	-1850
问题是	-1851
俄罗斯的	-1852
受害	-1853
实体	-1854
▁日本	-1855
就可以	-1856
宏观经济	-1857
这么	-1858
经历了	-1859
尊重	-1860
的工作	-1861
之处	-1862
体现	-1863
来看	-1864
欧洲人	-1865
整体	-1866
中国和	-1867
世界经济	-1868
操纵	-1869
早期	-1870
萨德	-1871
债权人	-1872
外汇	-1873
心理	-1874
更高	-1875
法庭	-1876
巨额	-1877
抵制	-1878
▁20	-1879
拉美	-1880
更高的	-1881
14	-1882
起到	-1883
2000	-1884
主张	-1885
内战	-1886
时的	-1887
反映了	-1888
稳定的	-1889
中产阶级	-1890
▁E	-1891
孤立	-1892
香港	-1893
各地	-1894
潜力	-1895
▁同时	-1896
组织的	-1897
国防	-1898
宣传	-1899
恰恰	-1900
股市	-1901
以后	-1902
巩固	-1903
推翻	-1904
著名	-1905
成功的	-1906
所在	-1907
至关重要	-1908
故事	-1909
行长	-1910
促使	-1911
她们	-1912
斯科	-1913
▁全球	-1914
有一个	-1915
的长期	-1916
私人部门	-1917
之路	-1918
南非	-1919
句话	-1920
跨国	-1921
对美国	-1922
出于	-1923
愤怒	-1924
因为它	-1925
我们必须	-1926
农村	-1927
形势	-1928
森林	-1929
议员	-1930
所有的	-1931
他在	-1932
包含	-1933
回归	-1934
一体化	-1935
引入	-1936
诸多	-1937
未来的	-1938
表现出	-1939
不受	-1940
ri	-1941
ing	-1942
几个月	-1943
人在	-1944
权的	-1945
测试	-1946
特殊	-1947
牺牲	-1948
▁of	-1949
澳大	-1950
很大程度上	-1951
回到	-1952
边界	-1953
伊斯兰国	-1954
一起	-1955
不愿	-1956
培训	-1957
承受	-1958
月份	-1959
相似	-1960
研发	-1961
评论	-1962
了这一	-1963
一点	-1964
是个	-1965
绿色	-1966
模型	-1967
在一起	-1968
任期	-1969
对话	-1970
维护	-1971
这次	-1972
默克尔	-1973
澳大利亚	-1974
▁到	-1975
格鲁	-1976
进行了	-1977
借贷	-1978
也无法	-1979
量化宽松	-1980
化石	-1981
条款	-1982
第一个	-1983
▁H	-1984
两种	-1985
合法性	-1986
13	-1987
一旦	-1988
医生	-1989
无疑	-1990
被认为	-1991
但在	-1992
▁无论	-1993
于是	-1994
变成	-1995
情报	-1996
构成	-1997
ter	-1998
▁最近	-1999
前所未	-2000
各国政府	-2001
采取行动	-2002
动物	-2003
标志	-2004
和金融	-2005
的金融	-2006
极大	-2007
涉及	-2008
纳税	-2009
巴拉克	-2010
阿萨德	-2011
义务	-2012
公投	-2013
大型	-2014
拉丁	-2015
用的	-2016
阿尔	-2017
的威胁	-2018
▁例如	-2019
在欧洲	-2020
很可能	-2021
的未来	-2022
举措	-2023
过渡	-2024
伙伴关系	-2025
一般	-2026
强硬	-2027
现状	-2028
结合	-2029
劳动力市场	-2030
公正	-2031
边缘	-2032
释放	-2033
▁法国	-2034
不可避免	-2035
绝对	-2036
试验	-2037
改革的	-2038
更不	-2039
▁3	-2040
西洋	-2041
支持者	-2042
政治家	-2043
参加	-2044
极为	-2045
负债表	-2046
达到了	-2047
变得更加	-2048
资格	-2049
错误的	-2050
产量	-2051
仍在	-2052
约旦	-2053
库尔德	-2054
产出	-2055
中所	-2056
对待	-2057
化石燃料	-2058
▁d	-2059
幸运	-2060
早已	-2061
流入	-2062
紧密	-2063
也是如此	-2064
16	-2065
现金	-2066
▁奥巴马	-2067
职业	-2068
▁而在	-2069
2005	-2070
各自	-2071
导弹	-2072
的地区	-2073
共产主义	-2074
ur	-2075
不满	-2076
高度	-2077
▁第二	-2078
的需求	-2079
资产负债表	-2080
21	-2081
位于	-2082
做的	-2083
决心	-2084
▁——	-2085
的行动	-2086
不仅仅是	-2087
目前为止	-2088
被视为	-2089
声称	-2090
月的	-2091
196	-2092
▁伦敦	-2093
强制	-2094
▁除了	-2095
民主的	-2096
计划的	-2097
▁尽管如此	-2098
▁7	-2099
中间	-2100
公约	-2101
意见	-2102
更有	-2103
大西洋	-2104
以此	-2105
尚未	-2106
解放	-2107
非法	-2108
首次	-2109
在经济	-2110
必要的	-2111
不太	-2112
比率	-2113
看法	-2114
目前的	-2115
亿美元的	-2116
不久	-2117
作出	-2118
居民	-2119
想法	-2120
营养	-2121
还会	-2122
500	-2123
▁在这	-2124
一下	-2125
升级	-2126
哥伦	-2127
惩罚	-2128
紧急	-2129
贝尔	-2130
之所以	-2131
命运	-2132
斯特	-2133
尔多安	-2134
付出	-2135
2%	-2136
兴趣	-2137
一系列	-2138
哥伦比亚	-2139
最重要的	-2140
约翰	-2141
同时也	-2142
⁄4	-2143
之时	-2144
员工	-2145
渴望	-2146
ul	-2147
减税	-2148
te	-2149
不利	-2150
循环	-2151
期望	-2152
要比	-2153
超越	-2154
在全球	-2155
的挑战	-2156
打破	-2157
消失	-2158
回应	-2159
海洋	-2160
▁6	-2161
忽略	-2162
新兴经济体	-2163
激烈	-2164
离开	-2165
紧迫	-2166
通缩	-2167
2016	-2168
住房	-2169
有了	-2170
语言	-2171
镇压	-2172
原因是	-2173
▁K	-2174
数百万	-2175
让他们	-2176
▁为	-2177
还需要	-2178
埃尔多安	-2179
不够	-2180
基督	-2181
尼斯	-2182
尼日	-2183
推行	-2184
给了	-2185
马克	-2186
例外	-2187
怎么	-2188
驱动	-2189
与美国	-2190
所面临的	-2191
货币联盟	-2192
东盟	-2193
北京	-2194
穷人	-2195
而在	-2196
▁过去	-2197
的历史	-2198
选举中	-2199
受到了	-2200
的军事	-2201
这个问题	-2202
▁L	-2203
人物	-2204
持久	-2205
能在	-2206
和中国	-2207
▁俄罗斯	-2208
随之	-2209
▁第三	-2210
是如此	-2211
的中国	-2212
都没有	-2213
规划	-2214
▁也许	-2215
的生活	-2216
拉丁美洲	-2217
▁换	-2218
再生	-2219
消灭	-2220
纳德	-2221
自动	-2222
发生在	-2223
成功地	-2224
的时间	-2225
交通	-2226
组合	-2227
的努力	-2228
万人	-2229
下来	-2230
至今	-2231
让人	-2232
逻辑	-2233
▁其他	-2234
的措施	-2235
任命	-2236
太平	-2237
已经在	-2238
台湾	-2239
瑞典	-2240
限于	-2241
马里	-2242
将继续	-2243
的地方	-2244
采取了	-2245
已经开始	-2246
多元	-2247
强劲	-2248
西亚	-2249
▁今天	-2250
借款	-2251
姆林	-2252
和投资	-2253
也不会	-2254
的银行	-2255
平民	-2256
必然	-2257
是美国	-2258
的战略	-2259
▁中国的	-2260
▁在美国	-2261
▁简	-2262
平台	-2263
突然	-2264
▁其中	-2265
产生了	-2266
的利益	-2267
的承诺	-2268
一年	-2269
疲软	-2270
迹象	-2271
之上	-2272
度的	-2273
摧毁	-2274
细胞	-2275
诚然	-2276
亿欧元	-2277
全球变暖	-2278
巴勒斯坦人	-2279
欧盟委员会	-2280
召开	-2281
外的	-2282
获益	-2283
过来	-2284
ment	-2285
另一方面	-2286
1%	-2287
数十	-2288
正义	-2289
演讲	-2290
的安全	-2291
全民	-2292
分之	-2293
法治	-2294
议程	-2295
谴责	-2296
民主国家	-2297
个体	-2298
利班	-2299
艰难	-2300
到的	-2301
是有	-2302
太平洋	-2303
比方	-2304
气体	-2305
遵守	-2306
人均	-2307
人数	-2308
顾问	-2309
发展的	-2310
机构的	-2311
恐怖分子	-2312
▁8	-2313
保留	-2314
发行	-2315
各方	-2316
建筑	-2317
经营	-2318
言之	-2319
证券	-2320
领导的	-2321
业务	-2322
加拿	-2323
超级	-2324
在政治	-2325
2001	-2326
上去	-2327
协助	-2328
生态	-2329
存在的	-2330
这一目标	-2331
ers	-2332
低收入	-2333
▁4	-2334
互相	-2335
否认	-2336
大会	-2337
病毒	-2338
脱离	-2339
的方法	-2340
的环境	-2341
目的是	-2342
我们需要	-2343
un	-2344
名义	-2345
性别	-2346
阵营	-2347
失去了	-2348
是为了	-2349
▁这意味着	-2350
PP	-2351
优先	-2352
化和	-2353
吉亚	-2354
尔的	-2355
布鲁	-2356
患者	-2357
指导	-2358
短缺	-2359
▁即便	-2360
在内的	-2361
实现了	-2362
关税	-2363
只会	-2364
拉夫	-2365
暴露	-2366
终于	-2367
2006	-2368
之为	-2369
人道	-2370
以往	-2371
观念	-2372
身上	-2373
一部分	-2374
加拉	-2375
论坛	-2376
谨慎	-2377
)——	-2378
的债务	-2379
的市场	-2380
格鲁吉亚	-2381
偿还	-2382
声明	-2383
整合	-2384
股东	-2385
获胜	-2386
都将	-2387
阶层	-2388
▁上述	-2389
共和国	-2390
塔利班	-2391
支持的	-2392
常规	-2393
罗马	-2394
脱欧	-2395
▁去年	-2396
的领导	-2397
的经济增长	-2398
世俗	-2399
哪些	-2400
恐慌	-2401
放在	-2402
费用	-2403
▁诚然	-2404
段时间	-2405
二十世纪	-2406
克里姆林	-2407
以便	-2408
修正	-2409
垄断	-2410
年龄	-2411
廉价	-2412
每个	-2413
高级	-2414
▁不过	-2415
最新	-2416
柏林	-2417
也应该	-2418
的理由	-2419
▁W	-2420
使其	-2421
存款	-2422
▁还有	-2423
的人们	-2424
东亚	-2425
以下	-2426
份额	-2427
经过	-2428
▁f	-2429
式的	-2430
是由	-2431
逆转	-2432
十年代	-2433
陷入了	-2434
建立一个	-2435
战斗	-2436
0%。	-2437
收入的	-2438
#160;&	-2439
可信	-2440
温室	-2441
还在	-2442
违反	-2443
麻烦	-2444
ce	-2445
准确	-2446
运作	-2447
的东西	-2448
以色列的	-2449
已经成为	-2450
美国经济	-2451
不良	-2452
日渐	-2453
以及其他	-2454
ob	-2455
判断	-2456
区别	-2457
失衡	-2458
文章	-2459
▁美国的	-2460
不如	-2461
出售	-2462
逐步	-2463
都要	-2464
的唯一	-2465
主流	-2466
注意力	-2467
的例子	-2468
的最佳	-2469
绝大多数	-2470
一半	-2471
古巴	-2472
支撑	-2473
一条	-2474
无力	-2475
资助	-2476
选票	-2477
▁问题	-2478
在一个	-2479
的自由	-2480
南亚	-2481
电力	-2482
突破	-2483
要素	-2484
3⁄4	-2485
可再生	-2486
尼日利亚	-2487
了对	-2488
朋友	-2489
永久	-2490
越南	-2491
都能	-2492
加拿大	-2493
ab	-2494
警察	-2495
还能	-2496
人们对	-2497
的权利	-2498
从来	-2499
纳入	-2500
良好	-2501
受害者	-2502
的价格	-2503
我们可以	-2504
五年	-2505
减轻	-2506
功能	-2507
太阳	-2508
理性	-2509
▁所以	-2510
为基础	-2511
所有人	-2512
比方说	-2513
也门	-2514
半岛	-2515
操作	-2516
企业的	-2517
两者	-2518
化为	-2519
回答	-2520
国务	-2521
扭曲	-2522
art	-2523
▁19	-2524
当前的	-2525
可能导致	-2526
3.	-2527
im	-2528
▁N	-2529
产权	-2530
信仰	-2531
海外	-2532
渠道	-2533
记者	-2534
起了	-2535
▁今年	-2536
所造成的	-2537
oo	-2538
本质	-2539
句话说	-2540
的决定	-2541
的技术	-2542
集中在	-2543
中期	-2544
形象	-2545
指控	-2546
缓解	-2547
不确定性	-2548
丧失	-2549
手中	-2550
共产党	-2551
其在	-2552
可怕	-2553
密切	-2554
智利	-2555
此前	-2556
没能	-2557
距离	-2558
人们的	-2559
仅仅是	-2560
的选择	-2561
▁这就是	-2562
不要	-2563
复兴	-2564
负面	-2565
近期	-2566
▁In	-2567
温室气体	-2568
,”	-2569
id	-2570
不了	-2571
性质	-2572
私有	-2573
▁th	-2574
他们在	-2575
的成本	-2576
浪费	-2577
事业	-2578
抵押	-2579
终结	-2580
人口的	-2581
sp	-2582
医学	-2583
最低	-2584
投资于	-2585
信号	-2586
情形	-2587
根源	-2588
黄金	-2589
的公共	-2590
称之为	-2591
1990	-2592
中国经济	-2593
经常项目	-2594
ag	-2595
做好	-2596
动机	-2597
国债	-2598
排除	-2599
百分	-2600
绝非	-2601
▁那些	-2602
预算赤字	-2603
▁她	-2604
专制	-2605
减速	-2606
困扰	-2607
悲剧	-2608
活力	-2609
重塑	-2610
销售	-2611
的做法	-2612
的变化	-2613
客户	-2614
抓住	-2615
林斯	-2616
留在	-2617
的关系	-2618
▁所有这些	-2619
养老	-2620
加以	-2621
多年	-2622
殖民	-2623
每天	-2624
这一问题	-2625
有能力	-2626
范围内	-2627
超过了	-2628
某种程度上	-2629
一名	-2630
东欧	-2631
疟疾	-2632
▁他的	-2633
和服务	-2634
犹太人	-2635
降低了	-2636
这个国家	-2637
加坡	-2638
应用	-2639
致命	-2640
教育和	-2641
2004	-2642
也能	-2643
但这	-2644
政变	-2645
也必须	-2646
社会的	-2647
克里姆林宫	-2648
完美	-2649
工会	-2650
第四	-2651
职位	-2652
葡萄	-2653
进行的	-2654
实质	-2655
物质	-2656
那种	-2657
但它	-2658
南部	-2659
否决	-2660
固定	-2661
投机	-2662
是最	-2663
设备	-2664
人认为	-2665
美元的	-2666
▁以色列	-2667
争取	-2668
多么	-2669
抵消	-2670
拉斯	-2671
更快	-2672
政府在	-2673
施加	-2674
积累	-2675
纳粹	-2676
青年	-2677
吸引力	-2678
现代化	-2679
部门的	-2680
▁在过去	-2681
日本的	-2682
▁不管	-2683
▁伊朗	-2684
国家和	-2685
广泛的	-2686
接着	-2687
煽动	-2688
电子	-2689
合理的	-2690
升高	-2691
印尼	-2692
层次	-2693
所得	-2694
认真	-2695
的事实	-2696
都必须	-2697
巴沙	-2698
本地	-2699
覆盖	-2700
大萧条	-2701
权力的	-2702
的后果	-2703
没有任何	-2704
却是	-2705
实践	-2706
巴斯	-2707
▁显然	-2708
▁但这一	-2709
不平等性	-2710
放松	-2711
文明	-2712
深远	-2713
会导致	-2714
幸运的是	-2715
um	-2716
原本	-2717
对外	-2718
或是	-2719
材料	-2720
途径	-2721
震惊	-2722
引发了	-2723
良好的	-2724
感染	-2725
用说	-2726
诺贝尔	-2727
所有这些	-2728
里的	-2729
一直是	-2730
负责任	-2731
干涉	-2732
权威	-2733
某个	-2734
游戏	-2735
行政	-2736
▁鉴于	-2737
关系的	-2738
反过来	-2739
形式的	-2740
投资的	-2741
的一些	-2742
经济发展	-2743
ev	-2744
办公	-2745
发起	-2746
壁垒	-2747
导向	-2748
接触	-2749
立刻	-2750
增长和	-2751
两位	-2752
蔓延	-2753
举行的	-2754
的任务	-2755
主权债务	-2756
前所未有的	-2757
上了	-2758
当中	-2759
流行	-2760
面前	-2761
所需的	-2762
的成功	-2763
许多国家	-2764
下滑	-2765
专注	-2766
位置	-2767
动作	-2768
害怕	-2769
开展	-2770
暂时	-2771
中国在	-2772
经济和	-2773
金融体系	-2774
低估	-2775
物价	-2776
认定	-2777
不管是	-2778
也可能	-2779
可能的	-2780
自由化	-2781
ec	-2782
▁和	-2783
临时	-2784
群众	-2785
背景下	-2786
一家	-2787
显得	-2788
歧视	-2789
参与者	-2790
的战争	-2791
英格兰	-2792
丰富	-2793
意料	-2794
会议上	-2795
印度的	-2796
财政政策	-2797
冒险	-2798
本人	-2799
补偿	-2800
▁只要	-2801
塔尼亚	-2802
因为他们	-2803
更不用说	-2804
ve	-2805
僵局	-2806
道理	-2807
很容易	-2808
可再生能源	-2809
小的	-2810
年度	-2811
饱受	-2812
▁希腊	-2813
只不过	-2814
导致的	-2815
时代的	-2816
兑现	-2817
决议	-2818
匈牙	-2819
化学	-2820
审判	-2821
比重	-2822
米尔	-2823
主义和	-2824
匈牙利	-2825
理事会	-2826
的危险	-2827
的最新	-2828
布什政府	-2829
越来越多	-2830
ig	-2831
发电	-2832
圣战	-2833
担保	-2834
过剩	-2835
一开始	-2836
德国的	-2837
服务业	-2838
的人民	-2839
严厉	-2840
产能	-2841
从事	-2842
成熟	-2843
才会	-2844
法官	-2845
男性	-2846
融合	-2847
不足以	-2848
是什么	-2849
突尼斯	-2850
不可持续	-2851
所有人都	-2852
契约	-2853
讽刺	-2854
和欧洲	-2855
孟加拉	-2856
将成为	-2857
的态度	-2858
的重要性	-2859
季度	-2860
急剧	-2861
经合	-2862
0%,	-2863
的力量	-2864
布鲁塞尔	-2865
到底	-2866
坚定	-2867
敌人	-2868
觉得	-2869
不需要	-2870
的贸易	-2871
的资金	-2872
▁换句话说	-2873
nb	-2874
外围	-2875
考验	-2876
长时间	-2877
与此同时	-2878
3%	-2879
ir	-2880
▁9	-2881
为此	-2882
享受	-2883
剑桥	-2884
大战	-2885
失望	-2886
愿景	-2887
武力	-2888
注入	-2889
训练	-2890
商品价格	-2891
不少	-2892
军方	-2893
卡梅	-2894
引导	-2895
德拉	-2896
提议	-2897
获取	-2898
▁199	-2899
▁and	-2900
改进	-2901
昂贵	-2902
清晰	-2903
清洁	-2904
真主	-2905
私营	-2906
解体	-2907
部署	-2908
仍然是	-2909
有力的	-2910
的速度	-2911
▁可	-2912
不安	-2913
中有	-2914
律宾	-2915
设立	-2916
赋予	-2917
也不是	-2918
巴沙尔	-2919
菲律宾	-2920
葡萄牙	-2921
三分之一	-2922
内塔尼亚	-2923
这样一个	-2924
越来越多的	-2925
此次	-2926
ity	-2927
监管者	-2928
苏格兰	-2929
内塔尼亚胡	-2930
定居	-2931
就在	-2932
授权	-2933
苏丹	-2934
十年的	-2935
的数据	-2936
的权力	-2937
专利	-2938
完整	-2939
象征	-2940
安全的	-2941
应该是	-2942
利息	-2943
北部	-2944
和解	-2945
布莱	-2946
总值	-2947
抛弃	-2948
纷纷	-2949
建立在	-2950
▁你	-2951
两次	-2952
审查	-2953
最初	-2954
对中国	-2955
这两个	-2956
▁p	-2957
▁近	-2958
小时	-2959
心的	-2960
泰国	-2961
真相	-2962
诊断	-2963
迫切	-2964
首要	-2965
的最大	-2966
真主党	-2967
一份	-2968
人群	-2969
共享	-2970
声音	-2971
明年	-2972
煤炭	-2973
也不能	-2974
企业家	-2975
十年中	-2976
很多人	-2977
还必须	-2978
重要性	-2979
▁华盛顿	-2980
下了	-2981
两年	-2982
大多	-2983
她的	-2984
小组	-2985
没人	-2986
运转	-2987
基金会	-2988
相对较	-2989
肯尼亚	-2990
长期以来	-2991
严峻	-2992
团队	-2993
拿出	-2994
敏感	-2995
无人	-2996
生的	-2997
空气	-2998
看上去	-2999
世界各地	-3000
乔治	-3001
何种	-3002
分别	-3003
助长	-3004
深度	-3005
药品	-3006
这将	-3007
不稳定	-3008
明确的	-3009
主宰	-3010
全力	-3011
纪念	-3012
罗姆	-3013
落后	-3014
水平的	-3015
▁the	-3016
全球化的	-3017
▁c	-3018
富有	-3019
期待	-3020
工业化	-3021
甚至是	-3022
领域的	-3023
▁他们的	-3024
▁这样的	-3025
成员国的	-3026
点是	-3027
创造了	-3028
在这个	-3029
2003	-3030
密集	-3031
深入	-3032
电脑	-3033
那个	-3034
提供的	-3035
更好地	-3036
保护主义	-3037
la	-3038
到来	-3039
吸收	-3040
战争的	-3041
技术的	-3042
英国的	-3043
很有可能	-3044
恐怖袭击	-3045
欧洲国家	-3046
发展中国家的	-3047
为其	-3048
习惯	-3049
克斯	-3050
分享	-3051
后来	-3052
忧虑	-3053
波斯	-3054
工作的	-3055
显而易见	-3056
NA	-3057
合适	-3058
来讲	-3059
规范	-3060
能力的	-3061
▁但我们	-3062
一轮	-3063
压倒	-3064
变为	-3065
毁灭	-3066
秘密	-3067
退欧	-3068
首席	-3069
低利率	-3070
形成了	-3071
的公司	-3072
外汇储备	-3073
▁幸运的是	-3074
欧盟成员国	-3075
全球金融危机	-3076
▁上	-3077
不在	-3078
仍有	-3079
修改	-3080
加大	-3081
幸福	-3082
说是	-3083
防御	-3084
纳税人	-3085
显而易见的	-3086
合同	-3087
将军	-3088
癌症	-3089
表面	-3090
首脑	-3091
好消息	-3092
的压力	-3093
的反应	-3094
的方案	-3095
的法律	-3096
的问题是	-3097
▁。	-3098
信誉	-3099
出台	-3100
的要求	-3101
前任	-3102
瑞士	-3103
萨达	-3104
融入	-3105
讲话	-3106
高效	-3107
▁于是	-3108
办公室	-3109
nbsp	-3110
财政部长	-3111
基础设施投资	-3112
做到	-3113
并将	-3114
步骤	-3115
母亲	-3116
特定	-3117
马来	-3118
唐纳德	-3119
在中国	-3120
的责任	-3121
的领导人	-3122
但其	-3123
各个	-3124
席位	-3125
花费	-3126
与其他	-3127
主要是	-3128
更多地	-3129
的货币	-3130
领导人的	-3131
24	-3132
反而	-3133
和对	-3134
沦为	-3135
盈利	-3136
看似	-3137
TPP	-3138
的所有	-3139
了其	-3140
作物	-3141
动员	-3142
教授	-3143
相应	-3144
纠正	-3145
要想	-3146
和国际	-3147
的事情	-3148
目标的	-3149
一国	-3150
印象	-3151
多大	-3152
强势	-3153
所说	-3154
机遇	-3155
300	-3156
多年来	-3157
的角色	-3158
几十年来	-3159
▁大	-3160
更具	-3161
只有在	-3162
庞大的	-3163
总需求	-3164
这也是	-3165
▁考虑到	-3166
予以	-3167
沃尔	-3168
流向	-3169
金砖	-3170
▁简言之	-3171
自然资源	-3172
ra	-3173
to	-3174
公布	-3175
士兵	-3176
奥斯	-3177
拉里	-3178
爆炸	-3179
运用	-3180
20%	-3181
债务的	-3182
百分点	-3183
▁另一个	-3184
一个国家	-3185
中国政府	-3186
制约	-3187
悲观	-3188
财务	-3189
和政府	-3190
获得的	-3191
▁联合国	-3192
经合组织	-3193
▁是	-3194
剥夺	-3195
民意	-3196
签订	-3197
能让	-3198
艺术	-3199
▁如此	-3200
▁有些	-3201
的最后	-3202
世界其他	-3203
这些问题	-3204
#160;	-3205
也就	-3206
从中	-3207
充足	-3208
前进	-3209
推迟	-3210
雄心	-3211
amp	-3212
▁当时	-3213
▁的确	-3214
专注于	-3215
没有什么	-3216
在很大程度上	-3217
不上	-3218
严肃	-3219
家族	-3220
更是	-3221
评级	-3222
时间里	-3223
起作用	-3224
残酷	-3225
游说	-3226
生素	-3227
马拉	-3228
以至于	-3229
倾向于	-3230
太阳能	-3231
相对于	-3232
▁让	-3233
学院	-3234
很大的	-3235
系统的	-3236
适用于	-3237
政策制定	-3238
特朗普的	-3239
出资	-3240
制药	-3241
智能	-3242
用户	-3243
起诉	-3244
和日本	-3245
新加坡	-3246
组成的	-3247
2030	-3248
▁美联储	-3249
美国政府	-3250
▁将	-3251
扭转	-3252
梦想	-3253
协议的	-3254
存在着	-3255
得不到	-3256
的说法	-3257
偿付	-3258
分散	-3259
医院	-3260
学术	-3261
容忍	-3262
救助	-3263
科索	-3264
站在	-3265
萨尔	-3266
出现在	-3267
相关的	-3268
使命	-3269
保罗	-3270
倒闭	-3271
无关	-3272
现任	-3273
背后	-3274
每一个	-3275
的一种	-3276
的效果	-3277
he	-3278
▁年	-3279
地说	-3280
型的	-3281
太多	-3282
延长	-3283
报纸	-3284
迄今	-3285
金正	-3286
做出了	-3287
卡梅伦	-3288
2020	-3289
响应	-3290
监控	-3291
领先	-3292
▁西方	-3293
科索沃	-3294
▁1	-3295
关闭	-3296
压制	-3297
布雷	-3298
彼此	-3299
战后	-3300
综合	-3301
运行	-3302
零售	-3303
利益的	-3304
基督教	-3305
的基本	-3306
过去的	-3307
领导层	-3308
伊拉克的	-3309
开发银行	-3310
不应	-3311
亿人	-3312
关心	-3313
幅度	-3314
情景	-3315
毒品	-3316
认可	-3317
这位	-3318
也许是	-3319
变成了	-3320
的水平	-3321
▁for	-3322
穆巴拉克	-3323
eb	-3324
不论	-3325
举动	-3326
介入	-3327
哪里	-3328
披露	-3329
等待	-3330
还将	-3331
依赖于	-3332
养老金	-3333
建立了	-3334
有效地	-3335
国家安全	-3336
SD	-3337
可行	-3338
抵抗	-3339
唯一的	-3340
是否会	-3341
em	-3342
切尔	-3343
塞浦	-3344
斯基	-3345
最佳	-3346
案例	-3347
结核	-3348
路斯	-3349
里斯	-3350
▁5%	-3351
其他人	-3352
国家都	-3353
▁但这些	-3354
财政赤字	-3355
为例	-3356
侵犯	-3357
日的	-3358
极其	-3359
电影	-3360
ill	-3361
▁土耳其	-3362
塞浦路斯	-3363
▁,	-3364
人力	-3365
发明	-3366
工厂	-3367
所能	-3368
最好	-3369
滥用	-3370
热情	-3371
秘书	-3372
足球	-3373
雇主	-3374
▁可以	-3375
必须在	-3376
还可以	-3377
主教	-3378
在内	-3379
大众	-3380
房价	-3381
衰落	-3382
▁巴黎	-3383
再一次	-3384
的信息	-3385
地带	-3386
特里	-3387
监狱	-3388
补充	-3389
▁经济	-3390
生产力	-3391
的收入	-3392
自由的	-3393
转化为	-3394
中共	-3395
履行	-3396
排名	-3397
无所	-3398
沉重	-3399
申请	-3400
遗传	-3401
马上	-3402
193	-3403
破坏了	-3404
基地组织	-3405
金融稳定	-3406
年底	-3407
的小	-3408
移动	-3409
立即	-3410
▁国际	-3411
和安全	-3412
我们在	-3413
赢得了	-3414
交换	-3415
榜样	-3416
消极	-3417
而已	-3418
路线	-3419
野心	-3420
额外	-3421
传染病	-3422
冲突的	-3423
没有人	-3424
生产总值	-3425
至关重要的	-3426
单位	-3427
女孩	-3428
弱势	-3429
选项	-3430
重重	-3431
高昂	-3432
他们所	-3433
国务卿	-3434
影响到	-3435
影响的	-3436
投资和	-3437
背后的	-3438
莫斯科	-3439
中国领导人	-3440
oh	-3441
加快	-3442
就将	-3443
看作	-3444
配置	-3445
下降到	-3446
参议院	-3447
极大的	-3448
的地位	-3449
1980	-3450
ci	-3451
人才	-3452
哈拉	-3453
工党	-3454
智慧	-3455
街头	-3456
不存在	-3457
总统的	-3458
的代价	-3459
的增加	-3460
估算	-3461
凸显	-3462
分离	-3463
在此	-3464
展示	-3465
提醒	-3466
也需要	-3467
和全球	-3468
大学的	-3469
的一切	-3470
资产价格	-3471
定价	-3472
庇护	-3473
愿望	-3474
无可	-3475
活跃	-3476
物理	-3477
而被	-3478
了美国	-3479
目标是	-3480
这些人	-3481
多种	-3482
当的	-3483
神经	-3484
继任	-3485
重视	-3486
▁这就	-3487
基本上	-3488
对欧洲	-3489
就业机会	-3490
证据表明	-3491
南欧	-3492
宣言	-3493
富人	-3494
难题	-3495
饥饿	-3496
▁除非	-3497
研究所	-3498
并不意味着	-3499
op	-3500
si	-3501
一套	-3502
口号	-3503
周边	-3504
延续	-3505
总额	-3506
检查	-3507
莫迪	-3508
身体	-3509
长达	-3510
问责	-3511
危机中	-3512
已成为	-3513
并不能	-3514
的影响力	-3515
的经济体	-3516
8%	-3517
▁《	-3518
夏天	-3519
学者	-3520
病人	-3521
记忆	-3522
man	-3523
已经被	-3524
独立的	-3525
第二次	-3526
人道主义	-3527
石油价格	-3528
ational	-3529
qu	-3530
仍是	-3531
填补	-3532
大宗	-3533
实在	-3534
时机	-3535
间的	-3536
各国的	-3537
复杂的	-3538
7%	-3539
ov	-3540
▁·	-3541
事故	-3542
哈根	-3543
意外	-3544
注定	-3545
也同样	-3546
意义的	-3547
角度看	-3548
4.	-3549
▁&	-3550
便是	-3551
减排	-3552
千年	-3553
物种	-3554
确认	-3555
追随	-3556
#45	-3557
多样性	-3558
让人们	-3559
都无法	-3560
出生	-3561
哥本	-3562
居住	-3563
强的	-3564
白宫	-3565
陷阱	-3566
194	-3567
制度的	-3568
排放量	-3569
接受的	-3570
构成了	-3571
法国和	-3572
行为的	-3573
行动的	-3574
都可以	-3575
银行家	-3576
哥本哈根	-3577
▁欧洲央行	-3578
会谈	-3579
地理	-3580
弱点	-3581
所作	-3582
英镑	-3583
都被	-3584
了一场	-3585
企业和	-3586
年代的	-3587
控制的	-3588
被称为	-3589
风险的	-3590
马来西亚	-3591
▁如果我们	-3592
1,	-3593
下台	-3594
中等	-3595
互动	-3596
今后	-3597
先进	-3598
地中	-3599
失所	-3600
开启	-3601
ard	-3602
二十年	-3603
至少在	-3604
阿巴斯	-3605
▁除	-3606
不必	-3607
会对	-3608
会有	-3609
催生	-3610
可谓	-3611
外界	-3612
斯大	-3613
日元	-3614
继承	-3615
证实	-3616
诱惑	-3617
那时	-3618
世纪的	-3619
做出的	-3620
几年来	-3621
出来的	-3622
取得的	-3623
可能在	-3624
我们应该	-3625
▁2008	-3626
▁J	-3627
伯特	-3628
发放	-3629
后代	-3630
ran	-3631
也因此	-3632
2002	-3633
联合国安理会	-3634
做得	-3635
战胜	-3636
的海	-3637
保守派	-3638
提高了	-3639
遭到了	-3640
35	-3641
丹麦	-3642
之际	-3643
仇恨	-3644
很有	-3645
慈善	-3646
截然	-3647
暗示	-3648
焦点	-3649
绝望	-3650
舞台	-3651
传统的	-3652
透明度	-3653
的大规模	-3654
▁在这方面	-3655
ay	-3656
低迷	-3657
刑事	-3658
威尔	-3659
推广	-3660
电话	-3661
防务	-3662
▁任何	-3663
▁最终	-3664
不再是	-3665
也包括	-3666
包容性	-3667
另一种	-3668
引起了	-3669
萨达姆	-3670
▁s	-3671
一再	-3672
三大	-3673
好像	-3674
知的	-3675
薪酬	-3676
高速	-3677
鼓吹	-3678
▁普京	-3679
不愿意	-3680
大屠杀	-3681
几乎所有	-3682
IS	-3683
▁马	-3684
人为	-3685
创业	-3686
勃勃	-3687
大于	-3688
引擎	-3689
敦促	-3690
西欧	-3691
出现的	-3692
即使是	-3693
抗生素	-3694
财政部	-3695
因为它们	-3696
地方政府	-3697
到目前为止	-3698
结构性改革	-3699
阿拉伯国家	-3700
以为	-3701
律师	-3702
换取	-3703
掩盖	-3704
罪行	-3705
适合	-3706
隔离	-3707
些时候	-3708
因为这	-3709
的欧盟	-3710
的能源	-3711
都需要	-3712
中东地区	-3713
▁毫无疑问	-3714
阿拉伯世界	-3715
ak	-3716
依据	-3717
切实	-3718
北欧	-3719
挽救	-3720
的无	-3721
可行的	-3722
在国际	-3723
来自于	-3724
核计划	-3725
统治者	-3726
▁欧元区	-3727
公共部门	-3728
该地区的	-3729
CC	-3730
▁像	-3731
慷慨	-3732
社交	-3733
萨科	-3734
阵线	-3735
的价值	-3736
计算机	-3737
▁O	-3738
之春	-3739
危害	-3740
在线	-3741
少的	-3742
效益	-3743
萎靡	-3744
风暴	-3745
▁一旦	-3746
尽可能	-3747
作为一个	-3748
大概	-3749
我在	-3750
按揭	-3751
普及	-3752
此类	-3753
沮丧	-3754
阻挠	-3755
鼓舞	-3756
ich	-3757
地中海	-3758
水资源	-3759
证明了	-3760
1989	-3761
塞尔维亚	-3762
tu	-3763
乃至	-3764
争夺	-3765
以外	-3766
均衡	-3767
审慎	-3768
暴跌	-3769
裁决	-3770
不平衡	-3771
石油和	-3772
ap	-3773
▁总	-3774
伟大	-3775
其对	-3776
卡扎	-3777
本月	-3778
要在	-3779
颠覆	-3780
食物	-3781
就需要	-3782
斯大林	-3783
更容易	-3784
的一项	-3785
的和平	-3786
肯定会	-3787
▁比方说	-3788
成为一个	-3789
组成部分	-3790
同事	-3791
处在	-3792
完善	-3793
年到	-3794
老龄	-3795
运输	-3796
以及对	-3797
体系的	-3798
削弱了	-3799
威胁到	-3800
布莱尔	-3801
的条件	-3802
第二个	-3803
转移到	-3804
非政府	-3805
▁特别是	-3806
国王	-3807
尔西	-3808
模糊	-3809
缩小	-3810
进而	-3811
▁在此	-3812
反映出	-3813
实施了	-3814
我们对	-3815
的现实	-3816
这是一个	-3817
代理	-3818
核电	-3819
盟国	-3820
纠纷	-3821
改变了	-3822
明显的	-3823
被认为是	-3824
转移支付	-3825
▁在这样的	-3826
丑闻	-3827
中美	-3828
何时	-3829
出版	-3830
劳工	-3831
叛乱	-3832
塔赫	-3833
提名	-3834
撒冷	-3835
深化	-3836
缓和	-3837
让步	-3838
跨境	-3839
▁另外	-3840
价值的	-3841
卡扎菲	-3842
路撒冷	-3843
几乎没有	-3844
在这方面	-3845
结构改革	-3846
自由主义	-3847
4%	-3848
企图	-3849
区分	-3850
哈佛	-3851
数千	-3852
美军	-3853
不扩散	-3854
与中国	-3855
可以从	-3856
耶路撒冷	-3857
尼克	-3858
纪录	-3859
维奇	-3860
缺口	-3861
落实	-3862
认同	-3863
下降了	-3864
他们对	-3865
参议员	-3866
最好的	-3867
系统性	-3868
世界大战	-3869
迄今为止	-3870
▁前	-3871
世贸	-3872
依旧	-3873
博拉	-3874
满意	-3875
加剧了	-3876
重大的	-3877
6.	-3878
上限	-3879
两倍	-3880
就要	-3881
巴尔	-3882
日常	-3883
自愿	-3884
艰巨	-3885
连续	-3886
▁要想	-3887
成为了	-3888
政权的	-3889
银行和	-3890
解决办法	-3891
借口	-3892
动摇	-3893
反弹	-3894
同一	-3895
死于	-3896
议题	-3897
走上	-3898
达尔	-3899
▁非洲	-3900
不仅是	-3901
伴随着	-3902
埃博拉	-3903
的企业	-3904
就业岗位	-3905
极端主义	-3906
的基础上	-3907
实现这一目标	-3908
ne	-3909
做了	-3910
内阁	-3911
北方	-3912
妨碍	-3913
寿命	-3914
将来	-3915
流离	-3916
游行	-3917
频繁	-3918
和环境	-3919
的一次	-3920
非常规	-3921
27	-3922
争端	-3923
交流	-3924
反复	-3925
成长	-3926
撤军	-3927
日子	-3928
早就	-3929
课程	-3930
韦斯	-3931
的总统	-3932
能够在	-3933
ge	-3934
ow	-3935
▁-	-3936
侵略	-3937
全新	-3938
同情	-3939
将让	-3940
建造	-3941
授予	-3942
提案	-3943
理应	-3944
软件	-3945
其中的	-3946
的担忧	-3947
▁问题在于	-3948
公决	-3949
就越	-3950
总量	-3951
清算	-3952
财产	-3953
以确保	-3954
所面临	-3955
批评者	-3956
政治的	-3957
的反对	-3958
穆尔西	-3959
绝不是	-3960
和西班牙	-3961
在政治上	-3962
政府债券	-3963
掌权	-3964
狂热	-3965
西岸	-3966
里根	-3967
▁确实	-3968
大量的	-3969
机器人	-3970
....	-3971
可持续性	-3972
奥巴马政府	-3973
份子	-3974
但也	-3975
和新	-3976
拖累	-3977
毕业	-3978
源自	-3979
识别	-3980
减少了	-3981
和国家	-3982
和技术	-3983
将导致	-3984
希拉里	-3985
极大地	-3986
每个人	-3987
比以往	-3988
的立场	-3989
索马里	-3990
2017	-3991
流离失所	-3992
糟糕的是	-3993
经济复苏	-3994
公路	-3995
华尔	-3996
局限	-3997
50%	-3998
实现的	-3999
德国和	-4000
是如何	-4001
法塔赫	-4002
生活的	-4003
破坏性	-4004
......	-4005
东京	-4006
你的	-4007
保健	-4008
借助	-4009
庞大	-4010
强国	-4011
挪威	-4012
网站	-4013
连任	-4014
间接	-4015
分之二	-4016
华尔街	-4017
查韦斯	-4018
的好处	-4019
这一切	-4020
▁叙利亚	-4021
ni	-4022
会被	-4023
弥补	-4024
等等	-4025
聪明	-4026
页岩	-4027
飙升	-4028
ert	-4029
CD	-4030
北美	-4031
太大	-4032
姿态	-4033
引人	-4034
最有	-4035
果断	-4036
首都	-4037
主要的	-4038
但他们	-4039
地位的	-4040
是通过	-4041
23	-4042
6%	-4043
地震	-4044
将对	-4045
年初	-4046
意图	-4047
所赐	-4048
旅游	-4049
独特	-4050
难度	-4051
支出的	-4052
的一半	-4053
的协议	-4054
简单的	-4055
解释了	-4056
转变为	-4057
达成一致	-4058
免费	-4059
前提	-4060
民间	-4061
漏洞	-4062
辛格	-4063
令人惊	-4064
伟大的	-4065
几年中	-4066
绝大部分	-4067
穆斯林兄弟	-4068
▁由	-4069
下一	-4070
之以	-4071
之急	-4072
之道	-4073
四个	-4074
地的	-4075
多个	-4076
手机	-4077
最多	-4078
设定	-4079
较低	-4080
金钱	-4081
中获益	-4082
天主教	-4083
有机会	-4084
的共同	-4085
毫不奇怪	-4086
的问题上	-4087
问题上的	-4088
对立	-4089
特勒	-4090
自杀	-4091
这笔	-4092
众议院	-4093
的必要	-4094
结果是	-4095
▁另一方面	-4096
伦理	-4097
务实	-4098
压迫	-4099
发言	-4100
周年	-4101
婴儿	-4102
灭绝	-4103
狭隘	-4104
的主	-4105
著作	-4106
赞成	-4107
霸权	-4108
不知道	-4109
中国人	-4110
到来的	-4111
独裁者	-4112
▁为什么	-4113
▁大部分	-4114
三分之二	-4115
他对	-4116
偏好	-4117
免疫	-4118
几周	-4119
原子	-4120
反恐	-4121
大使	-4122
沟通	-4123
生育	-4124
细节	-4125
西斯	-4126
面积	-4127
人民的	-4128
有什么	-4129
民众的	-4130
深层次	-4131
环境下	-4132
现在的	-4133
短期内	-4134
四分之一	-4135
伊拉克战争	-4136
低碳	-4137
剧烈	-4138
发出	-4139
培养	-4140
将被	-4141
征税	-4142
收缩	-4143
而论	-4144
保守党	-4145
再加上	-4146
国集团	-4147
技术和	-4148
的合作	-4149
高收入	-4150
任何时候	-4151
和平进程	-4152
年金融危机	-4153
专门	-4154
他人	-4155
因而	-4156
弗里	-4157
贾德	-4158
40%	-4159
的支持者	-4160
22	-4161
中小	-4162
以南	-4163
地利	-4164
忘记	-4165
朗德	-4166
的有	-4167
迈向	-4168
▁或者	-4169
▁有人	-4170
很好的	-4171
的机构	-4172
的选举	-4173
公共债务	-4174
财政刺激	-4175
这一观点	-4176
IP	-4177
克利	-4178
它在	-4179
急需	-4180
时任	-4181
面的	-4182
预料	-4183
-20	-4184
195	-4185
前总统	-4186
即使在	-4187
实施的	-4188
我们所	-4189
教育的	-4190
以色列和	-4191
这种情况	-4192
可持续发展目标	-4193
▁平	-4194
别无	-4195
大胆	-4196
奥运	-4197
废除	-4198
恶性	-4199
下一个	-4200
内贾德	-4201
西方的	-4202
让美国	-4203
不太可能	-4204
阿拉伯之春	-4205
li	-4206
也被	-4207
只占	-4208
就有	-4209
巨头	-4210
父母	-4211
种植	-4212
飞机	-4213
似乎是	-4214
务之急	-4215
奥地利	-4216
希特勒	-4217
撒哈拉	-4218
收益率	-4219
谈判的	-4220
1997	-4221
生活水平	-4222
▁我们需要	-4223
创建	-4224
在不	-4225
已有	-4226
核能	-4227
论文	-4228
遗产	-4229
高企	-4230
▁或许	-4231
严格的	-4232
今年的	-4233
历史的	-4234
并因此	-4235
清楚地	-4236
观察家	-4237
阿尔及	-4238
个百分点	-4239
ep	-4240
一天	-4241
仔细	-4242
先例	-4243
千万	-4244
发射	-4245
哈尼	-4246
堪称	-4247
尊严	-4248
收集	-4249
教旨	-4250
未必	-4251
竭尽	-4252
▁由此	-4253
东南亚	-4254
之一是	-4255
会带来	-4256
受欢迎	-4257
和发展	-4258
奥朗德	-4259
引发的	-4260
危机爆发	-4261
提供资金	-4262
极有可能	-4263
却在	-4264
抨击	-4265
海军	-4266
长久	-4267
▁国家	-4268
了一项	-4269
再平衡	-4270
就不会	-4271
有关的	-4272
现有的	-4273
国有企业	-4274
自由贸易协定	-4275
29	-4276
党的	-4277
哪个	-4278
年内	-4279
烟草	-4280
自治	-4281
误导	-4282
▁甚至	-4283
▁至于	-4284
北朝鲜	-4285
原教旨	-4286
标志着	-4287
沙拉夫	-4288
灾难性	-4289
程度的	-4290
快速增长	-4291
上台	-4292
不及	-4293
哪怕	-4294
差别	-4295
广告	-4296
抵御	-4297
激发	-4298
股权	-4299
轻易	-4300
ate	-4301
在这一	-4302
根本上	-4303
类似于	-4304
都应该	-4305
▁IMF	-4306
公共卫生	-4307
穆沙拉夫	-4308
金融部门	-4309
势头	-4310
各大	-4311
并为	-4312
幻想	-4313
很高	-4314
案件	-4315
海湾	-4316
源于	-4317
起义	-4318
迎来	-4319
重振	-4320
▁不仅	-4321
亚洲的	-4322
年代末	-4323
意义上	-4324
运动的	-4325
通胀率	-4326
富裕国家	-4327
民粹主义者	-4328
CE	-4329
nd	-4330
▁两	-4331
充斥	-4332
凝聚	-4333
动态	-4334
十九	-4335
卡塔	-4336
吉尔	-4337
呈现	-4338
围绕	-4339
大家	-4340
姆斯	-4341
始于	-4342
崩盘	-4343
无数	-4344
星期	-4345
有过	-4346
焦虑	-4347
疗法	-4348
目光	-4349
谷歌	-4350
长远	-4351
400	-4352
以上的	-4353
力量的	-4354
变得更	-4355
在世界	-4356
定居点	-4357
的形式	-4358
而言之	-4359
软实力	-4360
也就是说	-4361
大规模的	-4362
生态系统	-4363
研究表明	-4364
发达国家的	-4365
人所	-4366
强迫	-4367
征收	-4368
成年	-4369
抱怨	-4370
无能	-4371
的年	-4372
雇员	-4373
和教育	-4374
接受了	-4375
的时代	-4376
一段时间	-4377
知识产权	-4378
西方国家	-4379
▁我们必须	-4380
大力	-4381
消耗	-4382
耐药	-4383
诸如	-4384
30%	-4385
不久前	-4386
共同的	-4387
十年前	-4388
和就业	-4389
积极的	-4390
公民社会	-4391
资本市场	-4392
▁这是一个	-4393
▁阿	-4394
中最	-4395
坚决	-4396
左派	-4397
捐助	-4398
父亲	-4399
的名	-4400
高管	-4401
▁而这	-4402
克斯坦	-4403
就无法	-4404
政治和	-4405
政策和	-4406
的巨大	-4407
一些国家	-4408
军事行动	-4409
库尔德人	-4410
非洲国家	-4411
其他国家的	-4412
穆斯林兄弟会	-4413
一道	-4414
修订	-4415
它是	-4416
德斯	-4417
探讨	-4418
提到	-4419
议定	-4420
谈论	-4421
逮捕	-4422
▁埃及	-4423
可以让	-4424
秘书长	-4425
而这些	-4426
董事会	-4427
亚洲国家	-4428
竞争对手	-4429
不容	-4430
前往	-4431
埃塞	-4432
文件	-4433
既然	-4434
穷国	-4435
路径	-4436
身为	-4437
供应链	-4438
心而论	-4439
有必要	-4440
欧洲和	-4441
民主和	-4442
起到了	-4443
一体化的	-4444
告诉我们	-4445
pe	-4446
▁用	-4447
入了	-4448
动用	-4449
所为	-4450
浓缩	-4451
详细	-4452
斯科尼	-4453
根本性	-4454
的谈判	-4455
第一步	-4456
自由和	-4457
这一事实	-4458
卡尔	-4459
带着	-4460
树立	-4461
根深	-4462
瘫痪	-4463
结盟	-4464
转而	-4465
铁路	-4466
ook	-4467
在国内	-4468
工人的	-4469
指出的	-4470
1979	-4471
恰恰相反	-4472
自由市场	-4473
av	-4474
一边	-4475
之势	-4476
双重	-4477
干扰	-4478
数百	-4479
有望	-4480
毛泽	-4481
浪潮	-4482
管道	-4483
邪恶	-4484
预言	-4485
伯克利	-4486
埃塞俄	-4487
毛泽东	-4488
结束了	-4489
鲁哈尼	-4490
取得成功	-4491
孟加拉国	-4492
阿尔及利亚	-4493
▁正	-4494
商界	-4495
它将	-4496
指挥	-4497
摩洛	-4498
民调	-4499
环保	-4500
自信	-4501
通往	-4502
但它们	-4503
却没有	-4504
本质上	-4505
的信号	-4506
的实际	-4507
的概念	-4508
议定书	-4509
▁在这个	-4510
尤其是在	-4511
当务之急	-4512
埃塞俄比亚	-4513
28	-4514
和不	-4515
扩展	-4516
法规	-4517
犹豫	-4518
邀请	-4519
驱逐	-4520
▁这场	-4521
可以为	-4522
对经济	-4523
应该在	-4524
的国内	-4525
的程度	-4526
稳定和	-4527
▁在这一	-4528
工作岗位	-4529
不变	-4530
倡议	-4531
击败	-4532
南海	-4533
受过	-4534
教师	-4535
无视	-4536
此后	-4537
破裂	-4538
维尔	-4539
蒂固	-4540
存在于	-4541
的胜利	-4542
影响力的	-4543
美国总统奥巴马	-4544
ah	-4545
▁那	-4546
不出	-4547
东部	-4548
临床	-4549
便利	-4550
免受	-4551
名为	-4552
愚蠢	-4553
收购	-4554
梅内	-4555
棘手	-4556
纯粹	-4557
能量	-4558
适用	-4559
▁St	-4560
二十一	-4561
的信心	-4562
的真正	-4563
著名的	-4564
2050	-4565
伊拉克和	-4566
根深蒂固	-4567
非政府组织	-4568
亦然	-4569
制衡	-4570
力和	-4571
勇气	-4572
反抗	-4573
同性	-4574
子女	-4575
宣扬	-4576
数以	-4577
晋三	-4578
本来	-4579
海啸	-4580
设置	-4581
过了	-4582
高等	-4583
▁关于	-4584
伊朗和	-4585
多年的	-4586
的印度	-4587
的外交	-4588
的需要	-4589
该国的	-4590
退休金	-4591
银行系统	-4592
英格兰银行	-4593
EC	-4594
不大	-4595
中亚	-4596
也更	-4597
也要	-4598
亚太	-4599
写道	-4600
加州	-4601
小心	-4602
敌意	-4603
死刑	-4604
灾害	-4605
着眼	-4606
辩护	-4607
这里	-4608
▁接着	-4609
充满了	-4610
单方面	-4611
数十年	-4612
时间的	-4613
普林斯	-4614
的一大	-4615
的税收	-4616
罗姆尼	-4617
其中包括	-4618
安倍晋三	-4619
所产生的	-4620
早些时候	-4621
欧元区的	-4622
竞争力的	-4623
解决问题	-4624
7.	-4625
体育	-4626
分化	-4627
排斥	-4628
收支	-4629
无限	-4630
进化	-4631
Mar	-4632
▁政治	-4633
公司和	-4634
哈梅内	-4635
年代初	-4636
经济危机	-4637
商品和服务	-4638
减弱	-4639
当年	-4640
攀升	-4641
效仿	-4642
方的	-4643
极权	-4644
诞生	-4645
150	-4646
60%	-4647
最贫困	-4648
本世纪	-4649
碳排放	-4650
该计划	-4651
民主制度	-4652
od	-4653
ub	-4654
乐部	-4655
信念	-4656
兰克	-4657
厌恶	-4658
待遇	-4659
性地	-4660
收紧	-4661
效的	-4662
敌对	-4663
特点	-4664
祖国	-4665
萎缩	-4666
贝卢	-4667
连接	-4668
遥远	-4669
采购	-4670
顽固	-4671
▁相比	-4672
俱乐部	-4673
再分配	-4674
创新的	-4675
印度和	-4676
对全球	-4677
很重要	-4678
所得税	-4679
的状况	-4680
私有化	-4681
只不过是	-4682
法国总统	-4683
贸易协定	-4684
即将到来的	-4685
美国和欧洲	-4686
26	-4687
ia	-4688
st	-4689
▁的	-4690
不堪	-4691
为首	-4692
但他	-4693
减免	-4694
同盟	-4695
玻利	-4696
航空	-4697
认知	-4698
赢家	-4699
ist	-4700
安全和	-4701
摩洛哥	-4702
的办法	-4703
继任者	-4704
罗伯特	-4705
1999	-4706
发展目标	-4707
核不扩散	-4708
贝卢斯科尼	-4709
二氧化碳排放	-4710
5.	-4711
万亿	-4712
不起	-4713
加利	-4714
对比	-4715
平价	-4716
房屋	-4717
政坛	-4718
的事	-4719
眼下	-4720
在今年	-4721
活动的	-4722
的冲突	-4723
的经验	-4724
看到了	-4725
美国对	-4726
都不会	-4727
合作伙伴	-4728
普林斯顿	-4729
的俄罗斯	-4730
温室气体排放	-4731
出人	-4732
在了	-4733
太过	-4734
忠诚	-4735
扼杀	-4736
放任	-4737
更低	-4738
杀害	-4739
炸弹	-4740
缩减	-4741
诉讼	-4742
走出	-4743
遵循	-4744
80%	-4745
uro	-4746
▁de	-4747
▁布什	-4748
上个月	-4749
储蓄率	-4750
的关注	-4751
▁但如今	-4752
世界贸易	-4753
其他地方	-4754
传递	-4755
修复	-4756
全体	-4757
协会	-4758
对象	-4759
意志	-4760
生涯	-4761
看看	-4762
竞赛	-4763
默德	-4764
▁当前	-4765
就业和	-4766
的下降	-4767
繁荣的	-4768
联盟的	-4769
灾难性的	-4770
▁平心而论	-4771
克鲁	-4772
加深	-4773
可见	-4774
学会	-4775
得出	-4776
折磨	-4777
提前	-4778
缺失	-4779
而又	-4780
选战	-4781
预见	-4782
飓风	-4783
一些人	-4784
下来的	-4785
就没有	-4786
收入和	-4787
死亡率	-4788
法国的	-4789
移民的	-4790
随之而	-4791
全民公决	-4792
金砖国家	-4793
古老	-4794
地下	-4795
报复	-4796
救援	-4797
沉默	-4798
解读	-4799
远比	-4800
使用的	-4801
国际法	-4802
是否能	-4803
最高法院	-4804
货币政策的	-4805
CA	-4806
不顾	-4807
偏见	-4808
北非	-4809
反思	-4810
富国	-4811
对付	-4812
旅行	-4813
有害	-4814
英雄	-4815
▁in	-4816
▁否则	-4817
万美元	-4818
年开始	-4819
机构和	-4820
的德国	-4821
罕默德	-4822
世贸组织	-4823
根本没有	-4824
#160;&#160;&	-4825
ot	-4826
uc	-4827
分布	-4828
判决	-4829
南克	-4830
天气	-4831
归咎	-4832
果真	-4833
特权	-4834
组建	-4835
行事	-4836
邓小	-4837
部落	-4838
个世纪	-4839
也许会	-4840
充斥着	-4841
和伊朗	-4842
国内的	-4843
大幅度	-4844
峰会上	-4845
货币的	-4846
我们已经	-4847
欧盟国家	-4848
贸易伙伴	-4849
变得越来越	-4850
你们	-4851
充当	-4852
再度	-4853
准则	-4854
常态	-4855
干旱	-4856
年里	-4857
很好	-4858
指望	-4859
比利	-4860
90%	-4861
尼克松	-4862
新技术	-4863
现实的	-4864
的前提	-4865
的危机	-4866
的新兴	-4867
邓小平	-4868
银行业	-4869
▁意大利	-4870
强有力的	-4871
波斯尼亚	-4872
金融系统	-4873
▁2010	-4874
之间的关系	-4875
▁每	-4876
不前	-4877
两党	-4878
典型	-4879
力度	-4880
大脑	-4881
支柱	-4882
更少	-4883
有权	-4884
极度	-4885
比赛	-4886
职责	-4887
虐待	-4888
远离	-4889
颇为	-4890
可以用	-4891
失败的	-4892
无论是	-4893
理论上	-4894
的讨论	-4895
老龄化	-4896
增长模式	-4897
社交媒体	-4898
联合国的	-4899
联邦政府	-4900
跨大西洋	-4901
▁l	-4902
优惠	-4903
优秀	-4904
创立	-4905
好事	-4906
尔斯	-4907
就连	-4908
揭示	-4909
考察	-4910
增加的	-4911
显然是	-4912
暴力的	-4913
的一份	-4914
的资产	-4915
哈梅内伊	-4916
平均水平	-4917
撒哈拉以南	-4918
▁更糟糕的是	-4919
倒台	-4920
年将	-4921
开采	-4922
所需	-4923
掌控	-4924
教徒	-4925
症状	-4926
而对	-4927
辞职	-4928
无人机	-4929
的使用	-4930
的规模	-4931
根本无法	-4932
这一趋势	-4933
▁Part	-4934
和高	-4935
大肆	-4936
广场	-4937
成绩	-4938
挣扎	-4939
推高	-4940
斯蒂	-4941
涌入	-4942
熟悉	-4943
看待	-4944
鲜明	-4945
con	-4946
est	-4947
▁对此	-4948
什么样	-4949
其经济	-4950
卡塔尔	-4951
去杠杆	-4952
可怕的	-4953
在某些	-4954
在这些	-4955
很简单	-4956
结核病	-4957
非正式	-4958
非洲的	-4959
▁从这个	-4960
竭尽全力	-4961
上海	-4962
不住	-4963
会让	-4964
兴起	-4965
失灵	-4966
布里	-4967
这条	-4968
遇到	-4969
▁并且	-4970
▁这将	-4971
不那么	-4972
与伊朗	-4973
合作的	-4974
新一轮	-4975
服务的	-4976
来实现	-4977
环境中	-4978
英国人	-4979
aceb	-4980
▁但他们	-4981
▁这也是	-4982
令人震惊	-4983
所作所为	-4984
▁无论如何	-4985
▁经济学家	-4986
气候变化的	-4987
石油和天然气	-4988
不对	-4989
为时	-4990
京都	-4991
会上	-4992
侵蚀	-4993
信服	-4994
卢旺	-4995
改造	-4996
明证	-4997
激增	-4998
理事	-4999
精力	-5000
重申	-5001
附近	-5002
限度	-5003
aul	-5004
ell	-5005
在最近	-5006
归咎于	-5007
活力的	-5008
资本流	-5009
进入了	-5010
世界各国	-5011
人民银行	-5012
很可能会	-5013
知识分子	-5014
西班牙和	-5015
acebook	-5016
产物	-5017
低下	-5018
打造	-5019
有点	-5020
的那	-5021
目睹	-5022
置于	-5023
衍生	-5024
逃离	-5025
70%	-5026
omm	-5027
▁直到	-5028
劳动者	-5029
它们在	-5030
对这些	-5031
就已经	-5032
撒切尔	-5033
日本和	-5034
的传统	-5035
的报告	-5036
金正恩	-5037
tern	-5038
▁大多数	-5039
奥巴马的	-5040
二十一世纪	-5041
,《	-5042
ff	-5043
一小	-5044
不知	-5045
他所	-5046
便宜	-5047
如同	-5048
教皇	-5049
福祉	-5050
以及在	-5051
卢旺达	-5052
可靠的	-5053
巴尔干	-5054
最新的	-5055
的趋势	-5056
▁乌克兰	-5057
投资者的	-5058
是正确的	-5059
更有可能	-5060
石油公司	-5061
紧张局势	-5062
的货币政策	-5063
In	-5064
不惜	-5065
以致	-5066
威慑	-5067
定期	-5068
是以	-5069
显现	-5070
更广	-5071
比尔	-5072
渐进	-5073
第五	-5074
等于	-5075
附加	-5076
代表了	-5077
其自身	-5078
在没有	-5079
是可以	-5080
电视台	-5081
的城市	-5082
的控制	-5083
选择了	-5084
都不是	-5085
市场经济	-5086
并非如此	-5087
极端分子	-5088
ry	-5089
享有	-5090
会使	-5091
否定	-5092
含义	-5093
大有	-5094
宗派	-5095
超出	-5096
还不	-5097
这让	-5098
ohn	-5099
▁就像	-5100
但如果	-5101
全球性	-5102
变化的	-5103
的其他	-5104
角度讲	-5105
经常账户	-5106
美国国会	-5107
采取措施	-5108
全球经济的	-5109
”)	-5110
仅有	-5111
住宅	-5112
促成	-5113
出色	-5114
卜杜	-5115
德曼	-5116
戈尔	-5117
成分	-5118
日内	-5119
有多	-5120
的低	-5121
过多	-5122
▁on	-5123
▁但它	-5124
不公平	-5125
不可或	-5126
和平的	-5127
外交官	-5128
忽略了	-5129
欧元的	-5130
1998	-5131
做好准备	-5132
跨太平洋	-5133
奥巴马总统	-5134
交给	-5135
大气	-5136
布尔	-5137
精确	-5138
自主	-5139
触发	-5140
设法	-5141
随时	-5142
600	-5143
DNA	-5144
不相同	-5145
些什么	-5146
多样化	-5147
布雷顿	-5148
疾病的	-5149
的制度	-5150
的暴力	-5151
的最高	-5152
的资源	-5153
稳定性	-5154
▁在欧洲	-5155
不可或缺	-5156
营养不良	-5157
雄心勃勃	-5158
经常项目赤字	-5159
▁V	-5160
买入	-5161
作家	-5162
到达	-5163
在与	-5164
基准	-5165
已久	-5166
强加	-5167
形容	-5168
架构	-5169
正统	-5170
突出	-5171
老年	-5172
股价	-5173
转换	-5174
▁Ch	-5175
▁某些	-5176
伯南克	-5177
反对者	-5178
增加到	-5179
对他们	-5180
小布什	-5181
得多的	-5182
或其他	-5183
金融业	-5184
所有国家	-5185
欧洲经济	-5186
贸易赤字	-5187
中国和印度	-5188
作者	-5189
几天	-5190
博弈	-5191
埔寨	-5192
子孙	-5193
宝贵	-5194
展现	-5195
接收	-5196
杂志	-5197
模仿	-5198
欺骗	-5199
流失	-5200
缓冲	-5201
价格的	-5202
会发生	-5203
加利福	-5204
和他的	-5205
密集型	-5206
排除在	-5207
柬埔寨	-5208
罗斯福	-5209
▁结果是	-5210
世界上最	-5211
令人担忧	-5212
全球贸易	-5213
央行行长	-5214
财富基金	-5215
通胀目标	-5216
▁最重要的是	-5217
卫星	-5218
回合	-5219
小国	-5220
尤为	-5221
成千	-5222
捷克	-5223
探索	-5224
自豪	-5225
苦难	-5226
苹果	-5227
The	-5228
ber	-5229
▁亚洲	-5230
依然是	-5231
在许多	-5232
外国人	-5233
大银行	-5234
实力的	-5235
就开始	-5236
市场上	-5237
法国人	-5238
的因素	-5239
结束后	-5240
1970	-5241
欧洲议会	-5242
经济政策	-5243
欧元区国家	-5244
ew	-5245
▁m	-5246
修建	-5247
友好	-5248
周围	-5249
奇迹	-5250
强力	-5251
归根	-5252
当作	-5253
打算	-5254
指引	-5255
接种	-5256
曾在	-5257
有益	-5258
杀戮	-5259
种种	-5260
米亚	-5261
行使	-5262
▁按照	-5263
他们将	-5264
健康的	-5265
充分的	-5266
内部的	-5267
决不能	-5268
准备好	-5269
史以来	-5270
和欧盟	-5271
政治上	-5272
比其他	-5273
潜在的	-5274
痛苦的	-5275
的标准	-5276
领导力	-5277
也有可能	-5278
全世界的	-5279
叙利亚的	-5280
抵押贷款	-5281
玻利维亚	-5282
不可避免的	-5283
加利福尼亚	-5284
▁到目前为止	-5285
国内生产总值	-5286
一词	-5287
人工	-5288
他将	-5289
停火	-5290
增税	-5291
年在	-5292
建国	-5293
数的	-5294
种子	-5295
秘鲁	-5296
舆论	-5297
轰炸	-5298
迫害	-5299
通信	-5300
重启	-5301
——“	-5302
▁中东	-5303
也已经	-5304
德国人	-5305
格林斯	-5306
深刻的	-5307
的局面	-5308
自由派	-5309
▁在这种	-5310
土耳其的	-5311
替代方案	-5312
IC	-5313
▁b	-5314
一无	-5315
元素	-5316
免于	-5317
将使	-5318
最小	-5319
来到	-5320
混合	-5321
芬兰	-5322
通讯	-5323
遗憾	-5324
采纳	-5325
高出	-5326
ine	-5327
一方面	-5328
奥运会	-5329
就应该	-5330
日内瓦	-5331
是中国	-5332
极右翼	-5333
的目的	-5334
的策略	-5335
的选民	-5336
▁第二个	-5337
格林斯潘	-5338
财政紧缩	-5339
布雷顿森林	-5340
欧洲领导人	-5341
进一步恶化	-5342
▁a	-5343
一路	-5344
之内	-5345
公债	-5346
关联	-5347
名单	-5348
寻常	-5349
意思	-5350
拖延	-5351
支配	-5352
着手	-5353
运营	-5354
雷曼	-5355
风格	-5356
包括了	-5357
反应堆	-5358
和文化	-5359
局限于	-5360
必不可	-5361
成千上	-5362
政府对	-5363
正常化	-5364
注意到	-5365
独立性	-5366
的移民	-5367
的道路	-5368
确定性	-5369
商业银行	-5370
新兴国家	-5371
社会保障	-5372
▁2009	-5373
);	-5374
▁反	-5375
三年	-5376
之地	-5377
抑郁	-5378
白人	-5379
累积	-5380
纪律	-5381
计价	-5382
许可	-5383
这两	-5384
▁巴西	-5385
▁必须	-5386
三十年	-5387
出口国	-5388
又一次	-5389
引起的	-5390
相结合	-5391
项目的	-5392
马克龙	-5393
1991	-5394
别无选择	-5395
年增长率	-5396
所提出的	-5397
直接投资	-5398
言论自由	-5399
资本流入	-5400
ud	-5401
会给	-5402
听到	-5403
地将	-5404
宪章	-5405
应付	-5406
态势	-5407
沃斯	-5408
绑架	-5409
轻松	-5410
较为	-5411
边际	-5412
近乎	-5413
配额	-5414
▁新的	-5415
也开始	-5416
公众对	-5417
在去年	-5418
在英国	-5419
政府将	-5420
此之外	-5421
灵活性	-5422
的家庭	-5423
的建议	-5424
的进步	-5425
等国家	-5426
统一的	-5427
一个新的	-5428
充分就业	-5429
出人意料	-5430
欧洲大陆	-5431
的一系列	-5432
生产率增长	-5433
主动	-5434
作战	-5435
布拉	-5436
引用	-5437
影子	-5438
忍受	-5439
打开	-5440
提及	-5441
政体	-5442
本土	-5443
的总	-5444
经理	-5445
解除	-5446
诚实	-5447
重复	-5448
难道	-5449
▁就连	-5450
▁很多	-5451
但我们	-5452
只需要	-5453
和印度	-5454
已不再	-5455
扩大的	-5456
有理由	-5457
的创新	-5458
而美国	-5459
那样的	-5460
从根本上	-5461
各成员国	-5462
德国总理	-5463
总统选举	-5464
政府支出	-5465
的过程中	-5466
ik	-5467
▁若	-5468
三倍	-5469
主持	-5470
卫队	-5471
家们	-5472
当代	-5473
挂钩	-5474
暴行	-5475
本位	-5476
权衡	-5477
温度	-5478
留下	-5479
短暂	-5480
能为	-5481
让他	-5482
谋杀	-5483
▁面对	-5484
中获得	-5485
二战后	-5486
和政策	-5487
在中东	-5488
在这里	-5489
并且在	-5490
的任何	-5491
莫过于	-5492
总体而言	-5493
经济衰退	-5494
儿子	-5495
兰卡	-5496
单边	-5497
南方	-5498
它所	-5499
异常	-5500
恶劣	-5501
用水	-5502
盖茨	-5503
给出	-5504
西藏	-5505
追溯	-5506
ati	-5507
来解决	-5508
法西斯	-5509
萨科齐	-5510
让它们	-5511
追随者	-5512
令人信服	-5513
并不一定	-5514
的方式来	-5515
▁更重要的是	-5516
AR	-5517
Ch	-5518
QE	-5519
代替	-5520
以使	-5521
号召	-5522
塑料	-5523
已是	-5524
族裔	-5525
本应	-5526
维和	-5527
▁与此	-5528
▁金融	-5529
付出的	-5530
和英国	-5531
工程师	-5532
并最终	-5533
成本的	-5534
的竞争	-5535
的过程	-5536
ence	-5537
不可能的	-5538
中等收入	-5539
了一系列	-5540
军事干预	-5541
医疗保险	-5542
政府必须	-5543
长期利率	-5544
8.	-5545
会晤	-5546
哲学	-5547
州和	-5548
描绘	-5549
▁其实	-5550
▁各国	-5551
两国的	-5552
其实是	-5553
助长了	-5554
占据了	-5555
危机前	-5556
应该被	-5557
的数量	-5558
的新闻	-5559
的比例	-5560
购买力	-5561
这就是	-5562
里斯本	-5563
需求的	-5564
1000	-5565
加入欧盟	-5566
总统大选	-5567
诺贝尔奖	-5568
阿拉伯人	-5569
不可避免地	-5570
的经济学家	-5571
aw	-5572
举办	-5573
像是	-5574
公私	-5575
年和	-5576
推出	-5577
正好	-5578
注重	-5579
爱国	-5580
自从	-5581
行列	-5582
转折	-5583
软弱	-5584
雇佣	-5585
黑暗	-5586
会造成	-5587
可以被	-5588
同性恋	-5589
实验室	-5590
生产商	-5591
的争论	-5592
阻碍了	-5593
乌克兰的	-5594
克里米亚	-5595
和俄罗斯	-5596
美联储主席	-5597
Al	-5598
▁0	-5599
仍将	-5600
件事	-5601
冻结	-5602
叛军	-5603
后续	-5604
土壤	-5605
奥尔	-5606
家园	-5607
恰当	-5608
斯里	-5609
核武	-5610
节约	-5611
跨越	-5612
令人瞩	-5613
会产生	-5614
共同体	-5615
增长了	-5616
工作者	-5617
的信任	-5618
共和党人	-5619
如果没有	-5620
弗里德曼	-5621
超级大国	-5622
▁2012	-5623
和其他国家	-5624
经济增长的	-5625
在某种程度上	-5626
se	-5627
▁说	-5628
不想	-5629
与之	-5630
主题	-5631
化了	-5632
匹配	-5633
及时	-5634
失误	-5635
席卷	-5636
指向	-5637
收回	-5638
民选	-5639
注册	-5640
破灭	-5641
身处	-5642
面向	-5643
▁事实	-5644
和企业	-5645
建立起	-5646
引人注	-5647
归根结	-5648
历史学家	-5649
穆罕默德	-5650
达成协议	-5651
▁2015	-5652
▁不仅如此	-5653
▁相比之下	-5654
总统奥巴马	-5655
”、	-5656
▁再	-5657
一方	-5658
事关	-5659
伴随	-5660
大了	-5661
岁的	-5662
彼得	-5663
得益	-5664
挑衅	-5665
期限	-5666
来为	-5667
测量	-5668
稳步	-5669
经典	-5670
豁免	-5671
阿里	-5672
雇用	-5673
魅力	-5674
了一份	-5675
借款人	-5676
周期性	-5677
最高的	-5678
理性的	-5679
的教育	-5680
的日本	-5681
的错误	-5682
着眼于	-5683
行动方	-5684
还包括	-5685
高质量	-5686
发展援助	-5687
归根结底	-5688
成员资格	-5689
政府债务	-5690
斯里兰卡	-5691
是错误的	-5692
民意调查	-5693
民族国家	-5694
社会主义	-5695
私人投资	-5696
这些措施	-5697
▁国际货币基金组织	-5698
ip	-5699
▁被	-5700
不振	-5701
临近	-5702
之争	-5703
切地	-5704
前途	-5705
占了	-5706
呼声	-5707
寡头	-5708
尼迪	-5709
恐怕	-5710
无从	-5711
时报	-5712
气温	-5713
的中	-5714
的非	-5715
筹集	-5716
警惕	-5717
野蛮	-5718
高层	-5719
已开始	-5720
演变为	-5721
的严重	-5722
的人均	-5723
的斗争	-5724
的规则	-5725
而不能	-5726
表面上	-5727
evel	-5728
英国退出	-5729
9%	-5730
gt	-5731
▁U	-5732
不去	-5733
命令	-5734
回忆	-5735
总结	-5736
成百	-5737
所周	-5738
施压	-5739
易事	-5740
是将	-5741
此外	-5742
补助	-5743
评价	-5744
过分	-5745
,20	-5746
ern	-5747
和宗教	-5748
战争中	-5749
是全球	-5750
的个人	-5751
的组织	-5752
第三个	-5753
警告说	-5754
▁墨西哥	-5755
▁欧洲的	-5756
国际贸易	-5757
提高利率	-5758
罗马尼亚	-5759
低收入国家	-5760
储量	-5761
出手	-5762
前者	-5763
大体	-5764
尖锐	-5765
屈服	-5766
情感	-5767
抱有	-5768
推移	-5769
数学	-5770
更新	-5771
海岸	-5772
漫长	-5773
燃烧	-5774
生效	-5775
肥胖	-5776
若干	-5777
过早	-5778
进了	-5779
阴谋	-5780
顺差	-5781
5%。	-5782
▁以及	-5783
克鲁格	-5784
前苏联	-5785
因为他	-5786
我认为	-5787
持有的	-5788
接近于	-5789
提高到	-5790
来源于	-5791
比利时	-5792
1995	-5793
▁伯克利	-5794
在阿富汗	-5795
如果我们	-5796
▁2011	-5797
政策制定者	-5798
不止	-5799
之比	-5800
事态	-5801
农场	-5802
剩余	-5803
原油	-5804
小型	-5805
概率	-5806
歇尔	-5807
派的	-5808
港口	-5809
电网	-5810
疯狂	-5811
类型	-5812
记住	-5813
论者	-5814
设想	-5815
这也	-5816
上升到	-5817
众所周	-5818
副作用	-5819
基因组	-5820
多元化	-5821
找不到	-5822
明智的	-5823
是无法	-5824
没什么	-5825
能带来	-5826
行业的	-5827
以色列人	-5828
好消息是	-5829
永远不会	-5830
种族灭绝	-5831
货币贬值	-5832
总统候选人	-5833
这些国家的	-5834
up	-5835
▁本	-5836
体验	-5837
内在	-5838
凭借	-5839
勇敢	-5840
区的	-5841
圣地	-5842
塑造	-5843
多哈	-5844
巴布	-5845
无辜	-5846
有意	-5847
植物	-5848
洪水	-5849
花了	-5850
谎言	-5851
ank	-5852
体现在	-5853
决定了	-5854
因为在	-5855
国家庭	-5856
影响了	-5857
成百上	-5858
近年来	-5859
他们认为	-5860
双边关系	-5861
委员会的	-5862
子孙后代	-5863
巴基斯坦的	-5864
提供了一个	-5865
▁坎	-5866
▁谁	-5867
不难	-5868
他说	-5869
兴奋	-5870
多次	-5871
成的	-5872
杀伤	-5873
稀缺	-5874
范畴	-5875
过的	-5876
都对	-5877
预示	-5878
▁但对	-5879
▁具体	-5880
▁这项	-5881
不断地	-5882
之外的	-5883
制定了	-5884
和平与	-5885
和能源	-5886
最大化	-5887
根本不	-5888
的大量	-5889
的时期	-5890
规则的	-5891
达沃斯	-5892
还应该	-5893
都认为	-5894
十九世纪	-5895
在伊拉克	-5896
工业革命	-5897
最严重的	-5898
▁可以肯定	-5899
Facebook	-5900
2,	-5901
两岸	-5902
也对	-5903
分割	-5904
分担	-5905
半年	-5906
地图	-5907
天的	-5908
庆祝	-5909
很低	-5910
心脏	-5911
步伐	-5912
清洗	-5913
这就	-5914
阴影	-5915
son	-5916
▁是的	-5917
▁答案	-5918
与欧洲	-5919
势力的	-5920
和长期	-5921
希腊的	-5922
是非常	-5923
有一天	-5924
的资本	-5925
的预测	-5926
第二大	-5927
萨尔科	-5928
衍生品	-5929
马克思	-5930
▁5%。	-5931
人力资本	-5932
借贷成本	-5933
其他地区	-5934
唯一一个	-5935
国家主席	-5936
很大一部分	-5937
撒哈拉以南非洲	-5938
og	-5939
减缓	-5940
前沿	-5941
勒庞	-5942
受损	-5943
布朗	-5944
机关	-5945
申科	-5946
紧要	-5947
逃避	-5948
SDR	-5949
lob	-5950
▁柏林	-5951
▁自从	-5952
▁银行	-5953
下一次	-5954
不利于	-5955
与欧盟	-5956
伊朗核	-5957
可以说	-5958
和公共	-5959
新政府	-5960
是一场	-5961
是对的	-5962
是欧洲	-5963
模式的	-5964
贷款人	-5965
Paul	-5966
▁000	-5967
▁我们的	-5968
与俄罗斯	-5969
九十年代	-5970
国防部长	-5971
就是一个	-5972
现在已经	-5973
领导人必须	-5974
出席	-5975
各州	-5976
国界	-5977
将为	-5978
将于	-5979
平面	-5980
德尔	-5981
必将	-5982
成效	-5983
房子	-5984
提交	-5985
深深	-5986
短短	-5987
赞助	-5988
起草	-5989
隐含	-5990
隐藏	-5991
音乐	-5992
▁这次	-5993
从而使	-5994
任总统	-5995
传统上	-5996
加入了	-5997
和债务	-5998
困难的	-5999
地认为	-6000
布里奇	-6001
年前的	-6002
时期的	-6003
普京的	-6004
生产的	-6005
的原则	-6006
采取的	-6007
金本位	-6008
阿卜杜	-6009
#45;	-6010
▁但这种	-6011
中央政府	-6012
任何一个	-6013
发挥作用	-6014
和土耳其	-6015
成千上万	-6016
经济表现	-6017
外交政策的	-6018
恐怖主义的	-6019
千年发展目标	-6020
欧元区成员国	-6021
SA	-6022
lt	-6023
ut	-6024
一支	-6025
中学	-6026
从前	-6027
代人	-6028
价还	-6029
借钱	-6030
制止	-6031
同等	-6032
回事	-6033
基石	-6034
悬崖	-6035
更能	-6036
杀死	-6037
民兵	-6038
界限	-6039
级别	-6040
草案	-6041
荒谬	-6042
误解	-6043
阿布	-6044
风能	-6045
▁社会	-6046
从而让	-6047
全面的	-6048
在整个	-6049
有限的	-6050
的前景	-6051
的石油	-6052
表明了	-6053
资源的	-6054
预见的	-6055
1945	-6056
停滞不前	-6057
克鲁格曼	-6058
化学武器	-6059
就有可能	-6060
很快就会	-6061
主权财富基金	-6062
一片	-6063
切断	-6064
单独	-6065
四年	-6066
声誉	-6067
奖励	-6068
捐赠	-6069
揭露	-6070
猜测	-6071
现行	-6072
禁令	-6073
25%	-6074
oun	-6075
世界中	-6076
中国对	-6077
也存在	-6078
产品的	-6079
以来的	-6080
保持着	-6081
去年的	-6082
反对党	-6083
合适的	-6084
性武器	-6085
扩大了	-6086
持续的	-6087
显示出	-6088
的不同	-6089
约旦河	-6090
资产的	-6091
医疗保健	-6092
国内政治	-6093
监管机构	-6094
空气污染	-6095
经济活动	-6096
的经济发展	-6097
不已	-6098
事物	-6099
入盟	-6100
医保	-6101
始终	-6102
开罗	-6103
最具	-6104
涵盖	-6105
真空	-6106
降至	-6107
▁to	-6108
一致的	-6109
不信任	-6110
会出现	-6111
会成为	-6112
如果你	-6113
德拉吉	-6114
我们将	-6115
或许是	-6116
支持率	-6117
的一致	-6118
的民众	-6119
的领域	-6120
要求的	-6121
这么做	-6122
需要在	-6123
▁如果你	-6124
从来没有	-6125
单一市场	-6126
大宗商品	-6127
教育程度	-6128
雷曼兄弟	-6129
政治和经济	-6130
oc	-6131
▁很	-6132
一大	-6133
他信	-6134
协商	-6135
叙事	-6136
戏剧	-6137
把它	-6138
撤离	-6139
曝光	-6140
根除	-6141
约为	-6142
置疑	-6143
虚假	-6144
不过是	-6145
了大量	-6146
价还价	-6147
俄国的	-6148
前总理	-6149
在亚洲	-6150
城市化	-6151
基督徒	-6152
基础上	-6153
女性的	-6154
所做的	-6155
相同的	-6156
脆弱性	-6157
英国和	-6158
2018	-6159
▁这样做	-6160
不断增加	-6161
朝鲜半岛	-6162
讨价还价	-6163
京都议定书	-6164
ex	-6165
ug	-6166
不清	-6167
倡导	-6168
各样	-6169
对策	-6170
很小	-6171
故意	-6172
溢价	-6173
用途	-6174
美好	-6175
这对	-6176
一样的	-6177
为自己	-6178
了这些	-6179
任理事	-6180
少数派	-6181
所有权	-6182
日本人	-6183
涉及到	-6184
的比重	-6185
的第一	-6186
该组织	-6187
起来的	-6188
还不如	-6189
长期的	-6190
▁让我们	-6191
所有人的	-6192
无法获得	-6193
▁2014	-6194
安倍经济学	-6195
联系在一起	-6196
贸易和投资	-6197
金融市场的	-6198
1/	-6199
》,	-6200
会计	-6201
但对	-6202
倒退	-6203
学科	-6204
尽快	-6205
执法	-6206
斯洛	-6207
无需	-6208
机场	-6209
流程	-6210
稳健	-6211
策划	-6212
而其	-6213
饥荒	-6214
高涨	-6215
CEO	-6216
all	-6217
▁第四	-6218
个人的	-6219
之前的	-6220
人民党	-6221
如此之	-6222
文化的	-6223
更广泛	-6224
有一些	-6225
的道德	-6226
的部分	-6227
被广泛	-6228
说明了	-6229
谈判中	-6230
较低的	-6231
追溯到	-6232
▁Pro	-6233
▁伊拉克	-6234
的大部分	-6235
私营部门	-6236
跨国公司	-6237
凯恩斯主义	-6238
也为	-6239
但仍	-6240
创始	-6241
初级	-6242
场合	-6243
多久	-6244
多尔	-6245
婚姻	-6246
尼泊	-6247
并无	-6248
总裁	-6249
情愿	-6250
想到	-6251
房产	-6252
指令	-6253
推向	-6254
既得	-6255
是其	-6256
极限	-6257
氛围	-6258
沙龙	-6259
派遣	-6260
糖尿	-6261
花钱	-6262
蛋白	-6263
血腥	-6264
低成本	-6265
及其他	-6266
同时又	-6267
基本面	-6268
忽视了	-6269
急需的	-6270
想象的	-6271
是一位	-6272
最近在	-6273
条件下	-6274
的希望	-6275
肯尼迪	-6276
货币和	-6277
▁马德里	-6278
自由民主	-6279
艾滋病毒	-6280
lobal	-6281
▁巴勒斯坦	-6282
▁普林斯顿	-6283
evelop	-6284
--	-6285
不像	-6286
伐克	-6287
卷入	-6288
哈里	-6289
囚犯	-6290
土重	-6291
境内	-6292
复制	-6293
宇宙	-6294
审视	-6295
宽容	-6296
将给	-6297
就职	-6298
掉了	-6299
收到	-6300
新增	-6301
每一	-6302
汽油	-6303
道而	-6304
颇具	-6305
ord	-6306
全新的	-6307
创造出	-6308
就可能	-6309
是我们	-6310
津巴布	-6311
美国将	-6312
邻国的	-6313
领导者	-6314
▁今天的	-6315
▁即使是	-6316
不是一个	-6317
债务负担	-6318
国家利益	-6319
有所下降	-6320
极端贫困	-6321
的人来说	-6322
紧缩政策	-6323
▁坎布里奇	-6324
▁美国剑桥	-6325
东道	-6326
中欧	-6327
内政	-6328
列为	-6329
别人	-6330
卡特	-6331
君主	-6332
在他	-6333
增速	-6334
奏效	-6335
实用	-6336
就此	-6337
拉动	-6338
提款	-6339
是让	-6340
有力	-6341
格尔	-6342
潮流	-6343
瓦解	-6344
话题	-6345
这份	-6346
错了	-6347
隐私	-6348
高估	-6349
end	-6350
几年前	-6351
卷土重	-6352
得到的	-6353
更低的	-6354
的儿童	-6355
的英国	-6356
精神病	-6357
耐药性	-6358
表现得	-6359
调整的	-6360
阻止了	-6361
在叙利亚	-6362
帝国主义	-6363
技术进步	-6364
津巴布韦	-6365
试图通过	-6366
这一比例	-6367
1,000	-6368
conom	-6369
NP	-6370
▁拉	-6371
五个	-6372
伤亡	-6373
储存	-6374
几十	-6375
因于	-6376
地点	-6377
增值	-6378
平息	-6379
延伸	-6380
总部	-6381
战术	-6382
束缚	-6383
竭力	-6384
等国	-6385
贪婪	-6386
▁Re	-6387
压力的	-6388
定义为	-6389
所必须	-6390
核电站	-6391
的决策	-6392
的利率	-6393
的土地	-6394
的意愿	-6395
的潜在	-6396
贸易和	-6397
资本外	-6398
▁即使在	-6399
中小企业	-6400
公共投资	-6401
当选总统	-6402
生活方式	-6403
通货紧缩	-6404
都是如此	-6405
的全球经济	-6406
的解决方案	-6407
比以往任何时候	-6408
▁举	-6409
十二	-6410
哈萨	-6411
对方	-6412
就被	-6413
市长	-6414
年时	-6415
慢性	-6416
政界	-6417
新鲜	-6418
检察	-6419
派别	-6420
的可	-6421
维也	-6422
股份	-6423
胜出	-6424
采访	-6425
Rob	-6426
▁至少	-6427
体现了	-6428
创新和	-6429
和世界	-6430
来进行	-6431
的失败	-6432
的持续	-6433
糖尿病	-6434
能获得	-6435
▁在一个	-6436
军事力量	-6437
恶性循环	-6438
所导致的	-6439
有史以来	-6440
有所不同	-6441
甚至可能	-6442
资本流动	-6443
urope	-6444
TA	-6445
ta	-6446
不复	-6447
以巴	-6448
其反	-6449
军备	-6450
军官	-6451
加哥	-6452
吸取	-6453
头上	-6454
封闭	-6455
已被	-6456
并对	-6457
微妙	-6458
批判	-6459
早在	-6460
朝着	-6461
汲取	-6462
流血	-6463
热衷	-6464
稳固	-6465
致死	-6466
葛兰	-6467
起着	-6468
迎接	-6469
2%。	-6470
ess	-6471
iti	-6472
sti	-6473
事件的	-6474
制造商	-6475
即便是	-6476
完全是	-6477
归因于	-6478
总量的	-6479
感兴趣	-6480
拒绝了	-6481
最重要	-6482
的商业	-6483
的存在	-6484
的手段	-6485
的监管	-6486
脆弱的	-6487
芝加哥	-6488
观察者	-6489
达成了	-6490
1994	-6491
▁新德里	-6492
和以色列	-6493
如何应对	-6494
实体经济	-6495
果真如此	-6496
税收收入	-6497
近几年来	-6498
迹象表明	-6499
生物多样性	-6500
中止	-6501
低了	-6502
和非	-6503
咨询	-6504
商人	-6505
将从	-6506
撤出	-6507
眼中	-6508
耗尽	-6509
耗费	-6510
西部	-6511
轨道	-6512
输出	-6513
骚乱	-6514
▁但他	-6515
▁当今	-6516
受益者	-6517
和地区	-6518
和监管	-6519
对欧盟	-6520
感受到	-6521
把自己	-6522
放弃了	-6523
斯拉夫	-6524
是一项	-6525
桑德斯	-6526
视而不	-6527
违反了	-6528
▁Con	-6529
与以色列	-6530
人均收入	-6531
似乎已经	-6532
债务危机	-6533
其中一个	-6534
只是一个	-6535
同时也是	-6536
就不可能	-6537
消费者的	-6538
的美国人	-6539
▁国际社会	-6540
▁巴基斯坦	-6541
合作伙伴关系	-6542
信奉	-6543
增进	-6544
据说	-6545
整整	-6546
暂停	-6547
源泉	-6548
病例	-6549
着陆	-6550
趋同	-6551
迁徙	-6552
防卫	-6553
阻力	-6554
麦肯	-6555
付出了	-6556
在印度	-6557
对那些	-6558
并不会	-6559
恶化的	-6560
正确地	-6561
温和的	-6562
的想法	-6563
的故事	-6564
通常是	-6565
▁5%,	-6566
▁但尽管	-6567
不幸的是	-6568
为基础的	-6569
恐怖组织	-6570
的另一个	-6571
英国脱欧	-6572
英国退欧	-6573
拥有核武器	-6574
政治领导人	-6575
一倍	-6576
一如	-6577
上帝	-6578
单纯	-6579
和谐	-6580
器官	-6581
就算	-6582
巴以	-6583
平静	-6584
开端	-6585
手里	-6586
报酬	-6587
标签	-6588
深陷	-6589
火箭	-6590
股本	-6591
赞同	-6592
起点	-6593
进攻	-6594
800	-6595
▁但当	-6596
一个人	-6597
他们会	-6598
公司税	-6599
在他们	-6600
强化了	-6601
成立了	-6602
推动了	-6603
核试验	-6604
的崛起	-6605
的联系	-6606
示威者	-6607
签署了	-6608
给我们	-6609
维也纳	-6610
远低于	-6611
都知道	-6612
少数族裔	-6613
就是明证	-6614
所指出的	-6615
是否能够	-6616
负面影响	-6617
哈萨克斯坦	-6618
年全球金融危机	-6619
▁三	-6620
亚美	-6621
依存	-6622
几百	-6623
到期	-6624
回避	-6625
境地	-6626
大党	-6627
想想	-6628
搜索	-6629
放眼	-6630
方便	-6631
科夫	-6632
聚集	-6633
邻居	-6634
钢铁	-6635
顶峰	-6636
马尔	-6637
▁然后	-6638
人死亡	-6639
人类的	-6640
会议员	-6641
但这一	-6642
吸引了	-6643
和民主	-6644
因素是	-6645
在那里	-6646
承诺的	-6647
生物学	-6648
的不满	-6649
规模的	-6650
限制了	-6651
随后的	-6652
1967	-6653
1992	-6654
sion	-6655
令人不安	-6656
其自身的	-6657
刺激计划	-6658
前所未有	-6659
外交部长	-6660
常任理事	-6661
当今世界	-6662
所取得的	-6663
有足够的	-6664
的经济政策	-6665
上演	-6666
作品	-6667
关押	-6668
其所	-6669
境况	-6670
头脑	-6671
对冲	-6672
巴格	-6673
惊人	-6674
的老	-6675
经受	-6676
维克	-6677
羞辱	-6678
职务	-6679
萨斯	-6680
赌注	-6681
1%。	-6682
ton	-6683
关注的	-6684
刺激了	-6685
惊人的	-6686
比美国	-6687
独一无	-6688
的人数	-6689
的思想	-6690
的文化	-6691
的项目	-6692
运动员	-6693
还不到	-6694
通过了	-6695
John	-6696
▁但美国	-6697
亚美尼亚	-6698
应对措施	-6699
这方面的	-6700
迫切需要	-6701
难民危机	-6702
民族主义者	-6703
经济和社会	-6704
evelopment	-6705
az	-6706
▁多	-6707
上加	-6708
主管	-6709
会面	-6710
光明	-6711
名的	-6712
居高	-6713
战场	-6714
法特	-6715
波多	-6716
的自	-6717
神圣	-6718
被人	-6719
警方	-6720
赫尔	-6721
▁俄国	-6722
▁未来	-6723
▁第一	-6724
他们是	-6725
占全球	-6726
回报率	-6727
大选中	-6728
层面上	-6729
挑战的	-6730
控制权	-6731
海平面	-6732
的一年	-6733
的依赖	-6734
竞争性	-6735
管理者	-6736
类型的	-6737
而中国	-6738
高科技	-6739
麦肯锡	-6740
储备货币	-6741
医疗服务	-6742
大幅下降	-6743
布什总统	-6744
总统普京	-6745
投资银行	-6746
拒绝接受	-6747
特别提款	-6748
独一无二	-6749
萨尔科奇	-6750
▁2007	-6751
▁世界银行	-6752
▁毫不奇怪	-6753
▁Party	-6754
ES	-6755
ld	-6756
一段	-6757
分支	-6758
升息	-6759
在对	-6760
外包	-6761
尼古	-6762
弗拉	-6763
弗朗	-6764
所做	-6765
掠夺	-6766
机械	-6767
臭名	-6768
致使	-6769
英语	-6770
700	-6771
▁朝鲜	-6772
代表着	-6773
在其他	-6774
并以此	-6775
有很多	-6776
波多黎	-6777
演讲中	-6778
的批评	-6779
的表现	-6780
社会党	-6781
额外的	-6782
▁但中国	-6783
令人失望	-6784
债务重组	-6785
政治制度	-6786
正在经历	-6787
行动起来	-6788
重要作用	-6789
经济和政治	-6790
联合国大会	-6791
iv	-6792
人心	-6793
初衷	-6794
回顾	-6795
场所	-6796
够的	-6797
失控	-6798
带有	-6799
有序	-6800
清醒	-6801
清除	-6802
照顾	-6803
理所	-6804
裁军	-6805
让它	-6806
论点	-6807
诉求	-6808
输家	-6809
远未	-6810
鲁莽	-6811
und	-6812
▁民主	-6813
▁随后	-6814
一个更	-6815
哲学家	-6816
微不足	-6817
所造成	-6818
更愿意	-6819
最严重	-6820
殖民地	-6821
的出现	-6822
的有效	-6823
过去了	-6824
这表明	-6825
限制在	-6826
▁第一个	-6827
▁这一点	-6828
和伊拉克	-6829
波多黎各	-6830
美国国债	-6831
选举结果	-6832
阿拉法特	-6833
#45;&	-6834
▁2013	-6835
杀伤性武器	-6836
Robert	-6837
大宗商品价格	-6838
人对	-6839
克制	-6840
协作	-6841
名字	-6842
哈特	-6843
坚挺	-6844
奉行	-6845
奠定	-6846
安抚	-6847
手术	-6848
接管	-6849
揽子	-6850
旁观	-6851
权益	-6852
正当	-6853
游击	-6854
直升	-6855
直面	-6856
确立	-6857
而后	-6858
胡锦	-6859
适当	-6860
马车	-6861
3%。	-6862
▁关键	-6863
▁原因	-6864
低估了	-6865
供应商	-6866
办法是	-6867
可以将	-6868
在欧盟	-6869
的事件	-6870
的伊朗	-6871
的现象	-6872
胡锦涛	-6873
这使得	-6874
▁比如说	-6875
不受欢迎	-6876
俄罗斯和	-6877
半个世纪	-6878
微不足道	-6879
视而不见	-6880
这些政策	-6881
远远不够	-6882
收入不平等	-6883
An	-6884
OM	-6885
之久	-6886
借此	-6887
偏离	-6888
动乱	-6889
变迁	-6890
合物	-6891
妻子	-6892
意的	-6893
最快	-6894
有趣	-6895
村庄	-6896
浮动	-6897
牵涉	-6898
电动	-6899
的重	-6900
空中	-6901
罕见	-6902
论证	-6903
较高	-6904
过时	-6905
造就	-6906
▁基于	-6907
参与了	-6908
双方都	-6909
召开的	-6910
对伊朗	-6911
尼泊尔	-6912
找到了	-6913
是不可	-6914
的迹象	-6915
▁Sch	-6916
▁全世界	-6917
▁在中国	-6918
从一开始	-6919
对美国的	-6920
年代以来	-6921
是不够的	-6922
社会福利	-6923
经济改革	-6924
这一结果	-6925
欧洲一体化	-6926
#45;&#45;	-6927
65	-6928
IT	-6929
不多	-6930
丧生	-6931
互换	-6932
哪种	-6933
在新	-6934
城镇	-6935
外来	-6936
巨型	-6937
想起	-6938
是要	-6939
特区	-6940
王朝	-6941
生计	-6942
的核	-6943
的罪	-6944
科研	-6945
管辖	-6946
红利	-6947
要让	-6948
里亚	-6949
▁Ac	-6950
决定性	-6951
准备金	-6952
发展和	-6953
发现了	-6954
和商业	-6955
回到了	-6956
坏消息	-6957
太多的	-6958
权利的	-6959
温和派	-6960
的人类	-6961
的工具	-6962
的教训	-6963
的理论	-6964
移民和	-6965
而没有	-6966
臭名昭	-6967
高风险	-6968
全球金融	-6969
加沙地带	-6970
政府应该	-6971
权力机构	-6972
股票市场	-6973
问题在于	-6974
▁好消息是	-6975
▁简而言之	-6976
带来巨大的	-6977
时间的推移	-6978
的不确定性	-6979
ternational	-6980
不错	-6981
之举	-6982
也让	-6983
交道	-6984
住了	-6985
侯赛	-6986
假定	-6987
加泰	-6988
受困	-6989
家长	-6990
容克	-6991
开创	-6992
心态	-6993
收获	-6994
无比	-6995
派系	-6996
王国	-6997
直觉	-6998
等同	-6999
野生	-7000
不在于	-7001
使他们	-7002
加泰罗	-7003
城市的	-7004
已经有	-7005
往往是	-7006
生活中	-7007
的人权	-7008
的贷款	-7009
的预期	-7010
财政和	-7011
10%。	-7012
1993	-7013
▁许多人	-7014
不负责任	-7015
利益集团	-7016
卷土重来	-7017
根本性的	-7018
这场危机	-7019
stitu	-7020
不可持续的	-7021
加泰罗尼亚	-7022
io	-7023
一件	-7024
两极	-7025
光是	-7026
出发	-7027
功于	-7028
加纳	-7029
去了	-7030
吸烟	-7031
大为	-7032
慕尼	-7033
找出	-7034
拙劣	-7035
无情	-7036
更强	-7037
杰夫	-7038
正规	-7039
特拉	-7040
社团	-7041
简直	-7042
较少	-7043
这与	-7044
远见	-7045
适得	-7046
ani	-7047
▁但我	-7048
▁来自	-7049
保持在	-7050
几乎是	-7051
国家在	-7052
在哪里	-7053
复杂性	-7054
完成了	-7055
希望的	-7056
建立的	-7057
强烈的	-7058
接下来	-7059
政客们	-7060
无法在	-7061
的出口	-7062
的损失	-7063
的数字	-7064
的调查	-7065
研究者	-7066
糟糕的	-7067
都不能	-7068
主导地位	-7069
保险公司	-7070
工作人员	-7071
联合政府	-7072
臭名昭著	-7073
越来越大	-7074
适得其反	-7075
,2008	-7076
约旦河西岸	-7077
越来越多地	-7078
随之而来的	-7079
&#45;&#45;	-7080
3,	-7081
▁第	-7082
利钦	-7083
可观	-7084
存活	-7085
愈烈	-7086
招募	-7087
教科	-7088
波罗	-7089
深受	-7090
短视	-7091
虚拟	-7092
让其	-7093
让我	-7094
选区	-7095
里夫	-7096
顶层	-7097
15%	-7098
▁欧元	-7099
与西方	-7100
丘吉尔	-7101
但这些	-7102
做什么	-7103
凝聚力	-7104
副总统	-7105
叶利钦	-7106
听起来	-7107
在一定	-7108
威胁的	-7109
将面临	-7110
归功于	-7111
执政的	-7112
控制着	-7113
本国的	-7114
的大幅	-7115
的重大	-7116
自动化	-7117
获得者	-7118
该协议	-7119
1973	-7120
从而导致	-7121
农村地区	-7122
成为现实	-7123
数百万人	-7124
无关紧要	-7125
生物燃料	-7126
资本主义的	-7127
9.	-7128
IV	-7129
▁w	-7130
不相	-7131
亲密	-7132
则在	-7133
创伤	-7134
和反	-7135
外债	-7136
大臣	-7137
夺走	-7138
定位	-7139
得上	-7140
愈演	-7141
搜集	-7142
撰写	-7143
教条	-7144
数额	-7145
更深	-7146
检验	-7147
此举	-7148
民党	-7149
版本	-7150
牛津	-7151
精心	-7152
艾哈	-7153
营造	-7154
越发	-7155
道歉	-7156
避难	-7157
4%。	-7158
▁一种	-7159
世界最	-7160
和市场	-7161
和支持	-7162
在我们	-7163
已经从	-7164
慕尼黑	-7165
正处于	-7166
毕业生	-7167
的分析	-7168
的稳定	-7169
监管和	-7170
组织和	-7171
维持在	-7172
预示着	-7173
国家政府	-7174
少数民族	-7175
愈演愈烈	-7176
无法解决	-7177
的领导下	-7178
财政状况	-7179
高等教育	-7180
不幸	-7181
为期	-7182
书中	-7183
亚于	-7184
人选	-7185
他是	-7186
公里	-7187
准入	-7188
包围	-7189
又是	-7190
名列	-7191
多极	-7192
大麻	-7193
娱乐	-7194
小学	-7195
悖论	-7196
惠及	-7197
投行	-7198
抬头	-7199
接纳	-7200
明星	-7201
春天	-7202
是很	-7203
有用	-7204
极少	-7205
民用	-7206
河流	-7207
治国	-7208
用了	-7209
留给	-7210
结局	-7211
美中	-7212
蓬勃	-7213
论调	-7214
金额	-7215
顶尖	-7216
▁一位	-7217
之后的	-7218
代表的	-7219
凸显出	-7220
和创新	-7221
在非洲	-7222
希拉克	-7223
很好地	-7224
必然会	-7225
拥有的	-7226
来应对	-7227
流行的	-7228
的内容	-7229
的科学	-7230
的证据	-7231
的限制	-7232
能源和	-7233
转基因	-7234
选举的	-7235
驾马车	-7236
1960	-7237
▁而如果	-7238
产能过剩	-7239
债券市场	-7240
取得进展	-7241
所发生的	-7242
政府官员	-7243
的伊斯兰	-7244
竞选活动	-7245
▁他们认为	-7246
而不仅仅是	-7247
ht	-7248
▁卡	-7249
一来	-7250
估值	-7251
冷静	-7252
制作	-7253
垃圾	-7254
多重	-7255
幻觉	-7256
开来	-7257
弹性	-7258
必需	-7259
战士	-7260
携带	-7261
摇摆	-7262
渗透	-7263
纳米	-7264
艰苦	-7265
花在	-7266
范式	-7267
董事	-7268
覆辙	-7269
说过	-7270
追踪	-7271
顺利	-7272
SDG	-7273
▁这也	-7274
不住脚	-7275
军事实	-7276
大国的	-7277
对这一	-7278
就在于	-7279
尼西亚	-7280
建设性	-7281
成年人	-7282
或许会	-7283
有意义	-7284
的人道	-7285
的恐惧	-7286
的援助	-7287
腐败的	-7288
边缘化	-7289
都已经	-7290
ance	-7291
做些什么	-7292
将在未来	-7293
并不是说	-7294
得到解决	-7295
成为世界	-7296
的全球化	-7297
的穆斯林	-7298
货币市场	-7299
这样一种	-7300
▁我们应该	-7301
外国投资者	-7302
世界其他国家	-7303
▁Development	-7304
不下	-7305
个性	-7306
使之	-7307
傲慢	-7308
内需	-7309
在近	-7310
埃尔	-7311
对峙	-7312
广播	-7313
抵达	-7314
新型	-7315
新生	-7316
梅德	-7317
正面	-7318
海地	-7319
疫情	-7320
监测	-7321
看成	-7322
硅谷	-7323
确信	-7324
纽黑	-7325
细菌	-7326
终极	-7327
赫鲁	-7328
难免	-7329
集权	-7330
▁我的	-7331
▁正是	-7332
▁解决	-7333
中东和	-7334
十年来	-7335
原子能	-7336
发挥了	-7337
发生过	-7338
在所有	-7339
家庭的	-7340
巴塞尔	-7341
巴格达	-7342
当时的	-7343
形成的	-7344
恢复力	-7345
损害了	-7346
活动家	-7347
的亚洲	-7348
的保护	-7349
的方向	-7350
科维奇	-7351
纽黑文	-7352
他们可以	-7353
可能造成	-7354
在经历了	-7355
最有可能	-7356
站不住脚	-7357
需要时间	-7358
常任理事国	-7359
意味着什么	-7360
首相安倍晋三	-7361
FD	-7362
一贯	-7363
与会	-7364
中位	-7365
亚努	-7366
史上	-7367
向前	-7368
吞并	-7369
商务	-7370
坚信	-7371
小说	-7372
展望	-7373
救济	-7374
海上	-7375
涌现	-7376
热带	-7377
略有	-7378
真理	-7379
神话	-7380
耐心	-7381
职能	-7382
背叛	-7383
重创	-7384
重演	-7385
陷于	-7386
雷斯	-7387
颁布	-7388
首尔	-7389
骄傲	-7390
250	-7391
ang	-7392
为美国	-7393
侯赛因	-7394
在德国	-7395
时间内	-7396
的生产	-7397
的统治	-7398
的非洲	-7399
秩序的	-7400
落后于	-7401
评论家	-7402
cial	-7403
也不可能	-7404
几十年的	-7405
没有一个	-7406
资本管制	-7407
需要一个	-7408
非常重要	-7409
之间的联系	-7410
更重要的是	-7411
上任	-7412
上市	-7413
与此	-7414
今日	-7415
减记	-7416
分为	-7417
原始	-7418
和水	-7419
大军	-7420
宣告	-7421
就不	-7422
州的	-7423
意在	-7424
戈登	-7425
教派	-7426
检测	-7427
激起	-7428
的公	-7429
的更	-7430
罗德	-7431
记得	-7432
重蹈	-7433
饮食	-7434
are	-7435
▁不久	-7436
▁历史	-7437
▁在我	-7438
了许多	-7439
以避免	-7440
利用其	-7441
将这些	-7442
就像是	-7443
帝国的	-7444
是不是	-7445
是时候	-7446
替代品	-7447
有许多	-7448
欧盟和	-7449
由美国	-7450
被证明	-7451
选民的	-7452
1930	-7453
▁但现在	-7454
▁但随着	-7455
▁共和党	-7456
▁在这些	-7457
▁我认为	-7458
价格上涨	-7459
制药公司	-7460
去杠杆化	-7461
安全问题	-7462
社会和经济	-7463
世行	-7464
入学	-7465
化解	-7466
大致	-7467
奢侈	-7468
已故	-7469
市民	-7470
并以	-7471
并论	-7472
当下	-7473
微软	-7474
戴维	-7475
撤销	-7476
方济	-7477
杀人	-7478
沿海	-7479
溢出	-7480
特色	-7481
相提	-7482
纲领	-7483
缔造	-7484
缴纳	-7485
解散	-7486
迈进	-7487
2%,	-7488
ens	-7489
上世纪	-7490
不能再	-7491
可能对	-7492
如果不	-7493
安全网	-7494
尔多瓦	-7495
往往会	-7496
打交道	-7497
执行官	-7498
有多少	-7499
漫长的	-7500
的联盟	-7501
的难民	-7502
直升机	-7503
统治的	-7504
腐败和	-7505
较高的	-7506
▁一方面	-7507
▁全球化	-7508
与美国的	-7509
人的生命	-7510
共同利益	-7511
持续下去	-7512
理所当然	-7513
相提并论	-7514
▁布鲁塞尔	-7515
最重要的是	-7516
部分是因为	-7517
▁Econom	-7518
大规模杀伤性武器	-7519
II	-7520
if	-7521
▁把	-7522
两名	-7523
为主	-7524
任职	-7525
体面	-7526
兑换	-7527
出一	-7528
医药	-7529
受伤	-7530
大相	-7531
女儿	-7532
径庭	-7533
技巧	-7534
清理	-7535
男女	-7536
的水	-7537
种类	-7538
经费	-7539
色彩	-7540
该党	-7541
货物	-7542
过高	-7543
进来	-7544
雅典	-7545
▁韩国	-7546
中扮演	-7547
为代价	-7548
任何人	-7549
大得多	-7550
执政党	-7551
是世界	-7552
梅德韦	-7553
环境的	-7554
的人群	-7555
的根源	-7556
管理的	-7557
而这一	-7558
被用于	-7559
革命的	-7560
▁在英国	-7561
▁多年来	-7562
专业人士	-7563
令人惊讶	-7564
债权人的	-7565
劳动力的	-7566
单一货币	-7567
在经济上	-7568
尤其如此	-7569
摩尔多瓦	-7570
需要的是	-7571
▁2001	-7572
▁2005	-7573
特别提款权	-7574
经常项目盈余	-7575
Th	-7576
▁也	-7577
与否	-7578
买单	-7579
仅为	-7580
传达	-7581
和无	-7582
品牌	-7583
存量	-7584
孟买	-7585
得起	-7586
急于	-7587
所欲	-7588
无一	-7589
某一	-7590
法则	-7591
波特	-7592
瓦尔	-7593
的要	-7594
等到	-7595
越大	-7596
高乐	-7597
ach	-7598
▁7%	-7599
▁实现	-7600
▁改革	-7601
信息和	-7602
同一个	-7603
媒体的	-7604
工资和	-7605
应有的	-7606
恰恰是	-7607
方法是	-7608
有些人	-7609
留下的	-7610
的主权	-7611
的状态	-7612
的独立	-7613
的生命	-7614
的直接	-7615
篇文章	-7616
规则和	-7617
达成的	-7618
零利率	-7619
▁哈马斯	-7620
个国家的	-7621
其中一些	-7622
南斯拉夫	-7623
在俄罗斯	-7624
很少有人	-7625
欧洲银行	-7626
正在发生	-7627
资产泡沫	-7628
▁归根结底	-7629
伊斯兰国的	-7630
联合国秘书长	-7631
为人	-7632
其余	-7633
劣势	-7634
各项	-7635
圣诞	-7636
夸张	-7637
将把	-7638
将比	-7639
平稳	-7640
弥合	-7641
把持	-7642
挑选	-7643
捕捞	-7644
推特	-7645
教会	-7646
月在	-7647
有其	-7648
未知	-7649
来了	-7650
格局	-7651
欧美	-7652
汇款	-7653
演说	-7654
界线	-7655
眼前	-7656
萨默	-7657
调节	-7658
车臣	-7659
逆差	-7660
阻挡	-7661
靠拢	-7662
ind	-7663
mer	-7664
ron	-7665
▁al	-7666
▁不论	-7667
▁企业	-7668
▁北京	-7669
▁应该	-7670
为他们	-7671
债权国	-7672
将决定	-7673
戴高乐	-7674
方济各	-7675
的最低	-7676
的看法	-7677
国民阵线	-7678
在全世界	-7679
收入分配	-7680
是否应该	-7681
经济体的	-7682
联系起来	-7683
这一过程	-7684
亚努科维奇	-7685
原教旨主义	-7686
首席执行官	-7687
核不扩散条约	-7688
▁向	-7689
▁斯	-7690
一度	-7691
不定	-7692
先决	-7693
危及	-7694
合约	-7695
多德	-7696
学位	-7697
家宝	-7698
指定	-7699
挫折	-7700
摩根	-7701
比起	-7702
法德	-7703
监禁	-7704
违背	-7705
迟早	-7706
避税	-7707
随机	-7708
▁就在	-7709
了他的	-7710
修正案	-7711
公共和	-7712
受影响	-7713
国务院	-7714
恰当的	-7715
或者说	-7716
改革和	-7717
文化和	-7718
有责任	-7719
标准的	-7720
理解的	-7721
生产者	-7722
的公民	-7723
的工人	-7724
的解释	-7725
看到的	-7726
而后者	-7727
充分利用	-7728
反恐战争	-7729
可以成为	-7730
增长放缓	-7731
大相径庭	-7732
如果不是	-7733
死亡人数	-7734
福利国家	-7735
英国首相	-7736
金融服务	-7737
—2009	-7738
▁发自纽约	-7739
▁我们可以	-7740
可以追溯到	-7741
总统巴沙尔	-7742
德国总理默克尔	-7743
ey	-7744
▁高	-7745
不善	-7746
也比	-7747
会将	-7748
伯格	-7749
何处	-7750
加勒	-7751
告终	-7752
头条	-7753
安德	-7754
宝座	-7755
将近	-7756
抗药	-7757
民营	-7758
知名	-7759
空袭	-7760
节省	-7761
被捕	-7762
裨益	-7763
规避	-7764
解雇	-7765
调和	-7766
里程	-7767
首位	-7768
5%,	-7769
▁还是	-7770
▁香港	-7771
为我们	-7772
以外的	-7773
健康和	-7774
制定的	-7775
可不是	-7776
在法国	-7777
得益于	-7778
永久性	-7779
温家宝	-7780
的信贷	-7781
穷人的	-7782
路线图	-7783
▁习近平	-7784
三驾马车	-7785
变得更为	-7786
可以获得	-7787
吸引力的	-7788
增长速度	-7789
才能实现	-7790
既得利益	-7791
的经济学	-7792
研究人员	-7793
贫困人口	-7794
还有其他	-7795
▁Comm	-7796
房地产泡沫	-7797
ission	-7798
世界其他地区	-7799
阿拉伯世界的	-7800
一届	-7801
一百	-7802
不当	-7803
不用	-7804
东方	-7805
了吗	-7806
仍未	-7807
保卫	-7808
关塔	-7809
匮乏	-7810
和大	-7811
富豪	-7812
局部	-7813
征服	-7814
得主	-7815
拉登	-7816
拓展	-7817
无意	-7818
查德	-7819
欧亚	-7820
欺诈	-7821
每次	-7822
疑虑	-7823
真是	-7824
称的	-7825
编辑	-7826
缩短	-7827
节目	-7828
蒙受	-7829
西奈	-7830
要为	-7831
视角	-7832
词汇	-7833
资料	-7834
麦克	-7835
▁东京	-7836
▁这里	-7837
世纪初	-7838
人来说	-7839
公平的	-7840
因如此	-7841
国大党	-7842
妇女和	-7843
弗兰克	-7844
或者是	-7845
流行病	-7846
物理学	-7847
的产品	-7848
的信誉	-7849
的理解	-7850
那以后	-7851
预计将	-7852
先决条件	-7853
卫生组织	-7854
就业创造	-7855
性别平等	-7856
阿富汗的	-7857
2,000	-7858
▁恰恰相反	-7859
世界领导人	-7860
截然不同的	-7861
新兴市场国家	-7862
uropean	-7863
▁Y	-7864
乌干	-7865
五大	-7866
会把	-7867
储户	-7868
十字	-7869
启发	-7870
安南	-7871
尴尬	-7872
得更	-7873
报导	-7874
效力	-7875
有机	-7876
有毒	-7877
本币	-7878
治愈	-7879
照片	-7880
物流	-7881
生意	-7882
科尔	-7883
药方	-7884
莱斯	-7885
见证	-7886
120	-7887
▁6%	-7888
▁有时	-7889
不允许	-7890
不同于	-7891
乌干达	-7892
但没有	-7893
债券的	-7894
决定的	-7895
如何在	-7896
官员们	-7897
挑战是	-7898
推动力	-7899
政府间	-7900
法律和	-7901
的理念	-7902
看不到	-7903
算不上	-7904
给他们	-7905
能够让	-7906
这是个	-7907
预测的	-7908
1996	-7909
▁这两个	-7910
一个世纪	-7911
他们自己	-7912
关键作用	-7913
普遍认为	-7914
正在进行	-7915
▁2006	-7916
gr	-7917
▁中	-7918
▁另	-7919
上周	-7920
业的	-7921
厚的	-7922
各类	-7923
和我	-7924
威特	-7925
尊敬	-7926
很久	-7927
忧心	-7928
拨款	-7929
摩擦	-7930
星球	-7931
暴动	-7932
月初	-7933
标题	-7934
此时	-7935
比喻	-7936
源头	-7937
现今	-7938
腺癌	-7939
蓝图	-7940
表演	-7941
重回	-7942
阅读	-7943
队伍	-7944
6%。	-7945
our	-7946
▁通常	-7947
不符合	-7948
会议的	-7949
似乎也	-7950
体系中	-7951
创纪录	-7952
努力的	-7953
向美国	-7954
实在在	-7955
对国家	-7956
市场和	-7957
带一路	-7958
开始了	-7959
很快就	-7960
最终将	-7961
有两个	-7962
税收和	-7963
立法者	-7964
站出来	-7965
表达了	-7966
詹姆斯	-7967
转折点	-7968
这导致	-7969
10%,	-7970
▁但它们	-7971
▁在未来	-7972
不同的是	-7973
付出代价	-7974
决定性的	-7975
可能成为	-7976
实实在在	-7977
强烈反对	-7978
无法实现	-7979
资本账户	-7980
这个世界	-7981
领导作用	-7982
▁除此之外	-7983
联合国气候变化	-7984
sh	-7985
▁"	-7986
下令	-7987
付诸	-7988
共存	-7989
北极	-7990
发育	-7991
变异	-7992
合成	-7993
州长	-7994
幕后	-7995
底层	-7996
开明	-7997
徘徊	-7998
必定	-7999
智力	-8000
月底	-8001
期的	-8002
根于	-8003
看护	-8004
看着	-8005
眼光	-8006
肆虐	-8007
般的	-8008
落入	-8009
贿赂	-8010
赶超	-8011
ner	-8012
▁Tr	-8013
▁多数	-8014
下一代	-8015
丰富的	-8016
公众的	-8017
公共品	-8018
原材料	-8019
可信度	-8020
和德国	-8021
在国家	-8022
多年前	-8023
对未来	-8024
将会是	-8025
扩张性	-8026
源自于	-8027
生产性	-8028
艾哈迈	-8029
该公司	-8030
资金的	-8031
避免了	-8032
金正日	-8033
20%。	-8034
众所周知	-8035
全球性的	-8036
和平协议	-8037
国际合作	-8038
经济学奖	-8039
▁2000	-8040
▁这些国家	-8041
通货膨胀率	-8042
宏观经济政策	-8043
国家主席习近平	-8044
(“	-8045
AI	-8046
▁如	-8047
▁巴	-8048
不乏	-8049
东北	-8050
中被	-8051
也与	-8052
于此	-8053
低效	-8054
余地	-8055
佛罗	-8056
和更	-8057
困惑	-8058
奋斗	-8059
子的	-8060
将由	-8061
崇拜	-8062
挑起	-8063
挥霍	-8064
无处	-8065
格拉	-8066
次于	-8067
的三	-8068
签证	-8069
跟踪	-8070
配合	-8071
阐述	-8072
ant	-8073
arl	-8074
ort	-8075
row	-8076
▁为何	-8077
▁人类	-8078
▁既然	-8079
不会有	-8080
中心的	-8081
了一些	-8082
争议的	-8083
仅限于	-8084
印度人	-8085
因为其	-8086
因此而	-8087
在任何	-8088
强硬派	-8089
持久的	-8090
数量的	-8091
曾经是	-8092
检察官	-8093
的政党	-8094
的法国	-8095
的激励	-8096
研究的	-8097
科威特	-8098
至少是	-8099
负利率	-8100
选择的	-8101
▁在许多	-8102
使用武力	-8103
健康状况	-8104
因为这些	-8105
对以色列	-8106
少数群体	-8107
左翼联盟	-8108
我们现在	-8109
政治领袖	-8110
的政治家	-8111
苏联解体	-8112
贫穷国家	-8113
达成共识	-8114
▁如果美国	-8115
民族主义的	-8116
中国人民银行	-8117
CP	-8118
一看	-8119
偏向	-8120
偶尔	-8121
几次	-8122
半数	-8123
可图	-8124
司机	-8125
夫人	-8126
对他	-8127
徒劳	-8128
打败	-8129
本次	-8130
次级	-8131
激怒	-8132
益处	-8133
群岛	-8134
而出	-8135
英里	-8136
要好	-8137
计的	-8138
通道	-8139
麻痹	-8140
FTA	-8141
tic	-8142
▁令人	-8143
▁报告	-8144
不清楚	-8145
世界杯	-8146
了欧洲	-8147
他们也	-8148
受益于	-8149
可能比	-8150
四分之	-8151
奥斯陆	-8152
富有的	-8153
就是在	-8154
年美国	-8155
急切地	-8156
持有人	-8157
民主化	-8158
经济中	-8159
萨默斯	-8160
被用来	-8161
贡献了	-8162
适当的	-8163
长期看	-8164
页岩气	-8165
▁如果说	-8166
▁西班牙	-8167
仍然存在	-8168
他们必须	-8169
依然存在	-8170
受到影响	-8171
坚持认为	-8172
将进一步	-8173
希腊政府	-8174
技术官僚	-8175
政策利率	-8176
整个世界	-8177
美联储的	-8178
联合起来	-8179
讽刺的是	-8180
进一步的	-8181
ility	-8182
▁我们希望	-8183
▁果真如此	-8184
▁在这种情况下	-8185
Sh	-8186
ib	-8187
ss	-8188
一座	-8189
一是	-8190
一部	-8191
两项	-8192
中立	-8193
之力	-8194
但我	-8195
十亿	-8196
岛屿	-8197
强奸	-8198
振奋	-8199
攻势	-8200
放大	-8201
教学	-8202
时所	-8203
桥梁	-8204
死去	-8205
没了	-8206
清单	-8207
自行	-8208
良机	-8209
表态	-8210
装备	-8211
门槛	-8212
ker	-8213
ris	-8214
▁Sh	-8215
不喜欢	-8216
不安全	-8217
与发展	-8218
中东的	-8219
债务和	-8220
危机后	-8221
和管理	-8222
埃及的	-8223
它们所	-8224
的优势	-8225
的公众	-8226
的可能	-8227
的西方	-8228
等同于	-8229
贸易的	-8230
这两种	-8231
Fran	-8232
▁198	-8233
也是一个	-8234
公共服务	-8235
另外一个	-8236
可能需要	-8237
国民债务	-8238
截然不同	-8239
执政联盟	-8240
更重要的	-8241
欧元危机	-8242
法治精神	-8243
自由流动	-8244
自身利益	-8245
这场战争	-8246
▁发展中国家	-8247
MD	-8248
》。	-8249
三种	-8250
丝绸	-8251
为零	-8252
分钟	-8253
卡拉	-8254
可疑	-8255
培育	-8256
惊讶	-8257
感情	-8258
所言	-8259
拉圭	-8260
次要	-8261
沿岸	-8262
生殖	-8263
界定	-8264
福岛	-8265
胜任	-8266
西兰	-8267
询问	-8268
购物	-8269
铺平	-8270
3%,	-8271
▁12	-8272
▁Al	-8273
▁他说	-8274
▁他还	-8275
▁几乎	-8276
▁此次	-8277
▁波兰	-8278
信息的	-8279
催生了	-8280
压倒性	-8281
大革命	-8282
它可以	-8283
将自己	-8284
居住在	-8285
岁以下	-8286
年轻的	-8287
推出了	-8288
斯坦福	-8289
是完全	-8290
有一种	-8291
消费的	-8292
的人的	-8293
积极地	-8294
等问题	-8295
而应该	-8296
认为是	-8297
让中国	-8298
2025	-8299
▁伊斯兰	-8300
▁但即便	-8301
个成员国	-8302
五分之一	-8303
信息技术	-8304
大幅增加	-8305
我们能够	-8306
政府已经	-8307
日本经济	-8308
生产率的	-8309
的原因是	-8310
的支持率	-8311
目前正在	-8312
评级机构	-8313
这一数字	-8314
数十亿美元	-8315
诺贝尔经济学奖	-8316
一番	-8317
为数	-8318
了近	-8319
催化	-8320
公务	-8321
兼并	-8322
剩下	-8323
卢拉	-8324
吃惊	-8325
听证	-8326
地面	-8327
安置	-8328
审核	-8329
客观	-8330
并把	-8331
微观	-8332
极低	-8333
核弹	-8334
根基	-8335
猛烈	-8336
率的	-8337
甚远	-8338
百姓	-8339
的后	-8340
被告	-8341
较小	-8342
道义	-8343
邮件	-8344
ism	-8345
▁安倍	-8346
▁支持	-8347
一定会	-8348
中间派	-8349
之上的	-8350
公民的	-8351
包括在	-8352
另一场	-8353
启动了	-8354
和公司	-8355
和其它	-8356
孩子们	-8357
对我们	-8358
影响着	-8359
所带来	-8360
描述为	-8361
甚至连	-8362
的信用	-8363
背道而	-8364
范围的	-8365
贫困和	-8366
避免的	-8367
韩国的	-8368
麦凯恩	-8369
▁上个月	-8370
▁最近的	-8371
▁问题是	-8372
一直以来	-8373
价格稳定	-8374
保守主义	-8375
全世界最	-8376
全球增长	-8377
八十年代	-8378
公共政策	-8379
几乎肯定	-8380
美国人的	-8381
背道而驰	-8382
做到这一点	-8383
巴勒斯坦国	-8384
退出欧元区	-8385
里斯本条约	-8386
在一定程度上	-8387
▁在这样的背景下	-8388
不动	-8389
世卫	-8390
两难	-8391
个别	-8392
事项	-8393
却不	-8394
厄瓜	-8395
可供	-8396
同胞	-8397
噩梦	-8398
固然	-8399
坐视	-8400
备受	-8401
富翁	-8402
广义	-8403
微弱	-8404
忙于	-8405
慢慢	-8406
把握	-8407
无非	-8408
日趋	-8409
淘汰	-8410
瑟夫	-8411
甘地	-8412
生机	-8413
电厂	-8414
美金	-8415
能使	-8416
脊髓	-8417
赞扬	-8418
走私	-8419
霍乱	-8420
▁央行	-8421
▁市场	-8422
▁教育	-8423
也正在	-8424
代理人	-8425
以一种	-8426
冲突中	-8427
化合物	-8428
国家中	-8429
将带来	-8430
小部分	-8431
并不像	-8432
我们就	-8433
是多么	-8434
暴力和	-8435
热衷于	-8436
社会中	-8437
经济上	-8438
自己在	-8439
▁它们的	-8440
之间存在	-8441
人工智能	-8442
做出选择	-8443
国际刑事	-8444
成为可能	-8445
才有可能	-8446
清洁能源	-8447
的必要性	-8448
精英阶层	-8449
经济问题	-8450
讽刺意味	-8451
这一方针	-8452
这个数字	-8453
委员会主席	-8454
这样的国家	-8455
发展中经济体	-8456
”:	-8457
三国	-8458
为之	-8459
买卖	-8460
于事	-8461
亚马	-8462
克劳	-8463
冲动	-8464
决裂	-8465
减小	-8466
加德	-8467
升温	-8468
协力	-8469
南美	-8470
原理	-8471
外长	-8472
大批	-8473
大笔	-8474
带领	-8475
并让	-8476
托克	-8477
援引	-8478
未经	-8479
水和	-8480
灌溉	-8481
罪犯	-8482
轨迹	-8483
辐射	-8484
这在	-8485
送到	-8486
酝酿	-8487
顶级	-8488
▁举例	-8489
▁但从	-8490
▁公司	-8491
▁此后	-8492
不足为	-8493
以防止	-8494
会继续	-8495
依然在	-8496
六个月	-8497
典型的	-8498
创造性	-8499
发表了	-8500
同时还	-8501
已经是	-8502
强调了	-8503
必须是	-8504
方案的	-8505
更重要	-8506
条件的	-8507
来说是	-8508
核协议	-8509
激进的	-8510
特定的	-8511
的女性	-8512
的感觉	-8513
的时刻	-8514
的某些	-8515
的认识	-8516
的领袖	-8517
精英们	-8518
还是在	-8519
那些在	-8520
非国家	-8521
5000	-8522
▁但对于	-8523
▁决策者	-8524
▁首先是	-8525
丝绸之路	-8526
可能出现	-8527
合法性的	-8528
将有助于	-8529
政治联盟	-8530
日益增加	-8531
最低工资	-8532
的年轻人	-8533
经济繁荣	-8534
美国家庭	-8535
能够获得	-8536
银行体系	-8537
▁但这样的	-8538
▁其结果是	-8539
中央银行的	-8540
和基础设施	-8541
比以往任何时候都	-8542
37	-8543
Ge	-8544
ie	-8545
▁̧	-8546
一群	-8547
中之	-8548
制的	-8549
剥削	-8550
加尔	-8551
十八	-8552
反常	-8553
反驳	-8554
合并	-8555
回购	-8556
国籍	-8557
垮台	-8558
外资	-8559
广大	-8560
掀起	-8561
无效	-8562
来临	-8563
极具	-8564
构想	-8565
残忍	-8566
残疾	-8567
深思	-8568
点燃	-8569
看出	-8570
福音	-8571
等级	-8572
终止	-8573
背负	-8574
观众	-8575
越多	-8576
返回	-8577
遍布	-8578
间谍	-8579
鲜有	-8580
ion	-8581
▁大约	-8582
▁真正	-8583
上升的	-8584
人们所	-8585
仍然在	-8586
伊斯坦	-8587
传染性	-8588
但美国	-8589
关键性	-8590
利率的	-8591
发行的	-8592
外围国	-8593
实质性	-8594
将不会	-8595
并通过	-8596
弗拉基	-8597
摆脱了	-8598
斯特罗	-8599
施罗德	-8600
最小化	-8601
爆发了	-8602
的理想	-8603
给出了	-8604
还有待	-8605
这方面	-8606
那么它	-8607
预防性	-8608
1950	-8609
50%。	-8610
▁美国人	-8611
俄罗斯人	-8612
军事实力	-8613
十分重要	-8614
和美国的	-8615
国会议员	-8616
多哈回合	-8617
所提供的	-8618
提醒我们	-8619
明确表示	-8620
的受害者	-8621
的经济和	-8622
相当大的	-8623
绝非易事	-8624
还有很多	-8625
itter	-8626
▁发自剑桥	-8627
的基础设施	-8628
▁无	-8629
乐于	-8630
事先	-8631
亿万	-8632
分崩	-8633
分类	-8634
包装	-8635
却被	-8636
右派	-8637
已然	-8638
很长	-8639
我所	-8640
截止	-8641
是与	-8642
灰质	-8643
砍伐	-8644
确切	-8645
约有	-8646
结婚	-8647
老牌	-8648
耻辱	-8649
聚焦	-8650
装置	-8651
都与	-8652
重的	-8653
驾驶	-8654
黑人	-8655
齐聚	-8656
...	-8657
enc	-8658
que	-8659
▁18	-8660
▁8%	-8661
▁Cl	-8662
▁la	-8663
为目标	-8664
仅次于	-8665
以前的	-8666
以实现	-8667
以换取	-8668
会增加	-8669
保护和	-8670
债务国	-8671
儿麻痹	-8672
分崩离	-8673
参与到	-8674
大公司	-8675
并将其	-8676
庸置疑	-8677
成立的	-8678
所有者	-8679
改善了	-8680
有时候	-8681
灰质炎	-8682
甚至在	-8683
的空间	-8684
的角度	-8685
的选票	-8686
第二轮	-8687
答案是	-8688
菲尔德	-8689
萨科奇	-8690
解放军	-8691
讲话中	-8692
贫困线	-8693
选民们	-8694
全球气候	-8695
公共支出	-8696
各种各样	-8697
哈佛大学	-8698
外交关系	-8699
就意味着	-8700
政治家们	-8701
更广泛的	-8702
现代化的	-8703
能源价格	-8704
过度负债	-8705
▁2003	-8706
大西洋两岸	-8707
必不可少的	-8708
的主要原因	-8709
的经济衰退	-8710
穆斯林世界	-8711
脊髓灰质炎	-8712
国民生产总值	-8713
ph	-8714
▁下	-8715
三次	-8716
之不	-8717
于衷	-8718
克罗	-8719
博客	-8720
占总	-8721
去世	-8722
基文	-8723
大卫	-8724
将以	-8725
开战	-8726
引领	-8727
掩饰	-8728
泛滥	-8729
流通	-8730
结成	-8731
绝不	-8732
范例	-8733
蒙特	-8734
薄弱	-8735
诽谤	-8736
遗留	-8737
重返	-8738
金属	-8739
1%,	-8740
”、“	-8741
▁如何	-8742
▁贸易	-8743
他们就	-8744
似乎在	-8745
分析师	-8746
动于衷	-8747
又一个	-8748
可贸易	-8749
后者的	-8750
和收入	-8751
它们是	-8752
就业率	-8753
年后的	-8754
应该将	-8755
我们也	-8756
所说的	-8757
所需要	-8758
显著的	-8759
更有效	-8760
曼德拉	-8761
最基本	-8762
潘基文	-8763
状况的	-8764
的一位	-8765
的一步	-8766
的冲击	-8767
的模式	-8768
的管理	-8769
的话说	-8770
的边缘	-8771
的障碍	-8772
规定的	-8773
这个词	-8774
金融和	-8775
降低到	-8776
Mich	-8777
▁但即使	-8778
▁如果不	-8779
▁有些人	-8780
伊拉克人	-8781
做出反应	-8782
公共财政	-8783
分崩离析	-8784
厄瓜多尔	-8785
可以提供	-8786
周年纪念	-8787
大多数人	-8788
就是如此	-8789
必须得到	-8790
意义上的	-8791
普通民众	-8792
没有得到	-8793
的世界中	-8794
的候选人	-8795
的叙利亚	-8796
银行联盟	-8797
▁在经历了	-8798
令人瞩目的	-8799
国际社会的	-8800
弗拉基米尔	-8801
欧洲和美国	-8802
社会和政治	-8803
劳动力市场的	-8804
stitute	-8805
▁&#160;&#160;&	-8806
Je	-8807
Tw	-8808
▁非	-8809
上面	-8810
主意	-8811
乔夫	-8812
任由	-8813
佩克	-8814
健全	-8815
偿债	-8816
克森	-8817
军力	-8818
只需	-8819
可言	-8820
同步	-8821
和他	-8822
品质	-8823
多万	-8824
太少	-8825
奖金	-8826
它对	-8827
家人	-8828
家的	-8829
年末	-8830
普世	-8831
最坏	-8832
本能	-8833
朴槿	-8834
混淆	-8835
演化	-8836
玉米	-8837
米兰	-8838
翻番	-8839
脂肪	-8840
要说	-8841
贝鲁	-8842
迁移	-8843
降到	-8844
隐性	-8845
顾虑	-8846
驱使	-8847
ass	-8848
▁Le	-8849
▁两国	-8850
▁没人	-8851
▁长期	-8852
专家们	-8853
主要由	-8854
也非常	-8855
亚投行	-8856
人心的	-8857
全球的	-8858
制造了	-8859
加起来	-8860
发生后	-8861
可能被	-8862
合法化	-8863
和增长	-8864
对英国	-8865
常见的	-8866
很少有	-8867
必须要	-8868
承担起	-8869
普拉斯	-8870
朴槿惠	-8871
生育率	-8872
的结论	-8873
知识和	-8874
第三次	-8875
而在于	-8876
能产生	-8877
超出了	-8878
迈克尔	-8879
也有助于	-8880
只有一个	-8881
可能带来	-8882
我们知道	-8883
比较优势	-8884
的全球性	-8885
的大多数	-8886
的时候了	-8887
种族隔离	-8888
自然灾害	-8889
认真对待	-8890
▁如果没有	-8891
付出的代价	-8892
提出了一个	-8893
梅德韦杰夫	-8894
欧盟领导人	-8895
解决问题的	-8896
世界经济论坛	-8897
所面临的挑战	-8898
European	-8899
上学	-8900
上风	-8901
会是	-8902
充其	-8903
公然	-8904
其后	-8905
冒着	-8906
冰川	-8907
冷漠	-8908
利于	-8909
和中	-8910
囤积	-8911
大门	-8912
太空	-8913
安慰	-8914
定律	-8915
封锁	-8916
尽力	-8917
常见	-8918
总共	-8919
恐吓	-8920
拥护	-8921
教堂	-8922
无知	-8923
既有	-8924
格里	-8925
殆尽	-8926
法定	-8927
法的	-8928
流感	-8929
渺茫	-8930
的好	-8931
秋天	-8932
穿越	-8933
而代	-8934
获利	-8935
蒙蒂	-8936
言辞	-8937
说辞	-8938
防范	-8939
零和	-8940
▁2%	-8941
▁25	-8942
▁为此	-8943
▁他在	-8944
▁包括	-8945
▁这在	-8946
上加霜	-8947
亚马逊	-8948
促成了	-8949
债务人	-8950
关键的	-8951
加勒比	-8952
可能让	-8953
将无法	-8954
将这一	-8955
怎么做	-8956
情报局	-8957
戈尔巴	-8958
打破了	-8959
承诺要	-8960
爆发的	-8961
现实中	-8962
生命的	-8963
的学生	-8964
社会和	-8965
竞争者	-8966
简单地	-8967
这不是	-8968
里程碑	-8969
预算的	-8970
不复存在	-8971
令人沮丧	-8972
卡斯特罗	-8973
受到威胁	-8974
各不相同	-8975
在这样的	-8976
对俄罗斯	-8977
并不令人	-8978
必须通过	-8979
抗议活动	-8980
拉美国家	-8981
政府可以	-8982
整个地区	-8983
无动于衷	-8984
无论如何	-8985
更进一步	-8986
有意义的	-8987
甚至可以	-8988
这些因素	-8989
这些目标	-8990
重要性的	-8991
5,000	-8992
伊斯坦布尔	-8993
和巴基斯坦	-8994
欧洲央行的	-8995
的外交政策	-8996
National	-8997
EA	-8998
亨利	-8999
人听	-9000
仪式	-9001
在眉	-9002
坚实	-9003
多于	-9004
多人	-9005
失调	-9006
委托	-9007
峰值	-9008
德克	-9009
摄氏	-9010
本已	-9011
枯竭	-9012
残暴	-9013
沙漠	-9014
没错	-9015
测算	-9016
甚微	-9017
电池	-9018
的受	-9019
禁运	-9020
罪名	-9021
被杀	-9022
裁定	-9023
触及	-9024
请求	-9025
谈话	-9026
谋求	-9027
赚取	-9028
近来	-9029
选出	-9030
钓鱼	-9031
随处	-9032
预先	-9033
HIV	-9034
ica	-9035
res	-9036
▁传统	-9037
▁而当	-9038
▁该国	-9039
▁这类	-9040
众多的	-9041
但是它	-9042
包含了	-9043
和家庭	-9044
和资本	-9045
在眉睫	-9046
奥斯曼	-9047
必须与	-9048
手中的	-9049
措施的	-9050
最多的	-9051
有利的	-9052
极高的	-9053
生产国	-9054
的对手	-9055
的言论	-9056
的转变	-9057
约瑟夫	-9058
能够以	-9059
资本和	-9060
达尔富	-9061
达尔文	-9062
道导弹	-9063
集团的	-9064
中的一个	-9065
几十年中	-9066
国民收入	-9067
国际金融	-9068
小儿麻痹	-9069
武装冲突	-9070
没有理由	-9071
财政整合	-9072
迫在眉睫	-9073
雪上加霜	-9074
印度尼西亚	-9075
戈尔巴乔夫	-9076
房地产市场	-9077
新兴市场的	-9078
外国直接投资	-9079
TT	-9080
▁同	-9081
不力	-9082
也很	-9083
亏损	-9084
亚历	-9085
优质	-9086
伦齐	-9087
出去	-9088
勉强	-9089
国企	-9090
多名	-9091
女权	-9092
学派	-9093
定向	-9094
巧妙	-9095
并使	-9096
幸存	-9097
感谢	-9098
接入	-9099
文学	-9100
无异	-9101
既是	-9102
是为	-9103
服从	-9104
泰勒	-9105
终身	-9106
额的	-9107
ect	-9108
▁re	-9109
▁有关	-9110
▁针对	-9111
上一次	-9112
卡尔德	-9113
合法的	-9114
和保护	-9115
和军事	-9116
实现其	-9117
实际的	-9118
对世界	-9119
将如何	-9120
并确保	-9121
应该为	-9122
必须以	-9123
托马斯	-9124
昂贵的	-9125
服务于	-9126
极少数	-9127
植根于	-9128
民众对	-9129
治下的	-9130
的份额	-9131
的发生	-9132
而受到	-9133
让世界	-9134
辅之以	-9135
▁197	-9136
▁一些人	-9137
▁类似的	-9138
原因在于	-9139
在最近的	-9140
在此期间	-9141
工资增长	-9142
市场力量	-9143
政治上的	-9144
是否真的	-9145
更多的人	-9146
某些国家	-9147
欧元债券	-9148
这种方式	-9149
金融改革	-9150
▁长期以来	-9151
和世界银行	-9152
美国和英国	-9153
解决的问题	-9154
tr	-9155
▁n	-9156
一张	-9157
不合	-9158
人人	-9159
倒塌	-9160
党内	-9161
加索	-9162
参选	-9163
变动	-9164
同僚	-9165
咖啡	-9166
回来	-9167
士顿	-9168
处境	-9169
处的	-9170
大声	-9171
奴隶	-9172
年均	-9173
归属	-9174
得太	-9175
德黑	-9176
手无	-9177
据此	-9178
无不	-9179
最不	-9180
治下	-9181
生长	-9182
省份	-9183
罗塞	-9184
花旗	-9185
荣誉	-9186
莱坞	-9187
蔑视	-9188
调停	-9189
预想	-9190
鸿沟	-9191
ary	-9192
▁10	-9193
▁3%	-9194
▁出于	-9195
▁现代	-9196
低通胀	-9197
充其量	-9198
具体的	-9199
冲突和	-9200
分析家	-9201
创新性	-9202
剩下的	-9203
加利亚	-9204
取消了	-9205
国内外	-9206
开始时	-9207
患者的	-9208
情形中	-9209
成本和	-9210
抑郁症	-9211
方面都	-9212
最终会	-9213
有没有	-9214
波士顿	-9215
波斯湾	-9216
消费税	-9217
理由是	-9218
的财富	-9219
着一个	-9220
给美国	-9221
肯定的	-9222
肺结核	-9223
首先是	-9224
orld	-9225
▁Pol	-9226
▁第三个	-9227
▁这不是	-9228
▁这需要	-9229
一带一路	-9230
世界秩序	-9231
中的作用	-9232
亚太地区	-9233
债务水平	-9234
将不得不	-9235
应该成为	-9236
很难想象	-9237
欧洲各国	-9238
的支持下	-9239
这是因为	-9240
遗憾的是	-9241
齐普拉斯	-9242
他们自己的	-9243
叙利亚内战	-9244
的经济复苏	-9245
▁这就是为什么	-9246
新兴市场经济体	-9247
36	-9248
▁各	-9249
▁后	-9250
▁美	-9251
一笔	-9252
上下	-9253
不啻	-9254
人体	-9255
伪善	-9256
位居	-9257
僵化	-9258
先锋	-9259
克格	-9260
典范	-9261
初始	-9262
前瞻	-9263
华沙	-9264
反腐	-9265
四倍	-9266
宪政	-9267
尽量	-9268
幽灵	-9269
库存	-9270
延缓	-9271
延迟	-9272
护理	-9273
时常	-9274
末日	-9275
热烈	-9276
球员	-9277
相近	-9278
私下	-9279
筛查	-9280
罹患	-9281
肺炎	-9282
血液	-9283
讲述	-9284
迎合	-9285
里约	-9286
铭记	-9287
齐心	-9288
ald	-9289
ood	-9290
▁11	-9291
▁Ag	-9292
▁主要	-9293
▁仅仅	-9294
一百万	-9295
不作为	-9296
不具备	-9297
为首的	-9298
主导的	-9299
也并不	-9300
亚洲和	-9301
克格勃	-9302
公司在	-9303
剥夺了	-9304
发布的	-9305
合理性	-9306
在西方	-9307
埃及和	-9308
失去的	-9309
她们的	-9310
德黑兰	-9311
扩大到	-9312
技术上	-9313
控制了	-9314
数字化	-9315
暴露了	-9316
欧佩克	-9317
法兰克	-9318
的范围	-9319
看作是	-9320
约翰逊	-9321
还不够	-9322
还要多	-9323
远高于	-9324
不足为奇	-9325
候选人的	-9326
共和国的	-9327
土耳其和	-9328
如果他们	-9329
或许可以	-9330
无处不在	-9331
有利可图	-9332
武装力量	-9333
气候政策	-9334
独裁政权	-9335
独裁统治	-9336
白俄罗斯	-9337
美元贬值	-9338
能源效率	-9339
这一进程	-9340
非洲大陆	-9341
▁发自伦敦	-9342
根深蒂固的	-9343
的经济危机	-9344
美国和其他	-9345
世界贸易组织	-9346
跨太平洋合作伙伴关系	-9347
af	-9348
一面	-9349
也正	-9350
南北	-9351
占比	-9352
含量	-9353
呼吸	-9354
大部	-9355
宽带	-9356
巨量	-9357
建制	-9358
归结	-9359
志愿	-9360
悲惨	-9361
抉择	-9362
敢于	-9363
替换	-9364
流亡	-9365
渔业	-9366
澄清	-9367
理智	-9368
疏远	-9369
维系	-9370
老板	-9371
自卫	-9372
苦苦	-9373
行之	-9374
赖以	-9375
错的	-9376
颇有	-9377
高峰	-9378
黑客	-9379
Jam	-9380
lan	-9381
ork	-9382
▁值得	-9383
▁剑桥	-9384
▁危机	-9385
东道国	-9386
举行了	-9387
交易的	-9388
凸显了	-9389
出一个	-9390
和自由	-9391
增值税	-9392
夜之间	-9393
大衰退	-9394
将达到	-9395
引入了	-9396
投票权	-9397
摧毁了	-9398
日本在	-9399
欧盟在	-9400
游击队	-9401
的政权	-9402
的还有	-9403
硬着陆	-9404
绝不会	-9405
能力和	-9406
致命的	-9407
苏联的	-9408
集中于	-9409
1982	-9410
avid	-9411
orge	-9412
▁Res	-9413
之处在于	-9414
他们应该	-9415
令人印象	-9416
令人难以	-9417
医疗卫生	-9418
在短期内	-9419
大幅削减	-9420
将是一个	-9421
我们正在	-9422
正好相反	-9423
破坏性的	-9424
种族主义	-9425
还有一个	-9426
集体行动	-9427
高级官员	-9428
▁如果中国	-9429
不断增长的	-9430
以色列总理	-9431
原子能机构	-9432
成百上千万	-9433
某种形式的	-9434
特朗普政府	-9435
意大利和西班牙	-9436
非常规货币政策	-9437
BR	-9438
ue	-9439
▁v	-9440
不无	-9441
主办	-9442
之手	-9443
也已	-9444
侵害	-9445
保密	-9446
六个	-9447
加工	-9448
压低	-9449
同行	-9450
名叫	-9451
四大	-9452
图景	-9453
在为	-9454
塞拉	-9455
天安	-9456
定在	-9457
尼尔	-9458
巴罗	-9459
市政	-9460
彰显	-9461
影片	-9462
挤兑	-9463
捐款	-9464
是无	-9465
月中	-9466
核子	-9467
相去	-9468
神秘	-9469
科斯	-9470
罚款	-9471
者在	-9472
视频	-9473
赤裸	-9474
退化	-9475
金斯	-9476
钞票	-9477
鼓动	-9478
NCD	-9479
ack	-9480
ark	-9481
ice	-9482
▁需要	-9483
乳腺癌	-9484
了一半	-9485
人听闻	-9486
出口商	-9487
发动了	-9488
取而代	-9489
可以以	-9490
可行性	-9491
对其他	-9492
年来的	-9493
心脏病	-9494
必需的	-9495
推翻了	-9496
教训是	-9497
新一代	-9498
旅游业	-9499
是一次	-9500
的中心	-9501
的对话	-9502
相关性	-9503
而这种	-9504
舞台上	-9505
解决的	-9506
这不仅	-9507
那里的	-9508
马歇尔	-9509
▁但欧洲	-9510
▁没有人	-9511
对他们的	-9512
很长时间	-9513
拒绝承认	-9514
的增长率	-9515
研究中心	-9516
继续下去	-9517
美国及其	-9518
而不能倒	-9519
英国政府	-9520
贸易谈判	-9521
长久以来	-9522
,2013	-9523
▁如果他们	-9524
企业家精神	-9525
多大程度上	-9526
扮演的角色	-9527
的问题在于	-9528
,3	-9529
sk	-9530
▁h	-9531
一股	-9532
丈夫	-9533
中介	-9534
中叶	-9535
偏远	-9536
关门	-9537
兴亚	-9538
到处	-9539
压抑	-9540
回了	-9541
国土	-9542
在我	-9543
地在	-9544
夸大	-9545
希尔	-9546
并与	-9547
愉快	-9548
携手	-9549
攫取	-9550
改良	-9551
是被	-9552
普尔	-9553
服装	-9554
浮现	-9555
燃煤	-9556
的近	-9557
者是	-9558
耶伦	-9559
能给	-9560
节奏	-9561
议案	-9562
说话	-9563
身边	-9564
连贯	-9565
迪拜	-9566
7%。	-9567
Jos	-9568
eal	-9569
ond	-9570
▁更为	-9571
为一个	-9572
例子中	-9573
再融资	-9574
几年的	-9575
十年后	-9576
历史性	-9577
发现的	-9578
它们对	-9579
小规模	-9580
局限性	-9581
希腊和	-9582
帮助下	-9583
必须将	-9584
最后一	-9585
条约的	-9586
来支持	-9587
演变成	-9588
甚至比	-9589
的健康	-9590
的对象	-9591
的极端	-9592
的革命	-9593
等其他	-9594
经通胀	-9595
罗兴亚	-9596
蛋白质	-9597
被允许	-9598
认为这	-9599
还可能	-9600
通胀的	-9601
铀浓缩	-9602
错误地	-9603
阿尔巴	-9604
1981	-9605
arry	-9606
▁但事实	-9607
也不应该	-9608
以及美国	-9609
全球市场	-9610
取而代之	-9611
国际机构	-9612
我们不能	-9613
的投资者	-9614
科学家们	-9615
贸易壁垒	-9616
降低利率	-9617
不平等性的	-9618
主要经济体	-9619
入侵伊拉克	-9620
已经发生了	-9621
Global	-9622
▁沙特阿拉伯	-9623
第二次世界大战	-9624
38	-9625
48	-9626
iz	-9627
上而	-9628
下行	-9629
之多	-9630
之年	-9631
之旅	-9632
会说	-9633
利斯	-9634
卓越	-9635
印刷	-9636
原料	-9637
可危	-9638
可用	-9639
多米	-9640
大获	-9641
宣誓	-9642
岌岌	-9643
废墟	-9644
开了	-9645
异见	-9646
引向	-9647
战役	-9648
收拾	-9649
是从	-9650
景象	-9651
曾说	-9652
次贷	-9653
没完	-9654
沿着	-9655
波及	-9656
注资	-9657
洞见	-9658
电信	-9659
的纳	-9660
相符	-9661
粒子	-9662
维基	-9663
维夫	-9664
缩水	-9665
罗夫	-9666
罗格	-9667
螺旋	-9668
贫富	-9669
赫特	-9670
跻身	-9671
金氏	-9672
飞行	-9673
马丁	-9674
鹰派	-9675
ree	-9676
▁现实	-9677
▁货币	-9678
▁这对	-9679
一定的	-9680
为世界	-9681
为核心	-9682
主权的	-9683
也十分	-9684
五年前	-9685
军队的	-9686
创始人	-9687
制度和	-9688
原则上	-9689
可信的	-9690
否决权	-9691
和实施	-9692
和未来	-9693
坚定的	-9694
如今的	-9695
威胁要	-9696
实行的	-9697
宣布了	-9698
将产生	-9699
将会在	-9700
将增加	-9701
差不多	-9702
必要性	-9703
思想的	-9704
承担了	-9705
潜力的	-9706
生产和	-9707
的大选	-9708
的消息	-9709
的袭击	-9710
的身份	-9711
竞争的	-9712
等方面	-9713
而且在	-9714
说服力	-9715
财富的	-9716
▁黎巴嫩	-9717
也不例外	-9718
了他们的	-9719
保加利亚	-9720
出口导向	-9721
名义利率	-9722
宪法法院	-9723
岌岌可危	-9724
引人注目	-9725
技术创新	-9726
更有效的	-9727
更深层次	-9728
武装分子	-9729
环境保护	-9730
经济制裁	-9731
统计数据	-9732
能源安全	-9733
贸易协议	-9734
这些挑战	-9735
重大影响	-9736
ative	-9737
▁2004	-9738
民主国家的	-9739
民粹主义的	-9740
的一个重要	-9741
的人道主义	-9742
经济增长率	-9743
阿尔巴尼亚	-9744
阿萨德政权	-9745
和发展中国家	-9746
▁从这个角度讲	-9747
▁Economic	-9748
BM	-9749
DA	-9750
PA	-9751
▁仅	-9752
▁受	-9753
▁西	-9754
一战	-9755
中断	-9756
余额	-9757
修补	-9758
光靠	-9759
冰岛	-9760
凌驾	-9761
几千	-9762
利的	-9763
加重	-9764
动议	-9765
反馈	-9766
和在	-9767
增量	-9768
夫妇	-9769
奥塞	-9770
她在	-9771
或多	-9772
打消	-9773
斯堪	-9774
斯托	-9775
最优	-9776
服用	-9777
泄漏	-9778
深感	-9779
添加	-9780
滑向	-9781
现场	-9782
空白	-9783
表决	-9784
规律	-9785
许诺	-9786
诊所	-9787
践踏	-9788
轴心	-9789
连串	-9790
遗忘	-9791
那次	-9792
部族	-9793
里达	-9794
重于	-9795
隐瞒	-9796
霍尔	-9797
马利	-9798
鸦片	-9799
▁两个	-9800
也不再	-9801
低技能	-9802
公正的	-9803
去监管	-9804
发言权	-9805
呈现出	-9806
和法国	-9807
地区和	-9808
就一直	-9809
平衡的	-9810
年期间	-9811
建筑业	-9812
开启了	-9813
引出了	-9814
很长的	-9815
我们要	-9816
战争和	-9817
报告中	-9818
指出了	-9819
政党的	-9820
是一件	-9821
机制的	-9822
欧洲在	-9823
的人物	-9824
的进程	-9825
知识的	-9826
第一位	-9827
维持了	-9828
美国与	-9829
能够为	-9830
能得到	-9831
这正是	-9832
▁但是在	-9833
▁欧盟的	-9834
不仅限于	-9835
了这一点	-9836
其领导人	-9837
国际秩序	-9838
国际组织	-9839
多个国家	-9840
宗教信仰	-9841
实现这一	-9842
实质性的	-9843
年代中期	-9844
想象一下	-9845
所引发的	-9846
援助计划	-9847
斯洛伐克	-9848
日本银行	-9849
波罗的海	-9850
流动性的	-9851
消费支出	-9852
特拉维夫	-9853
的共和党	-9854
的前提下	-9855
的成员国	-9856
的目标是	-9857
约束力的	-9858
纽约时报	-9859
重新思考	-9860
长期停滞	-9861
领导地位	-9862
,2015	-9863
中东地区的	-9864
主要是因为	-9865
会发生什么	-9866
发展中世界	-9867
实现这一点	-9868
美国和中国	-9869
一只	-9870
不敢	-9871
他还	-9872
仲裁	-9873
侮辱	-9874
倾斜	-9875
先发	-9876
公认	-9877
几位	-9878
刚果	-9879
南极	-9880
又会	-9881
可比	-9882
女人	-9883
截至	-9884
新药	-9885
明天	-9886
本周	-9887
杀手	-9888
枢纽	-9889
油气	-9890
特的	-9891
离岸	-9892
空军	-9893
管齐	-9894
篮子	-9895
超额	-9896
过往	-9897
过热	-9898
降临	-9899
革新	-9900
顾客	-9901
额度	-9902
高官	-9903
ath	-9904
ian	-9905
一个由	-9906
与其说	-9907
了一条	-9908
了我们	-9909
你可以	-9910
充足的	-9911
凌驾于	-9912
参与率	-9913
只是在	-9914
基辛格	-9915
宏大的	-9916
战略的	-9917
政府所	-9918
教科书	-9919
来维持	-9920
理查德	-9921
的就业	-9922
的成员	-9923
的日子	-9924
的机制	-9925
的真实	-9926
究竟是	-9927
管理层	-9928
经历过	-9929
罗塞夫	-9930
罗格夫	-9931
而且还	-9932
被忽视	-9933
让欧洲	-9934
设计的	-9935
资源和	-9936
轻易地	-9937
还为时	-9938
问题时	-9939
25%。	-9940
▁投资者	-9941
▁纽黑文	-9942
▁而尽管	-9943
一切代价	-9944
不良贷款	-9945
世卫组织	-9946
人口增长	-9947
俄罗斯在	-9948
军事政变	-9949
利益相关	-9950
可以帮助	-9951
家庭收入	-9952
巴黎协定	-9953
接下来的	-9954
更多的钱	-9955
的国家的	-9956
紧张关系	-9957
解决之道	-9958
议会选举	-9959
重新谈判	-9960
阿卜杜拉	-9961
▁布什政府	-9962
小儿麻痹症	-9963
法国和德国	-9964
的财政政策	-9965
美国和欧盟	-9966
创造就业机会	-9967
▁果真如此的话	-9968
,9	-9969
IA	-9970
KP	-9971
çš	-9972
万个	-9973
不快	-9974
不禁	-9975
不计	-9976
世人	-9977
之门	-9978
乘数	-9979
书籍	-9980
二次	-9981
他也	-9982
伊始	-9983
伊布	-9984
伎俩	-9985
体重	-9986
偶然	-9987
划定	-9988
列宁	-9989
初期	-9990
利差	-9991
参考	-9992
发病	-9993
只在	-9994
可怜	-9995
坚守	-9996
复燃	-9997
好转	-9998
宁愿	-9999
宏大	-10000
少年	-10001
当权	-10002
总数	-10003
所要	-10004
掣肘	-10005
收取	-10006
数年	-10007
权势	-10008
格林	-10009
热门	-10010
男人	-10011
略微	-10012
盯住	-10013
突变	-10014
节能	-10015
观看	-10016
论据	-10017
象棋	-10018
起初	-10019
通用	-10020
重现	-10021
闻名	-10022
预警	-10023
Ben	-10024
▁也有	-10025
▁北约	-10026
▁另一	-10027
▁认为	-10028
丧失了	-10029
中得到	-10030
农产品	-10031
因素的	-10032
国防部	-10033
大体上	-10034
失败了	-10035
年全球	-10036
并导致	-10037
很显然	-10038
思想家	-10039
所产生	-10040
明确地	-10041
有一点	-10042
朝鲜的	-10043
核设施	-10044
犯下的	-10045
的人才	-10046
的信念	-10047
的妇女	-10048
的年轻	-10049
的盟友	-10050
相矛盾	-10051
等领域	-10052
观点的	-10053
解决了	-10054
讨论的	-10055
赤裸裸	-10056
过时的	-10057
迈出了	-10058
通常会	-10059
道理的	-10060
都表明	-10061
附加值	-10062
难民营	-10063
20%,	-10064
▁而如今	-10065
▁阿根廷	-10066
仍然没有	-10067
似乎正在	-10068
发生变化	-10069
可预见的	-10070
国内经济	-10071
多边主义	-10072
大经济体	-10073
怀疑态度	-10074
成为全球	-10075
效率低下	-10076
有所增加	-10077
欧盟宪法	-10078
特朗普在	-10079
社会民主	-10080
而是因为	-10081
贸易顺差	-10082
资本外逃	-10083
达尔富尔	-10084
金融企业	-10085
领导人们	-10086
,2011	-10087
3,000	-10088
▁正因如此	-10089
▁这是因为	-10090
所说的那样	-10091
提高生产率	-10092
的新兴市场	-10093
这个国家的	-10094
世界其他地方	-10095
伊斯兰主义者	-10096
Twitter	-10097
75	-10098
三角	-10099
下属	-10100
事后	-10101
伊尔	-10102
但不	-10103
低廉	-10104
偏执	-10105
再到	-10106
军人	-10107
出身	-10108
区区	-10109
古典	-10110
史蒂	-10111
向来	-10112
吸纳	-10113
基点	-10114
复国	-10115
实证	-10116
布托	-10117
带给	-10118
强权	-10119
惨重	-10120
折扣	-10121
捕捉	-10122
推测	-10123
搁置	-10124
摇摇	-10125
斯克	-10126
有待	-10127
激情	-10128
特性	-10129
犯下	-10130
男子	-10131
而有	-10132
而未	-10133
蚊子	-10134
被动	-10135
要高	-10136
转化	-10137
这座	-10138
透露	-10139
高兴	-10140
高盛	-10141
4%,	-10142
ael	-10143
anc	-10144
one	-10145
▁un	-10146
▁每年	-10147
▁沙特	-10148
▁美元	-10149
不同意	-10150
严厉的	-10151
中国海	-10152
为欧洲	-10153
亿人口	-10154
从现在	-10155
他们都	-10156
以支持	-10157
任期内	-10158
停留在	-10159
包括对	-10160
危机和	-10161
发表的	-10162
在危机	-10163
增强了	-10164
大使馆	-10165
某些人	-10166
核国家	-10167
的名字	-10168
的命运	-10169
的基因	-10170
的声音	-10171
的大型	-10172
的消费	-10173
的美元	-10174
的话题	-10175
缺陷的	-10176
自民党	-10177
至今日	-10178
资本的	-10179
这可能	-10180
风险和	-10181
食品和	-10182
30%。	-10183
reen	-10184
▁同样地	-10185
▁在这里	-10186
▁美国在	-10187
▁这对于	-10188
任何国家	-10189
佛罗里达	-10190
包括美国	-10191
变得日益	-10192
合作组织	-10193
和他们的	-10194
因为美国	-10195
固定汇率	-10196
已经证明	-10197
弹道导弹	-10198
更加难以	-10199
核武器的	-10200
没完没了	-10201
生活质量	-10202
相互依存	-10203
艾哈迈迪	-10204
这一政策	-10205
金融监管	-10206
长期增长	-10207
▁但是如果	-10208
▁总体而言	-10209
社会民主党	-10210
经济增长和	-10211
自己的国家	-10212
George	-10213
欧洲货币联盟	-10214
越来越多的人	-10215
39	-10216
lo	-10217
▁̄	-10218
▁人	-10219
东海	-10220
以内	-10221
借鉴	-10222
入狱	-10223
出任	-10224
出租	-10225
利昂	-10226
剧变	-10227
力地	-10228
加斯	-10229
卢卡	-10230
反犹	-10231
向下	-10232
处决	-10233
大楼	-10234
带头	-10235
景气	-10236
更别	-10237
欲坠	-10238
演变	-10239
累计	-10240
考量	-10241
耗资	-10242
肿瘤	-10243
自满	-10244
茶党	-10245
莫拉	-10246
营商	-10247
被判	-10248
论断	-10249
赌博	-10250
走了	-10251
连锁	-10252
重负	-10253
验证	-10254
ina	-10255
▁4%	-10256
▁到了	-10257
一小撮	-10258
不会在	-10259
也只能	-10260
也随之	-10261
他认为	-10262
伊布勒	-10263
兰克林	-10264
创造力	-10265
加强了	-10266
发出了	-10267
可以是	-10268
国有化	-10269
多大的	-10270
崛起的	-10271
年之前	-10272
很高的	-10273
把这些	-10274
支持下	-10275
数十万	-10276
新常态	-10277
时间和	-10278
比以前	-10279
环境和	-10280
现在就	-10281
的人士	-10282
的孩子	-10283
的改变	-10284
确定的	-10285
结束时	-10286
而感到	-10287
而是在	-10288
西方人	-10289
计划在	-10290
试图将	-10291
还远未	-10292
这两大	-10293
进程的	-10294
都存在	-10295
面对的	-10296
马德里	-10297
able	-10298
▁阿拉伯	-10299
主权国家	-10300
也越来越	-10301
发展趋势	-10302
巴黎气候	-10303
成立一个	-10304
摇摇欲坠	-10305
最高领袖	-10306
朔伊布勒	-10307
特里赫特	-10308
相去甚远	-10309
这一点上	-10310
这种方法	-10311
退休年龄	-10312
通胀预期	-10313
都有可能	-10314
David	-10315
▁近几年来	-10316
基础设施和	-10317
大部分国家	-10318
的巴勒斯坦	-10319
美国国务卿	-10320
的经济和政治	-10321
讽刺意味的是	-10322
马斯特里赫特	-10323
UN	-10324
不公	-10325
不成	-10326
不时	-10327
乎其	-10328
买家	-10329
亲眼	-10330
优点	-10331
侨民	-10332
便已	-10333
克莱	-10334
军费	-10335
列强	-10336
则会	-10337
助推	-10338
卢比	-10339
原有	-10340
又在	-10341
叫做	-10342
名言	-10343
四分	-10344
堕落	-10345
好比	-10346
尔顿	-10347
平常	-10348
强人	-10349
微小	-10350
恰好	-10351
托斯	-10352
振兴	-10353
提倡	-10354
教义	-10355
旧的	-10356
最早	-10357
步入	-10358
男孩	-10359
磋商	-10360
禁忌	-10361
而来	-10362
胚胎	-10363
自称	-10364
营销	-10365
薄熙	-10366
虚弱	-10367
赶上	-10368
跟进	-10369
还未	-10370
逃脱	-10371
重获	-10372
闹剧	-10373
集会	-10374
霸主	-10375
骗局	-10376
骚扰	-10377
▁9%	-10378
▁放眼	-10379
一揽子	-10380
也并非	-10381
了中国	-10382
低下的	-10383
利益和	-10384
和医疗	-10385
和控制	-10386
和治疗	-10387
困扰着	-10388
基础的	-10389
将受到	-10390
性行为	-10391
恢复了	-10392
想起了	-10393
我们会	-10394
手段来	-10395
执行的	-10396
掩盖了	-10397
既没有	-10398
是他们	-10399
最需要	-10400
有任何	-10401
柏林墙	-10402
格拉斯	-10403
每一次	-10404
永远是	-10405
的平均	-10406
的攻击	-10407
的运动	-10408
签署的	-10409
结束的	-10410
要求在	-10411
观点是	-10412
认为的	-10413
超越了	-10414
这对于	-10415
领导下	-10416
1968	-10417
50%,	-10418
▁其中的	-10419
▁阿富汗	-10420
什么时候	-10421
关键问题	-10422
国内消费	-10423
外国投资	-10424
大幅提高	-10425
它们可以	-10426
对冲基金	-10427
希腊债务	-10428
收入水平	-10429
整个欧洲	-10430
无法通过	-10431
本国货币	-10432
法兰克福	-10433
现实主义	-10434
研究发现	-10435
经济上的	-10436
美国公司	-10437
美国应该	-10438
这些机构	-10439
▁气候变化	-10440
世界各地的	-10441
之间的冲突	-10442
灾难性后果	-10443
▁这并不是说	-10444
不惜一切代价	-10445
基础设施项目	-10446
应对气候变化	-10447
货币基金组织	-10448
北美自由贸易协定	-10449
PD	-10450
au	-10451
yn	-10452
▁十	-10453
▁小	-10454
一块	-10455
一批	-10456
中全	-10457
为由	-10458
为负	-10459
了他	-10460
仅占	-10461
令其	-10462
保住	-10463
初步	-10464
半叶	-10465
吉拉	-10466
听众	-10467
因其	-10468
地亚	-10469
处置	-10470
快乐	-10471
快于	-10472
惯例	-10473
打着	-10474
抗击	-10475
挤出	-10476
撒钱	-10477
放宽	-10478
新政	-10479
无穷	-10480
枪击	-10481
森堡	-10482
消退	-10483
瓦哈	-10484
看见	-10485
神社	-10486
筹资	-10487
联网	-10488
行径	-10489
话语	-10490
读者	-10491
贯彻	-10492
输入	-10493
迟迟	-10494
陌生	-10495
靠近	-10496
驻扎	-10497
ace	-10498
olf	-10499
▁1%	-10500
▁具有	-10501
▁冷战	-10502
▁我在	-10503
▁眼下	-10504
不亚于	-10505
中受益	-10506
为全球	-10507
主席国	-10508
也不愿	-10509
事件中	-10510
交易所	-10511
产出的	-10512
作为其	-10513
公务员	-10514
取代了	-10515
合作和	-10516
在日本	-10517
如果它	-10518
对政府	-10519
性力量	-10520
手旁观	-10521
才能够	-10522
无疑是	-10523
是基于	-10524
灵活的	-10525
现在是	-10526
的不是	-10527
的医疗	-10528
的宗教	-10529
的贡献	-10530
蔓延到	-10531
融资的	-10532
让经济	-10533
该如何	-10534
该机构	-10535
财富和	-10536
贫困的	-10537
辩论中	-10538
过程的	-10539
遭受了	-10540
非洲和	-10541
eter	-10542
▁一开始	-10543
不难理解	-10544
也出现了	-10545
也面临着	-10546
他们就会	-10547
北欧国家	-10548
发现自己	-10549
可能已经	-10550
和叙利亚	-10551
哪个国家	-10552
外围国家	-10553
安全部队	-10554
将取决于	-10555
工作时间	-10556
市场份额	-10557
承担责任	-10558
投资组合	-10559
最后一个	-10560
犹太人的	-10561
相似之处	-10562
相关利益	-10563
经验表明	-10564
结合起来	-10565
联邦储备	-10566
这一挑战	-10567
领导下的	-10568
齐心协力	-10569
—2008	-10570
▁2016	-10571
▁特朗普的	-10572
从一开始就	-10573
充满活力的	-10574
已经取得了	-10575
清楚地表明	-10576
高收入国家	-10577
欧洲央行行长	-10578
▁Institute	-10579
FS	-10580
GO	-10581
MR	-10582
一周	-10583
一日	-10584
不被	-10585
不见	-10586
不通	-10587
也曾	-10588
也都	-10589
克什	-10590
制于	-10591
前例	-10592
加息	-10593
占到	-10594
卡尼	-10595
和谈	-10596
堕胎	-10597
塞族	-10598
天堂	-10599
夺取	-10600
审计	-10601
审议	-10602
度和	-10603
当成	-10604
忠实	-10605
战线	-10606
挫败	-10607
捕获	-10608
据称	-10609
明的	-10610
智库	-10611
杀虫	-10612
杜罗	-10613
欠缺	-10614
海峡	-10615
游客	-10616
特质	-10617
的钱	-10618
礼物	-10619
纯属	-10620
耶夫	-10621
肆意	-10622
虔诚	-10623
输送	-10624
迷于	-10625
7%,	-10626
75%	-10627
MDG	-10628
erv	-10629
ick	-10630
per	-10631
ven	-10632
▁建立	-10633
▁自由	-10634
下降至	-10635
不相信	-10636
中之重	-10637
为导向	-10638
乎其微	-10639
也不太	-10640
但如今	-10641
使用了	-10642
先发制	-10643
却依然	-10644
地球上	-10645
总体上	-10646
才开始	-10647
拥有了	-10648
指挥官	-10649
支持了	-10650
无前例	-10651
显示了	-10652
更强的	-10653
最初的	-10654
有多大	-10655
有用的	-10656
来帮助	-10657
泰米尔	-10658
的两个	-10659
的具体	-10660
的大学	-10661
的网络	-10662
的腐败	-10663
罗纳德	-10664
而易举	-10665
计划和	-10666
进行过	-10667
遭遇了	-10668
饮用水	-10669
高技能	-10670
▁但由于	-10671
▁克林顿	-10672
▁看起来	-10673
▁而这些	-10674
令人鼓舞	-10675
十分困难	-10676
和墨西哥	-10677
大不相同	-10678
实际上是	-10679
实际利率	-10680
寻求庇护	-10681
建设性的	-10682
微乎其微	-10683
必不可少	-10684
总统竞选	-10685
提供一个	-10686
每个国家	-10687
溢出效应	-10688
纳税人的	-10689
贫困国家	-10690
资本要求	-10691
轻而易举	-10692
这种做法	-10693
重新分配	-10694
金融资产	-10695
高速公路	-10696
,2010	-10697
▁迄今为止	-10698
▁这个问题	-10699
万亿美元的	-10700
已经过去了	-10701
▁欧盟委员会	-10702
以色列和巴勒斯坦	-10703
▁%	-10704
不让	-10705
五裂	-10706
亚当	-10707
作俑	-10708
作风	-10709
俱增	-10710
倘若	-10711
共担	-10712
划分	-10713
博士	-10714
原先	-10715
向其	-10716
回国	-10717
复仇	-10718
大坝	-10719
大谈	-10720
失踪	-10721
子里	-10722
巧合	-10723
年会	-10724
并由	-10725
总和	-10726
想让	-10727
战火	-10728
明了	-10729
暴涨	-10730
更糟	-10731
枪支	-10732
滋生	-10733
潜能	-10734
申根	-10735
监视	-10736
税务	-10737
绕过	-10738
薪水	-10739
贫民	-10740
轻微	-10741
运气	-10742
迷失	-10743
频率	-10744
鱼类	-10745
默许	-10746
黯淡	-10747
350	-10748
age	-10749
ail	-10750
▁一项	-10751
▁它还	-10752
一国的	-10753
不一定	-10754
两年前	-10755
中东欧	-10756
以失败	-10757
伙伴国	-10758
但现在	-10759
催化剂	-10760
其政治	-10761
卢森堡	-10762
变革的	-10763
各自的	-10764
向中国	-10765
告诉我	-10766
和个人	-10767
和西方	-10768
和贸易	-10769
始作俑	-10770
将美国	-10771
强制性	-10772
性问题	-10773
或多或	-10774
拉加德	-10775
数据的	-10776
无条件	-10777
最贫穷	-10778
有组织	-10779
核扩散	-10780
法律的	-10781
的大国	-10782
的群体	-10783
的逻辑	-10784
老年人	-10785
而那些	-10786
还存在	-10787
都非常	-10788
锋相对	-10789
高加索	-10790
TTIP	-10791
▁换言之	-10792
临床试验	-10793
人们认为	-10794
他们已经	-10795
共同货币	-10796
几个世纪	-10797
压力测试	-10798
可持续的	-10799
史无前例	-10800
四分五裂	-10801
国家主权	-10802
对中国的	-10803
对于那些	-10804
应该采取	-10805
弱势群体	-10806
我们这个	-10807
提供帮助	-10808
支出削减	-10809
数据表明	-10810
无所作为	-10811
时至今日	-10812
电动汽车	-10813
的合法性	-10814
的环境中	-10815
这一决定	-10816
远远超过	-10817
▁其他国家	-10818
▁埃尔多安	-10819
叙利亚难民	-10820
亚洲金融危机	-10821
,5	-10822
32	-10823
uk	-10824
▁Z	-10825
不佳	-10826
临界	-10827
也使	-10828
乱象	-10829
他国	-10830
免遭	-10831
公立	-10832
几率	-10833
反击	-10834
取缔	-10835
名声	-10836
商店	-10837
善意	-10838
四处	-10839
回升	-10840
回收	-10841
基辅	-10842
壮大	-10843
多克	-10844
它会	-10845
对该	-10846
就得	-10847
巴林	-10848
平庸	-10849
感受	-10850
扎伊	-10851
新任	-10852
明朗	-10853
是谁	-10854
晓夫	-10855
普罗	-10856
更像	-10857
更迭	-10858
死灰	-10859
气氛	-10860
特使	-10861
用作	-10862
登上	-10863
碎片	-10864
红色	-10865
缺点	-10866
联酋	-10867
能以	-10868
腐蚀	-10869
自私	-10870
落到	-10871
被控	-10872
视作	-10873
课税	-10874
转为	-10875
远程	-10876
连通	-10877
逃税	-10878
都市	-10879
附带	-10880
随意	-10881
面目	-10882
ear	-10883
ish	-10884
下跌了	-10885
不可及	-10886
为中心	-10887
乌拉圭	-10888
从美国	-10889
从而在	-10890
低工资	-10891
儿童的	-10892
军政府	-10893
农作物	-10894
和货币	-10895
在一些	-10896
在今天	-10897
在很多	-10898
央行的	-10899
失业和	-10900
威尔逊	-10901
安全与	-10902
寄希望	-10903
希望在	-10904
希腊人	-10905
并要求	-10906
应该由	-10907
开放的	-10908
总统和	-10909
摄氏度	-10910
日俱增	-10911
是没有	-10912
的一面	-10913
的商品	-10914
的工资	-10915
的成就	-10916
的报道	-10917
的最初	-10918
的疾病	-10919
的系统	-10920
的过度	-10921
的那些	-10922
碳定价	-10923
紧迫性	-10924
通过的	-10925
30%,	-10926
ican	-10927
▁近年来	-10928
之一就是	-10929
了自己的	-10930
做出贡献	-10931
克罗地亚	-10932
八国集团	-10933
关于如何	-10934
创造一个	-10935
可以作为	-10936
团结起来	-10937
大部分人	-10938
完全没有	-10939
富兰克林	-10940
导弹防御	-10941
将注意力	-10942
居高不下	-10943
并不总是	-10944
并不需要	-10945
德克萨斯	-10946
执政期间	-10947
改革计划	-10948
更加复杂	-10949
更有效地	-10950
死灰复燃	-10951
毫无意义	-10952
海湾国家	-10953
税收制度	-10954
联邦基金	-10955
这种观点	-10956
金融交易	-10957
,2014	-10958
▁总而言之	-10959
世界经济的	-10960
中国共产党	-10961
伊斯兰教徒	-10962
伊朗核计划	-10963
发生的事情	-10964
欧元区危机	-10965
加利福尼亚州	-10966
量化宽松政策	-10967
布雷顿森林体系	-10968
随着时间的推移	-10969
Ar	-10970
不入	-10971
乌里	-10972
也从	-10973
但又	-10974
全职	-10975
公园	-10976
共鸣	-10977
前夕	-10978
区间	-10979
发的	-10980
发酵	-10981
含糊	-10982
唯有	-10983
嘲笑	-10984
土著	-10985
天真	-10986
将与	-10987
把钱	-10988
抵挡	-10989
推理	-10990
放贷	-10991
无序	-10992
日报	-10993
显露	-10994
更长	-10995
更难	-10996
期货	-10997
李克	-10998
欢呼	-10999
理工	-11000
直至	-11001
税制	-11002
简化	-11003
纺织	-11004
维利	-11005
置信	-11006
美日	-11007
而生	-11008
聚变	-11009
营利	-11010
觉醒	-11011
说的	-11012
起源	-11013
迈出	-11014
这三	-11015
这会	-11016
逍遥	-11017
除外	-11018
▁债务	-11019
▁唯一	-11020
▁想想	-11021
▁最新	-11022
▁此前	-11023
▁这与	-11024
也因为	-11025
也应当	-11026
了这个	-11027
五年中	-11028
会认为	-11029
保持了	-11030
共同点	-11031
其国内	-11032
减少对	-11033
北部的	-11034
和暴力	-11035
孩子的	-11036
对所有	-11037
对政治	-11038
将他们	-11039
将军们	-11040
当今的	-11041
政客和	-11042
效率的	-11043
无异于	-11044
明智地	-11045
有更多	-11046
来形容	-11047
来确保	-11048
正面临	-11049
的一点	-11050
的举动	-11051
的全部	-11052
的愤怒	-11053
的活动	-11054
的破坏	-11055
的积极	-11056
的高度	-11057
硬实力	-11058
科学的	-11059
繁荣和	-11060
美国所	-11061
而导致	-11062
被要求	-11063
韩国和	-11064
▁凯恩斯	-11065
▁在最近	-11066
一小部分	-11067
亿万富翁	-11068
全球治理	-11069
公私合作	-11070
南中国海	-11071
历史性的	-11072
可能无法	-11073
四分之三	-11074
在华盛顿	-11075
多元化的	-11076
形成一个	-11077
得出结论	-11078
排除在外	-11079
数以百万	-11080
极权主义	-11081
核反应堆	-11082
研究成果	-11083
移动电话	-11084
职业生涯	-11085
袖手旁观	-11086
认为自己	-11087
货币操纵	-11088
赫鲁晓夫	-11089
这一现象	-11090
重点放在	-11091
金融动荡	-11092
领导人在	-11093
,2012	-11094
▁中国政府	-11095
▁几十年来	-11096
世界银行的	-11097
形成了鲜明	-11098
是不可能的	-11099
欧洲理事会	-11100
的政治制度	-11101
预算办公室	-11102
世界上最大的	-11103
作为一个整体	-11104
政策制定者们	-11105
欧盟委员会主席	-11106
)”	-11107
31	-11108
FC	-11109
OP	-11110
▁布	-11111
三十	-11112
不为	-11113
不抵	-11114
业绩	-11115
以其	-11116
写照	-11117
冠军	-11118
出路	-11119
初选	-11120
力更	-11121
反美	-11122
口气	-11123
合乎	-11124
听取	-11125
坦克	-11126
天才	-11127
市值	-11128
带动	-11129
平方	-11130
年就	-11131
并向	-11132
广受	-11133
异议	-11134
忌惮	-11135
扶贫	-11136
投向	-11137
接替	-11138
推断	-11139
推销	-11140
放心	-11141
政见	-11142
救命	-11143
旧金	-11144
极高	-11145
法外	-11146
海域	-11147
清真	-11148
演习	-11149
火车	-11150
灵魂	-11151
熟练	-11152
现存	-11153
眼里	-11154
祸首	-11155
笔者	-11156
米洛	-11157
累进	-11158
良多	-11159
西非	-11160
要走	-11161
角落	-11162
赞美	-11163
路易	-11164
轮值	-11165
这点	-11166
这部	-11167
违法	-11168
那摩	-11169
重心	-11170
高中	-11171
AKP	-11172
ARC	-11173
amm	-11174
cil	-11175
ith	-11176
red	-11177
umm	-11178
▁投资	-11179
▁整个	-11180
▁而是	-11181
一代人	-11182
中国将	-11183
事务的	-11184
价值链	-11185
促进了	-11186
保守的	-11187
保护的	-11188
削减了	-11189
南苏丹	-11190
发生时	-11191
向世界	-11192
和国内	-11193
和腐败	-11194
国神社	-11195
在他的	-11196
大城市	-11197
天安门	-11198
对日本	-11199
屈服于	-11200
已久的	-11201
应该对	-11202
心理学	-11203
悬而未	-11204
成员的	-11205
扮演着	-11206
据估计	-11207
掌握了	-11208
援助的	-11209
旧金山	-11210
有多么	-11211
正常的	-11212
清真寺	-11213
的情绪	-11214
而不会	-11215
自上而	-11216
让所有	-11217
进步的	-11218
都同意	-11219
都是在	-11220
1962	-11221
▁爱尔兰	-11222
▁而中国	-11223
▁而这一	-11224
不断上升	-11225
不稳定的	-11226
中国已经	-11227
也意味着	-11228
保护责任	-11229
关塔那摩	-11230
创造就业	-11231
即所谓的	-11232
反过来又	-11233
和其他人	-11234
因为我们	-11235
塞拉利昂	-11236
大大增加	-11237
孤立主义	-11238
完全可以	-11239
寄希望于	-11240
希望看到	-11241
所获得的	-11242
更加严重	-11243
欧盟内部	-11244
特别是对	-11245
的结果是	-11246
竞争优势	-11247
美元升值	-11248
英国选民	-11249
这些风险	-11250
退休基金	-11251
造成严重	-11252
陷入衰退	-11253
James	-11254
ealth	-11255
▁即便如此	-11256
印度和中国	-11257
工业化国家	-11258
某种意义上	-11259
的增长模式	-11260
的民主国家	-11261
臭名昭著的	-11262
这一问题的	-11263
这样的结果	-11264
麦肯锡全球	-11265
发达经济体的	-11266
太大而不能倒	-11267
特别是考虑到	-11268
▁从某种程度上	-11269
基础设施投资银行	-11270
34	-11271
ya	-11272
za	-11273
▁拜	-11274
一月	-11275
万名	-11276
下调	-11277
中日	-11278
仿佛	-11279
信徒	-11280
党员	-11281
全胜	-11282
其与	-11283
受灾	-11284
合格	-11285
和阿	-11286
塞拜	-11287
多达	-11288
大错	-11289
好了	-11290
媲美	-11291
嫌疑	-11292
托尼	-11293
拥挤	-11294
擅长	-11295
更小	-11296
极化	-11297
测验	-11298
班农	-11299
算盘	-11300
能将	-11301
要做	-11302
财长	-11303
贩毒	-11304
赔偿	-11305
走到	-11306
蹂躏	-11307
阈值	-11308
陆军	-11309
隔绝	-11310
ley	-11311
pro	-11312
▁总之	-11313
上升了	-11314
了道路	-11315
仍处于	-11316
会引发	-11317
但是却	-11318
作出了	-11319
十年期	-11320
受制于	-11321
另一位	-11322
和行动	-11323
和银行	-11324
塞拜疆	-11325
将因此	-11326
就不能	-11327
布拉格	-11328
年之后	-11329
并开始	-11330
所取代	-11331
所导致	-11332
抑制了	-11333
支出和	-11334
支持和	-11335
改革派	-11336
是由于	-11337
有超过	-11338
束手无	-11339
比里亚	-11340
瓦哈比	-11341
的主题	-11342
的内部	-11343
的高级	-11344
而无法	-11345
规模和	-11346
计划中	-11347
试图在	-11348
贷款的	-11349
都可能	-11350
预见到	-11351
1914	-11352
1971	-11353
ital	-11354
▁Act	-11355
不仅包括	-11356
公共资金	-11357
在以色列	-11358
容易受到	-11359
已经不再	-11360
悬而未决	-11361
或多或少	-11362
报告显示	-11363
收入差距	-11364
收支平衡	-11365
施加压力	-11366
犹太复国	-11367
科学研究	-11368
自由化的	-11369
范围内的	-11370
获得成功	-11371
萎靡不振	-11372
认为这是	-11373
认识到了	-11374
退出欧盟	-11375
重新考虑	-11376
重要角色	-11377
野生动物	-11378
陷入困境	-11379
▁而事实上	-11380
▁这一观点	-11381
一个国家的	-11382
伊斯兰革命	-11383
共产主义的	-11384
加入欧盟的	-11385
和其他地方	-11386
完全不同的	-11387
根本不可能	-11388
私人投资者	-11389
远远超过了	-11390
▁内塔尼亚胡	-11391
巴勒斯坦人的	-11392
欧盟成员资格	-11393
经合组织国家	-11394
第一次世界大战	-11395
叙利亚总统巴沙尔	-11396
2°	-11397
ty	-11398
一句	-11399
上来	-11400
主体	-11401
之初	-11402
乌托	-11403
二世	-11404
们的	-11405
会为	-11406
元首	-11407
关乎	-11408
关切	-11409
减贫	-11410
出不	-11411
力求	-11412
召集	-11413
同期	-11414
启蒙	-11415
大小	-11416
实例	-11417
宣战	-11418
屈从	-11419
巨资	-11420
已在	-11421
年份	-11422
度假	-11423
度过	-11424
强行	-11425
得不	-11426
悲哀	-11427
愈加	-11428
抗拒	-11429
数目	-11430
日期	-11431
权重	-11432
每周	-11433
油田	-11434
泄露	-11435
法制	-11436
消亡	-11437
炮制	-11438
班加	-11439
的两	-11440
突发	-11441
简称	-11442
类别	-11443
素质	-11444
维埃	-11445
网上	-11446
罪恶	-11447
而他	-11448
街道	-11449
要将	-11450
设在	-11451
访者	-11452
说他	-11453
谬误	-11454
这家	-11455
避开	-11456
OMT	-11457
ade	-11458
uel	-11459
▁但其	-11460
▁假设	-11461
▁公共	-11462
▁国会	-11463
▁她们	-11464
▁拥有	-11465
▁改善	-11466
▁本月	-11467
▁财政	-11468
一个新	-11469
一半的	-11470
三个月	-11471
不一样	-11472
不抵债	-11473
与政府	-11474
与日本	-11475
从而为	-11476
作用的	-11477
供给侧	-11478
占多数	-11479
国政府	-11480
将最终	-11481
将超过	-11482
层面的	-11483
常常被	-11484
平等的	-11485
必须为	-11486
把他们	-11487
抗药性	-11488
持不同	-11489
数据库	-11490
更紧密	-11491
本可以	-11492
杀虫剂	-11493
标志性	-11494
正在向	-11495
没有被	-11496
波兰和	-11497
的复苏	-11498
的打击	-11499
目的地	-11500
眼中的	-11501
确保了	-11502
福克斯	-11503
管理和	-11504
管理局	-11505
经验的	-11506
而欧洲	-11507
自力更	-11508
被推翻	-11509
迅速地	-11510
钦斯基	-11511
面对着	-11512
驱动的	-11513
魁祸首	-11514
ency	-11515
ersh	-11516
rans	-11517
▁2%,	-11518
▁不久前	-11519
▁另一种	-11520
▁这表明	-11521
主义者的	-11522
以及如何	-11523
其它国家	-11524
减少贫困	-11525
几个月中	-11526
利比里亚	-11527
叙利亚和	-11528
只有通过	-11529
可能会在	-11530
多元文化	-11531
平均而言	-11532
并非所有	-11533
恐怖活动	-11534
意大利的	-11535
投资项目	-11536
提供融资	-11537
改革方案	-11538
束手无策	-11539
泡沫破裂	-11540
的纳维亚	-11541
网络空间	-11542
资不抵债	-11543
长远来看	-11544
随处可见	-11545
▁举例来讲	-11546
▁具体而言	-11547
▁发达国家	-11548
▁我们已经	-11549
▁这些问题	-11550
中国经济的	-11551
几乎肯定会	-11552
极端主义的	-11553
的民族主义	-11554
的生活水平	-11555
的经济表现	-11556
世界卫生组织	-11557
主权债务危机	-11558
俄罗斯和中国	-11559
原教旨主义者	-11560
吞并克里米亚	-11561
是显而易见的	-11562
国际原子能机构	-11563
49	-11564
CB	-11565
▁g	-11566
▁—	-11567
不休	-11568
仿效	-11569
会比	-11570
停顿	-11571
内亚	-11572
力图	-11573
名誉	-11574
后面	-11575
坦桑	-11576
天赋	-11577
威廉	-11578
常识	-11579
并被	-11580
建成	-11581
思议	-11582
悠久	-11583
抽象	-11584
拍卖	-11585
拿破	-11586
提起	-11587
无核	-11588
时日	-11589
昔日	-11590
替罪	-11591
有余	-11592
术语	-11593
权限	-11594
条路	-11595
板球	-11596
欲望	-11597
沙文	-11598
演员	-11599
激动	-11600
竟然	-11601
纳斯	-11602
罢了	-11603
罢工	-11604
节节	-11605
英美	-11606
萨利	-11607
萨拉	-11608
要对	-11609
讨厌	-11610
赞赏	-11611
通向	-11612
阳光	-11613
180	-11614
1⁄4	-11615
▁总统	-11616
▁移民	-11617
不对称	-11618
不断的	-11619
与印度	-11620
乌托邦	-11621
也有所	-11622
也能够	-11623
习惯于	-11624
事务上	-11625
人权和	-11626
代表团	-11627
以及与	-11628
会不会	-11629
先进的	-11630
关系到	-11631
出现过	-11632
各自为	-11633
和工作	-11634
在伊朗	-11635
在政府	-11636
地进行	-11637
坚定地	-11638
埃及人	-11639
失业者	-11640
媒体和	-11641
对这种	-11642
巴西的	-11643
干细胞	-11644
并不比	-11645
开始的	-11646
战略性	-11647
抵押品	-11648
拿破仑	-11649
描述了	-11650
提供者	-11651
新西兰	-11652
无助于	-11653
无法再	-11654
暂时的	-11655
最后的	-11656
月以来	-11657
权利和	-11658
查尔斯	-11659
此前的	-11660
济于事	-11661
牵涉到	-11662
由政府	-11663
百万人	-11664
的一样	-11665
的定义	-11666
的意义	-11667
的最好	-11668
的来说	-11669
的结束	-11670
的难度	-11671
监管的	-11672
缅甸的	-11673
观察员	-11674
谈判桌	-11675
道德上	-11676
马杜罗	-11677
▁Cor	-11678
▁GDP	-11679
▁Uni	-11680
▁当前的	-11681
一种新的	-11682
世界上的	-11683
主要来自	-11684
事实证明	-11685
传统智慧	-11686
军备竞赛	-11687
出口市场	-11688
国内需求	-11689
坦桑尼亚	-11690
宏观审慎	-11691
官僚机构	-11692
并不足以	-11693
形成一致	-11694
影子银行	-11695
德国政府	-11696
成百上千	-11697
物理学家	-11698
进行谈判	-11699
长期债券	-11700
风险溢价	-11701
▁我们知道	-11702
▁这一方针	-11703
在巴基斯坦	-11704
的一小部分	-11705
越来越大的	-11706
International	-11707
,(	-11708
aj	-11709
”;	-11710
▁还	-11711
不该	-11712
之又	-11713
人性	-11714
仇外	-11715
兴建	-11716
刻意	-11717
变量	-11718
名词	-11719
吞噬	-11720
含有	-11721
坏事	-11722
增大	-11723
处方	-11724
外人	-11725
大事	-11726
头巾	-11727
宏伟	-11728
实时	-11729
小额	-11730
年所	-11731
年至	-11732
弊端	-11733
弹劾	-11734
怨恨	-11735
息息	-11736
憎恨	-11737
支箭	-11738
政局	-11739
族群	-11740
是他	-11741
是说	-11742
暴政	-11743
有损	-11744
权宜	-11745
每月	-11746
激活	-11747
物品	-11748
用以	-11749
的多	-11750
真心	-11751
矛头	-11752
童工	-11753
脚步	-11754
良性	-11755
血管	-11756
警示	-11757
诉诸	-11758
说得	-11759
貌似	-11760
财阀	-11761
资深	-11762
赚钱	-11763
走势	-11764
轻重	-11765
这套	-11766
远超	-11767
里克	-11768
默认	-11769
35%	-11770
Con	-11771
FDI	-11772
NPT	-11773
Ste	-11774
ain	-11775
old	-11776
不仅要	-11777
也只是	-11778
也成为	-11779
产量的	-11780
代人的	-11781
但这种	-11782
低增长	-11783
信用卡	-11784
占世界	-11785
只能在	-11786
和行为	-11787
哈里发	-11788
基金的	-11789
它们将	-11790
安全感	-11791
届政府	-11792
很明显	-11793
很清楚	-11794
德意志	-11795
怎么办	-11796
情况是	-11797
我们都	-11798
改变其	-11799
暴露出	-11800
有三个	-11801
李克强	-11802
来决定	-11803
来推动	-11804
核武库	-11805
每年的	-11806
波动性	-11807
的交易	-11808
的排放	-11809
的结构	-11810
目前所	-11811
罗姆人	-11812
脱维亚	-11813
自由地	-11814
身上的	-11815
转向了	-11816
过多的	-11817
运行的	-11818
这只是	-11819
采取更	-11820
需要对	-11821
omas	-11822
▁他们还	-11823
▁即便是	-11824
▁尤其是	-11825
▁欧洲人	-11826
▁而那些	-11827
不大可能	-11828
与其说是	-11829
克什米尔	-11830
包括中国	-11831
发生改变	-11832
只能通过	-11833
可以带来	-11834
在联合国	-11835
如此多的	-11836
尤其重要	-11837
年轻人的	-11838
影响深远	-11839
情报机构	-11840
政治动荡	-11841
构建一个	-11842
每个人都	-11843
激进分子	-11844
的劳动力	-11845
的继任者	-11846
短期利率	-11847
经济状况	-11848
统计数字	-11849
继续保持	-11850
能够通过	-11851
自相矛盾	-11852
认为美国	-11853
靖国神社	-11854
▁Coun	-11855
▁讽刺的是	-11856
之间的差距	-11857
半岛电视台	-11858
带来的好处	-11859
建立了一个	-11860
方面取得了	-11861
经济和金融	-11862
财政政策的	-11863
购买力平价	-11864
伊拉克和阿富汗	-11865
西班牙和意大利	-11866
,6	-11867
44	-11868
Af	-11869
TO	-11870
US	-11871
▁r	-11872
▁好	-11873
不懈	-11874
两场	-11875
中部	-11876
为一	-11877
之计	-11878
书记	-11879
五十	-11880
们在	-11881
免税	-11882
冒犯	-11883
则被	-11884
十足	-11885
协同	-11886
博科	-11887
四国	-11888
在家	-11889
备忘	-11890
头的	-11891
它能	-11892
将要	-11893
局长	-11894
巴巴	-11895
序列	-11896
开辟	-11897
忠于	-11898
恶意	-11899
手笔	-11900
教士	-11901
新近	-11902
昂山	-11903
曙光	-11904
松散	-11905
校园	-11906
毁掉	-11907
民事	-11908
沃伦	-11909
海滩	-11910
灵丹	-11911
牢记	-11912
用处	-11913
积压	-11914
税负	-11915
细分	-11916
航班	-11917
莱因	-11918
视野	-11919
认清	-11920
越是	-11921
高额	-11922
▁数字	-11923
▁有了	-11924
▁科学	-11925
▁能源	-11926
▁这份	-11927
不会再	-11928
两年的	-11929
享受到	-11930
但是在	-11931
使人们	-11932
反周期	-11933
发布了	-11934
发电厂	-11935
发言人	-11936
可用于	-11937
和资源	-11938
在埃及	-11939
就能够	-11940
工作和	-11941
已经让	-11942
幸福感	-11943
应该从	-11944
我们能	-11945
扮演了	-11946
抛弃了	-11947
措施来	-11948
提到了	-11949
政府与	-11950
效率和	-11951
无限期	-11952
替罪羊	-11953
框架内	-11954
沃尔玛	-11955
没有在	-11956
留下了	-11957
的产物	-11958
的假设	-11959
的宪法	-11960
的文章	-11961
的灾难	-11962
盎格鲁	-11963
相应的	-11964
管齐下	-11965
美好的	-11966
艰难的	-11967
苏维埃	-11968
让自己	-11969
这一幕	-11970
采用了	-11971
钓鱼岛	-11972
,500	-11973
ight	-11974
▁7%,	-11975
▁For	-11976
▁但正如	-11977
▁但这个	-11978
▁在其他	-11979
▁当我们	-11980
▁慕尼黑	-11981
▁我们还	-11982
▁该地区	-11983
▁该计划	-11984
一个事实	-11985
与中国的	-11986
二战结束	-11987
公司税率	-11988
决策者的	-11989
几个国家	-11990
刺激经济	-11991
医疗体系	-11992
可以实现	-11993
商业周期	-11994
始作俑者	-11995
就是为了	-11996
已不再是	-11997
已经存在	-11998
应该得到	-11999
提供支持	-12000
政治体制	-12001
数十年的	-12002
新成员国	-12003
是巨大的	-12004
正在快速	-12005
的最重要	-12006
相互依赖	-12007
自力更生	-12008
莱因哈特	-12009
财政联盟	-12010
货币刺激	-12011
起的作用	-12012
▁全球经济	-12013
▁委内瑞拉	-12014
充分的理由	-12015
几乎不可能	-12016
大部分地区	-12017
的必要条件	-12018
穆斯林国家	-12019
自由贸易区	-12020
还远远不够	-12021
金融危机的	-12022
ership	-12023
Michael	-12024
2008—2009	-12025
跨大西洋贸易和投资	-12026
-7	-12027
DD	-12028
IR	-12029
Le	-12030
ly	-12031
上诉	-12032
之于	-12033
之和	-12034
人是	-12035
佩斯	-12036
信条	-12037
助益	-12038
勘探	-12039
半球	-12040
博物	-12041
压缩	-12042
可笑	-12043
善于	-12044
国度	-12045
基斯	-12046
大权	-12047
女童	-12048
它与	-12049
对准	-12050
年被	-12051
库德	-12052
应急	-12053
我对	-12054
招致	-12055
拿到	-12056
推荐	-12057
提取	-12058
斯密	-12059
斯诺	-12060
方位	-12061
旗帜	-12062
无常	-12063
既不	-12064
暗杀	-12065
树木	-12066
每桶	-12067
流出	-12068
特尔	-12069
系数	-12070
线索	-12071
美德	-12072
联手	-12073
茨基	-12074
评判	-12075
诚信	-12076
趋向	-12077
辉煌	-12078
远非	-12079
那场	-12080
顺序	-12081
麻省	-12082
190	-12083
6%,	-12084
And	-12085
arm	-12086
oal	-12087
▁en	-12088
▁不出	-12089
▁个人	-12090
▁其二	-12091
▁石油	-12092
个基点	-12093
中左翼	-12094
临时性	-12095
他自己	-12096
例子是	-12097
做好了	-12098
其中最	-12099
几内亚	-12100
出口的	-12101
制度性	-12102
区域性	-12103
却无法	-12104
发展出	-12105
只能是	-12106
后不久	-12107
否决了	-12108
和东欧	-12109
国际化	-12110
在国会	-12111
如果他	-12112
它应该	-12113
宗教和	-12114
就变得	-12115
怎样的	-12116
所创造	-12117
批准了	-12118
提供给	-12119
揭示了	-12120
新德里	-12121
新总统	-12122
方式来	-12123
普遍的	-12124
更快地	-12125
月中旬	-12126
有大量	-12127
来衡量	-12128
案例中	-12129
注定要	-12130
消失了	-12131
牺牲品	-12132
的则是	-12133
的对立	-12134
的性质	-12135
的民族	-12136
的规定	-12137
的领土	-12138
相似的	-12139
结论是	-12140
而如今	-12141
而德国	-12142
让政府	-12143
超国家	-12144
这两者	-12145
阿拉维	-12146
需求和	-12147
1929	-12148
1933	-12149
40%。	-12150
reat	-12151
▁利比亚	-12152
▁这正是	-12153
不可思议	-12154
不断扩大	-12155
与日俱增	-12156
令人惊奇	-12157
侵犯人权	-12158
债务融资	-12159
其他任何	-12160
刚刚开始	-12161
印度政府	-12162
双边贸易	-12163
可以利用	-12164
多样化的	-12165
应该如何	-12166
我们应当	-12167
注意的是	-12168
游戏规则	-12169
经济停滞	-12170
能够实现	-12171
货币升值	-12172
过程中的	-12173
这样才能	-12174
这种状况	-12175
都面临着	-12176
采取任何	-12177
陷入停滞	-12178
imate	-12179
▁这些措施	-12180
不断扩大的	-12181
不确定性的	-12182
人民币升值	-12183
以失败告终	-12184
其中大部分	-12185
劳动密集型	-12186
华盛顿共识	-12187
国家的政府	-12188
的军事行动	-12189
解决这一问题	-12190
国内生产总值的	-12191
Ab	-12192
EM	-12193
TC	-12194
▁安	-12195
▁月	-12196
▁试	-12197
不决	-12198
东正	-12199
中印	-12200
主任	-12201
之事	-12202
之行	-12203
亲信	-12204
体的	-12205
侨汇	-12206
侵入	-12207
信托	-12208
假装	-12209
僵尸	-12210
先是	-12211
克逊	-12212
免除	-12213
入主	-12214
出乎	-12215
口头	-12216
各式	-12217
吹嘘	-12218
品种	-12219
哈尔	-12220
因果	-12221
图拉	-12222
多了	-12223
大跌	-12224
小于	-12225
帐户	-12226
心目	-12227
怪异	-12228
抑或	-12229
曲线	-12230
款项	-12231
此人	-12232
濒临	-12233
熟虑	-12234
牢牢	-12235
独自	-12236
环节	-12237
由来	-12238
税基	-12239
突显	-12240
笼罩	-12241
腰包	-12242
自给	-12243
萨卡	-12244
蚊帐	-12245
负有	-12246
身后	-12247
近邻	-12248
这段	-12249
那就	-12250
钻石	-12251
领取	-12252
驳斥	-12253
驻军	-12254
org	-12255
”)。	-12256
▁可是	-12257
▁研究	-12258
上半年	-12259
不关心	-12260
东北亚	-12261
丝毫不	-12262
为目的	-12263
之中的	-12264
也知道	-12265
五年的	-12266
亚历山	-12267
但仍然	-12268
但只有	-12269
体现出	-12270
像美国	-12271
出不穷	-12272
原子弹	-12273
可支配	-12274
听上去	-12275
和平奖	-12276
备忘录	-12277
它必须	-12278
对自己	-12279
就不是	-12280
感觉到	-12281
所在的	-12282
所采取	-12283
技能和	-12284
把它们	-12285
控制在	-12286
政治中	-12287
昂山素	-12288
是不会	-12289
服务和	-12290
极端的	-12291
框架下	-12292
泛欧洲	-12293
激起了	-12294
独特的	-12295
疾病和	-12296
百分比	-12297
的前任	-12298
的口号	-12299
的时机	-12300
的最终	-12301
第三大	-12302
色革命	-12303
证实了	-12304
这一次	-12305
这笔钱	-12306
进口国	-12307
道德的	-12308
问题和	-12309
1986	-12310
Mart	-12311
▁新加坡	-12312
▁这可能	-12313
▁默克尔	-12314
不必要的	-12315
两极分化	-12316
似乎认为	-12317
偿还债务	-12318
决定是否	-12319
如果美国	-12320
层出不穷	-12321
已经导致	-12322
已经有了	-12323
应该通过	-12324
必要条件	-12325
投资不足	-12326
按揭贷款	-12327
摆脱贫困	-12328
更加糟糕	-12329
没有那么	-12330
的情况是	-12331
的环境下	-12332
科夫斯基	-12333
行动计划	-12334
裔美国人	-12335
这一战略	-12336
进行合作	-12337
金融中心	-12338
随之而来	-12339
▁Summ	-12340
▁这种情况	-12341
不可或缺的	-12342
他们的国家	-12343
和其他地区	-12344
必须认识到	-12345
持怀疑态度	-12346
政治和社会	-12347
欧洲央行和	-12348
生活在一个	-12349
直升机撒钱	-12350
规模最大的	-12351
俄罗斯天然气	-12352
国际刑事法庭	-12353
ability	-12354
二氧化碳排放量	-12355
俄罗斯总统普京	-12356
▁t	-12357
中华	-12358
之战	-12359
交战	-12360
产油	-12361
人文	-12362
会员	-12363
先前	-12364
公信	-12365
出访	-12366
分水	-12367
则为	-12368
别处	-12369
加紧	-12370
十倍	-12371
地向	-12372
多项	-12373
太高	-12374
委会	-12375
季莫	-12376
学历	-12377
安装	-12378
家和	-12379
对应	-12380
对称	-12381
年对	-12382
往常	-12383
忡忡	-12384
悲伤	-12385
挖掘	-12386
放射	-12387
晓波	-12388
有何	-12389
期权	-12390
比特	-12391
比索	-12392
永恒	-12393
流传	-12394
的阿	-12395
移植	-12396
立足	-12397
级的	-12398
纵容	-12399
纾困	-12400
置身	-12401
美丽	-12402
翼翼	-12403
而该	-12404
肮脏	-12405
脱贫	-12406
脱钩	-12407
舞弊	-12408
补救	-12409
要把	-12410
调解	-12411
贵族	-12412
迷惑	-12413
追加	-12414
邮报	-12415
酒店	-12416
锁定	-12417
集合	-12418
10.	-12419
eph	-12420
omp	-12421
ste	-12422
▁人口	-12423
▁反对	-12424
▁智利	-12425
▁确保	-12426
▁部分	-12427
不可靠	-12428
不应当	-12429
两年中	-12430
之前就	-12431
了新的	-12432
争论的	-12433
什么是	-12434
以保护	-12435
作出的	-12436
佩雷斯	-12437
使我们	-12438
加入到	-12439
博物馆	-12440
印度洋	-12441
可预测	-12442
和中东	-12443
和埃及	-12444
和移民	-12445
在应对	-12446
埃克森	-12447
季度的	-12448
家庭和	-12449
对银行	-12450
将通过	-12451
将需要	-12452
小企业	-12453
年危机	-12454
年时间	-12455
持有者	-12456
控制和	-12457
政府都	-12458
斗争中	-12459
时期内	-12460
是否有	-12461
是确保	-12462
沃尔福	-12463
独立于	-12464
的一场	-12465
的全面	-12466
的名义	-12467
的干预	-12468
的愿望	-12469
的正确	-12470
的气候	-12471
的潜力	-12472
的费用	-12473
给予了	-12474
至少有	-12475
该条约	-12476
资产和	-12477
转型的	-12478
较大的	-12479
驱动力	-12480
默多克	-12481
inan	-12482
▁所谓的	-12483
▁而美国	-12484
不无道理	-12485
令人振奋	-12486
低碳能源	-12487
作为一种	-12488
健康保险	-12489
历史上看	-12490
可以肯定	-12491
和什叶派	-12492
商业模式	-12493
困难重重	-12494
在欧元区	-12495
外交手段	-12496
多样性的	-12497
接近于零	-12498
提供援助	-12499
政府机构	-12500
政治意愿	-12501
教育体系	-12502
日常生活	-12503
日本政府	-12504
是否愿意	-12505
更不要说	-12506
有价值的	-12507
正在迅速	-12508
民主联盟	-12509
消极影响	-12510
深思熟虑	-12511
现在正在	-12512
的以色列	-12513
社会契约	-12514
紧急状态	-12515
经济合作	-12516
美元计价	-12517
西奈半岛	-12518
财政悬崖	-12519
这一局面	-12520
重大挑战	-12521
针锋相对	-12522
enter	-12523
▁俄罗斯的	-12524
▁其中一个	-12525
▁如果欧洲	-12526
债券持有人	-12527
已经达到了	-12528
日益增长的	-12529
正义与发展	-12530
的一个关键	-12531
在发展中国家	-12532
联邦基金利率	-12533
跨太平洋伙伴关系	-12534
JP	-12535
ef	-12536
上扬	-12537
与他	-12538
为他	-12539
亚哥	-12540
什图	-12541
使他	-12542
例证	-12543
制品	-12544
午餐	-12545
卸任	-12546
原来	-12547
受人	-12548
司令	-12549
哈利	-12550
在该	-12551
坐在	-12552
大惊	-12553
孕育	-12554
对新	-12555
强度	-12556
当初	-12557
思路	-12558
总能	-12559
惨遭	-12560
或在	-12561
拘留	-12562
拼命	-12563
排外	-12564
撤退	-12565
新高	-12566
普斯	-12567
暗中	-12568
更替	-12569
样子	-12570
样本	-12571
比作	-12572
没收	-12573
流氓	-12574
淹没	-12575
甚少	-12576
生理	-12577
盛行	-12578
矿产	-12579
种姓	-12580
空洞	-12581
符号	-12582
紧随	-12583
维艰	-12584
老人	-12585
艾伦	-12586
节制	-12587
裁量	-12588
裂痕	-12589
见解	-12590
警钟	-12591
说出	-12592
诸塞	-12593
赋权	-12594
较大	-12595
辩解	-12596
迅猛	-12597
选手	-12598
遗余	-12599
部件	-12600
顺从	-12601
arg	-12602
itz	-12603
lex	-12604
▁反之	-12605
▁增加	-12606
▁这位	-12607
一个月	-12608
一年前	-12609
下降的	-12610
不属于	-12611
不透明	-12612
两个月	-12613
中右翼	-12614
也难以	-12615
了一倍	-12616
以适应	-12617
价格和	-12618
但中国	-12619
关注点	-12620
关系中	-12621
准确地	-12622
分水岭	-12623
刘晓波	-12624
友好的	-12625
只能让	-12626
同样也	-12627
和平和	-12628
在希腊	-12629
地使用	-12630
外交部	-12631
威胁着	-12632
它需要	-12633
实践中	-12634
寻常的	-12635
将它们	-12636
尽管有	-12637
工人和	-12638
已经将	-12639
年达到	-12640
应用于	-12641
当我们	-12642
投票率	-12643
持续到	-12644
来解释	-12645
比特币	-12646
的上升	-12647
的多数	-12648
的根本	-12649
的立法	-12650
结构和	-12651
结果的	-12652
老布什	-12653
职人员	-12654
要实现	-12655
货币化	-12656
零售商	-12657
非洲人	-12658
高增长	-12659
100%	-12660
▁3%,	-12661
▁con	-12662
债务上限	-12663
全民公投	-12664
可以用来	-12665
商界领袖	-12666
基础上的	-12667
增长战略	-12668
多边机构	-12669
天主教徒	-12670
实力平衡	-12671
小心翼翼	-12672
开放社会	-12673
忧心忡忡	-12674
意大利人	-12675
我们如何	-12676
我们希望	-12677
拉脱维亚	-12678
改革措施	-12679
无一例外	-12680
是这样的	-12681
晚些时候	-12682
最终导致	-12683
毋庸置疑	-12684
民主选举	-12685
物价稳定	-12686
经济利益	-12687
经济崩溃	-12688
脱离欧盟	-12689
莫拉莱斯	-12690
蓬勃发展	-12691
资金支持	-12692
走上街头	-12693
过度依赖	-12694
远远低于	-12695
道德风险	-12696
食品价格	-12697
NAFTA	-12698
▁1989	-12699
▁Bank	-12700
▁二十世纪	-12701
▁在此期间	-12702
中央情报局	-12703
人民币汇率	-12704
劳动力成本	-12705
日本和韩国	-12706
机构投资者	-12707
的国家之一	-12708
的政治意愿	-12709
议会选举中	-12710
▁中国领导人	-12711
▁所有这些都	-12712
在全球范围内	-12713
基础设施建设	-12714
的政治和经济	-12715
诺贝尔和平奖	-12716
nership	-12717
▁Commission	-12718
Ph	-12719
ok	-12720
一去	-12721
一手	-12722
上都	-12723
专属	-12724
专栏	-12725
两人	-12726
两家	-12727
个州	-12728
也最	-12729
乱局	-12730
争相	-12731
代际	-12732
体化	-12733
佛教	-12734
保存	-12735
列入	-12736
劫持	-12737
勒颇	-12738
卓著	-12739
卖给	-12740
印钞	-12741
同比	-12742
和前	-12743
失效	-12744
套利	-12745
就任	-12746
归还	-12747
很不	-12748
患有	-12749
手握	-12750
扎尔	-12751
招聘	-12752
挤压	-12753
捐献	-12754
收买	-12755
整套	-12756
斯达	-12757
无误	-12758
旷日	-12759
暴乱	-12760
格雷	-12761
流的	-12762
漂亮	-12763
灌输	-12764
牛肉	-12765
生死	-12766
登记	-12767
的传	-12768
盲目	-12769
相形	-12770
真诚	-12771
离婚	-12772
端的	-12773
结算	-12774
菲利	-12775
见到	-12776
辅助	-12777
迟缓	-12778
问及	-12779
青睐	-12780
风潮	-12781
马士	-12782
黎加	-12783
170	-12784
ial	-12785
ild	-12786
nit	-12787
▁不难	-12788
▁利用	-12789
▁大量	-12790
▁就算	-12791
▁成功	-12792
不论是	-12793
与政治	-12794
严重性	-12795
中美洲	-12796
了那些	-12797
人们在	-12798
似乎都	-12799
光是在	-12800
出生的	-12801
则需要	-12802
到美国	-12803
原来的	-12804
和一个	-12805
和许多	-12806
在选举	-12807
大企业	-12808
大范围	-12809
大面积	-12810
奢侈品	-12811
密尔顿	-12812
对人类	-12813
对他的	-12814
就足以	-12815
市场中	-12816
怀疑派	-12817
慢性病	-12818
把美国	-12819
掌权的	-12820
提供商	-12821
方面也	-12822
无非是	-12823
是唯一	-12824
更少的	-12825
来处理	-12826
然而然	-12827
爆发后	-12828
的举措	-12829
的痛苦	-12830
的知识	-12831
矛盾的	-12832
而遭到	-12833
聚焦于	-12834
英国在	-12835
被人们	-12836
观察到	-12837
让伊朗	-12838
议会中	-12839
路要走	-12840
还不是	-12841
选择是	-12842
通过将	-12843
道路上	-12844
遗传学	-12845
降到了	-12846
青少年	-12847
马里奥	-12848
鲍威尔	-12849
ound	-12850
▁3%。	-12851
▁8%,	-12852
▁在一些	-12853
▁我们在	-12854
▁我相信	-12855
▁据估计	-12856
▁说到底	-12857
不可逆转	-12858
不断变化	-12859
不断增长	-12860
中国正在	-12861
做得更好	-12862
几乎完全	-12863
南欧国家	-12864
卡尔扎伊	-12865
可能不会	-12866
团结一致	-12867
圣地亚哥	-12868
大获全胜	-12869
实现目标	-12870
工作机会	-12871
必须接受	-12872
总统任期	-12873
息息相关	-12874
把注意力	-12875
拥有一个	-12876
政府干预	-12877
数据显示	-12878
无济于事	-12879
智能手机	-12880
暴力活动	-12881
欧洲政治	-12882
欧盟预算	-12883
民调显示	-12884
爱国主义	-12885
物价指数	-12886
生物技术	-12887
的欧元区	-12888
直到最近	-12889
移民问题	-12890
美元汇率	-12891
过去十年	-12892
这一方案	-12893
这是一种	-12894
重中之重	-12895
重新定义	-12896
重新评估	-12897
麻省理工	-12898
▁1999	-12899
▁但特朗普	-12900
▁如果这些	-12901
▁显而易见	-12902
▁美国总统	-12903
传染性疾病	-12904
各国领导人	-12905
完成的任务	-12906
房地产价格	-12907
的政策制定	-12908
经济发展的	-12909
结构性问题	-12910
美国经济的	-12911
许多人认为	-12912
金融机构的	-12913
Joseph	-12914
Thomas	-12915
人道主义援助	-12916
的经济和社会	-12917
经常账户赤字	-12918
inancial	-12919
CR	-12920
GB	-12921
一心	-12922
一提	-12923
中去	-12924
之源	-12925
乡村	-12926
人造	-12927
仅靠	-12928
仍旧	-12929
以免	-12930
伴侣	-12931
低位	-12932
借用	-12933
匹马	-12934
可归	-12935
地质	-12936
堆积	-12937
塞罗	-12938
头寸	-12939
孱弱	-12940
巴解	-12941
布斯	-12942
弥漫	-12943
悄悄	-12944
惨败	-12945
战败	-12946
扶持	-12947
承包	-12948
投了	-12949
拖入	-12950
支点	-12951
救世	-12952
断言	-12953
日后	-12954
旱灾	-12955
时就	-12956
本书	-12957
步履	-12958
殴打	-12959
水域	-12960
活着	-12961
涌向	-12962
热点	-12963
牧师	-12964
球迷	-12965
瓶颈	-12966
电台	-12967
知情	-12968
碰撞	-12969
祖先	-12970
福特	-12971
端倪	-12972
红线	-12973
考试	-12974
脱节	-12975
草根	-12976
虚伪	-12977
裙带	-12978
赦免	-12979
越过	-12980
足联	-12981
路上	-12982
远景	-12983
遇刺	-12984
避孕	-12985
酒精	-12986
重商	-12987
销毁	-12988
领地	-12989
首个	-12990
马哈	-12991
高点	-12992
11%	-12993
ans	-12994
ari	-12995
tor	-12996
▁le	-12997
▁南非	-12998
▁在其	-12999
▁它的	-13000
▁更加	-13001
▁气候	-13002
▁没错	-13003
▁瑞典	-13004
▁莫迪	-13005
▁近期	-13006
不足的	-13007
中全会	-13008
了一切	-13009
以美国	-13010
低水平	-13011
作斗争	-13012
克斯洛	-13013
全方位	-13014
副主席	-13015
加沙的	-13016
受教育	-13017
只剩下	-13018
和外部	-13019
和希腊	-13020
和非洲	-13021
哥斯达	-13022
在当今	-13023
在纽约	-13024
地区内	-13025
宣布将	-13026
将很快	-13027
尽一切	-13028
巩固了	-13029
廉价的	-13030
强加给	-13031
必须有	-13032
我们有	-13033
或至少	-13034
战争罪	-13035
持续了	-13036
政策是	-13037
普通人	-13038
更糟糕	-13039
此以后	-13040
沃尔夫	-13041
的人都	-13042
的位置	-13043
的声明	-13044
的复杂	-13045
的大门	-13046
的对比	-13047
的总体	-13048
的爆发	-13049
的特殊	-13050
的现代	-13051
的警告	-13052
的许多	-13053
的诱惑	-13054
的辩论	-13055
研究中	-13056
科尔宾	-13057
而且是	-13058
落后的	-13059
薄熙来	-13060
这部分	-13061
这需要	-13062
都拥有	-13063
难以为	-13064
集中的	-13065
马利基	-13066
马士革	-13067
1985	-13068
ried	-13069
vest	-13070
▁Ass	-13071
▁世界上	-13072
▁但许多	-13073
两国方案	-13074
严重依赖	-13075
似乎并不	-13076
公众支持	-13077
公平贸易	-13078
刺激方案	-13079
危机期间	-13080
受欢迎的	-13081
可以解释	-13082
各国央行	-13083
增长最快	-13084
大幅降低	-13085
存款保险	-13086
对其进行	-13087
很多国家	-13088
我们无法	-13089
捷克斯洛	-13090
更加重要	-13091
欧盟机构	-13092
汉密尔顿	-13093
没有多少	-13094
没有必要	-13095
的伊拉克	-13096
相对较小	-13097
积极参与	-13098
税收改革	-13099
调查显示	-13100
这一概念	-13101
除此之外	-13102
预期寿命	-13103
首脑会议	-13104
▁我们不能	-13105
▁这样一来	-13106
劳动生产率	-13107
哥斯达黎加	-13108
在未来十年	-13109
增长和就业	-13110
已经失去了	-13111
并没有什么	-13112
捷克共和国	-13113
收入和财富	-13114
特别是那些	-13115
的巴基斯坦	-13116
的最佳方式	-13117
的速度增长	-13118
相关利益方	-13119
重要的作用	-13120
全球经济增长	-13121
捷克斯洛伐克	-13122
正义与发展党	-13123
马斯特里赫特条约	-13124
,7	-13125
FA	-13126
一同	-13127
两周	-13128
丧命	-13129
亚的	-13130
些许	-13131
亿吨	-13132
仍能	-13133
他会	-13134
优化	-13135
优越	-13136
会见	-13137
倾听	-13138
假说	-13139
兰经	-13140
共有	-13141
几种	-13142
创设	-13143
助手	-13144
化肥	-13145
又一	-13146
可知	-13147
合情	-13148
后期	-13149
图书	-13150
地与	-13151
地域	-13152
声望	-13153
将它	-13154
得的	-13155
想在	-13156
我说	-13157
收效	-13158
明博	-13159
曾是	-13160
构造	-13161
此事	-13162
洛克	-13163
深渊	-13164
温床	-13165
牢固	-13166
犯了	-13167
球队	-13168
第十	-13169
筹码	-13170
索尔	-13171
警报	-13172
诺贝	-13173
谈到	-13174
错觉	-13175
陈述	-13176
降息	-13177
降雨	-13178
面孔	-13179
须知	-13180
顾及	-13181
频道	-13182
高位	-13183
魔鬼	-13184
1/3	-13185
CCS	-13186
NGO	-13187
min	-13188
ome	-13189
ump	-13190
▁但要	-13191
▁经过	-13192
不仅在	-13193
不但是	-13194
个人和	-13195
也承认	-13196
了一番	-13197
事实是	-13198
人人都	-13199
伊朗人	-13200
会因为	-13201
但他的	-13202
其主要	-13203
加拉瓜	-13204
印度教	-13205
反映在	-13206
只关注	-13207
号决议	-13208
合理地	-13209
在长期	-13210
地区性	-13211
地马拉	-13212
夸大了	-13213
奠定了	-13214
对国内	-13215
对它们	-13216
对希腊	-13217
对这个	-13218
将出现	-13219
将获得	-13220
就是要	-13221
常常是	-13222
年实现	-13223
担心的	-13224
更长的	-13225
最低的	-13226
最糟糕	-13227
本身的	-13228
李明博	-13229
来保护	-13230
来承担	-13231
桑托斯	-13232
正逐渐	-13233
毁灭性	-13234
沉迷于	-13235
消费品	-13236
略高于	-13237
的代表	-13238
的区域	-13239
的另一	-13240
的形象	-13241
的情形	-13242
的所谓	-13243
的支出	-13244
的精神	-13245
的预算	-13246
研究和	-13247
积累了	-13248
第三方	-13249
米歇尔	-13250
纯粹的	-13251
而不必	-13252
自卫队	-13253
萨尔瓦	-13254
萨诸塞	-13255
认真的	-13256
贝鲁特	-13257
责任的	-13258
足轻重	-13259
运动中	-13260
还远远	-13261
造就了	-13262
非如此	-13263
非理性	-13264
15%。	-13265
1948	-13266
1975	-13267
1987	-13268
ture	-13269
vers	-13270
▁6%,	-13271
▁委员会	-13272
▁很显然	-13273
▁有鉴于	-13274
▁真正的	-13275
保持沉默	-13276
其中许多	-13277
利益冲突	-13278
削减开支	-13279
历史上的	-13280
只是为了	-13281
只有不到	-13282
各自为政	-13283
固定资产	-13284
尼加拉瓜	-13285
市场准入	-13286
并不那么	-13287
所做出的	-13288
支持者的	-13289
方向发展	-13290
更长时间	-13291
最主要的	-13292
有所帮助	-13293
正在日益	-13294
永远无法	-13295
社会经济	-13296
私人企业	-13297
经济转型	-13298
自然而然	-13299
购买计划	-13300
贸易盈余	-13301
资本外流	-13302
远远高于	-13303
非法移民	-13304
高速增长	-13305
urity	-13306
▁在我看来	-13307
▁在最近的	-13308
▁我们现在	-13309
不平等现象	-13310
亿美元用于	-13311
在发达国家	-13312
在未来几年	-13313
基地组织的	-13314
法西斯主义	-13315
深远的影响	-13316
的国家来说	-13317
经济学家们	-13318
美国和日本	-13319
铺平了道路	-13320
Martin	-13321
斯堪的纳维亚	-13322
经通胀调整的	-13323
,4	-13324
33	-13325
BA	-13326
CN	-13327
ID	-13328
gl	-13329
下注	-13330
争吵	-13331
争辩	-13332
会令	-13333
会以	-13334
但从	-13335
位列	-13336
共处	-13337
写入	-13338
减支	-13339
加税	-13340
又能	-13341
启示	-13342
地讲	-13343
外币	-13344
小泉	-13345
局的	-13346
庄稼	-13347
当其	-13348
得势	-13349
感和	-13350
我和	-13351
战时	-13352
才华	-13353
把他	-13354
挽回	-13355
摆在	-13356
断然	-13357
斯塔	-13358
斯顿	-13359
无休	-13360
无遗	-13361
格斯	-13362
格莱	-13363
比克	-13364
演进	-13365
率和	-13366
甚于	-13367
用在	-13368
电站	-13369
眼睛	-13370
碳税	-13371
空缺	-13372
粗暴	-13373
纠缠	-13374
致富	-13375
舒适	-13376
船只	-13377
诺言	-13378
躲避	-13379
通知	-13380
长官	-13381
长足	-13382
饭店	-13383
/11	-13384
900	-13385
AMR	-13386
▁公众	-13387
▁双方	-13388
▁后来	-13389
▁年的	-13390
下一任	-13391
下半年	-13392
不承认	-13393
与他们	-13394
世界里	-13395
两位数	-13396
中国与	-13397
之不去	-13398
乌里韦	-13399
也确实	-13400
低油价	-13401
使美国	-13402
农业和	-13403
分配给	-13404
利库德	-13405
司法部	-13406
和波兰	-13407
和韩国	-13408
商品的	-13409
国内部	-13410
在巴黎	-13411
大约为	-13412
奥尔默	-13413
对国际	-13414
将再次	-13415
彻底的	-13416
必须由	-13417
所在地	-13418
投入了	-13419
投入到	-13420
投机者	-13421
持续性	-13422
捍卫者	-13423
推行的	-13424
提名人	-13425
更安全	-13426
最紧迫	-13427
枪匹马	-13428
浓缩铀	-13429
的一篇	-13430
的信仰	-13431
的分裂	-13432
的指控	-13433
的方针	-13434
的普遍	-13435
的相关	-13436
的福利	-13437
竞争和	-13438
竞选中	-13439
能够将	-13440
行不通	-13441
该区域	-13442
身份的	-13443
达不到	-13444
适应性	-13445
马拉雅	-13446
1988	-13447
3000	-13448
▁其结果	-13449
▁在全球	-13450
▁理论上	-13451
不满情绪	-13452
与土耳其	-13453
从中受益	-13454
他们需要	-13455
切尔诺贝	-13456
单边主义	-13457
卫生设施	-13458
危地马拉	-13459
和平谈判	-13460
并不存在	-13461
强劲增长	-13462
很可能是	-13463
新的全球	-13464
最大限度	-13465
极端天气	-13466
正面临着	-13467
民主政体	-13468
税收优惠	-13469
粮食安全	-13470
说服力的	-13471
货币战争	-13472
这一情况	-13473
都不可能	-13474
银行贷款	-13475
需要采取	-13476
▁作为一个	-13477
▁此外还有	-13478
伊斯兰世界	-13479
生活水平的	-13480
的民粹主义	-13481
的研究表明	-13482
美国财政部	-13483
资本市场的	-13484
ations	-13485
▁欧洲领导人	-13486
是至关重要的	-13487
遏制气候变化	-13488
▁但这并不意味着	-13489
58	-13490
Me	-13491
St	-13492
▁.	-13493
▁按	-13494
一时	-13495
一篇	-13496
不好	-13497
不尽	-13498
两可	-13499
严酷	-13500
之苦	-13501
互惠	-13502
人身	-13503
似的	-13504
低点	-13505
充裕	-13506
六方	-13507
养活	-13508
内尔	-13509
内陆	-13510
出国	-13511
分解	-13512
剔除	-13513
加之	-13514
劳力	-13515
勾结	-13516
匆忙	-13517
半个	-13518
占有	-13519
卢布	-13520
各有	-13521
合力	-13522
国与	-13523
圣经	-13524
处罚	-13525
外流	-13526
外科	-13527
大通	-13528
威茨	-13529
室内	-13530
将有	-13531
引进	-13532
弱化	-13533
怒火	-13534
所料	-13535
打印	-13536
扣除	-13537
抗衡	-13538
摒弃	-13539
无尽	-13540
更换	-13541
杉矶	-13542
极力	-13543
果实	-13544
概括	-13545
每人	-13546
水准	-13547
爱因	-13548
猖獗	-13549
用词	-13550
电报	-13551
症候	-13552
的下	-13553
的同	-13554
碳化	-13555
穆特	-13556
窗口	-13557
类比	-13558
精明	-13559
累累	-13560
缺位	-13561
老化	-13562
而战	-13563
自发	-13564
菲尔	-13565
裁员	-13566
要低	-13567
订立	-13568
讨好	-13569
诺斯	-13570
趋于	-13571
逼近	-13572
降级	-13573
12%	-13574
130	-13575
45%	-13576
GCC	-13577
air	-13578
ast	-13579
▁不要	-13580
▁之后	-13581
▁女性	-13582
▁家庭	-13583
▁战争	-13584
▁罗马	-13585
一年的	-13586
不会被	-13587
不超过	-13588
不遗余	-13589
了一位	-13590
仍没有	-13591
以促进	-13592
以致于	-13593
任务是	-13594
会引起	-13595
假新闻	-13596
全欧洲	-13597
原则的	-13598
参加了	-13599
反移民	-13600
可以把	-13601
和疟疾	-13602
国家间	-13603
在当前	-13604
大会上	-13605
奇怪的	-13606
它已经	-13607
它能够	-13608
官员的	-13609
家可归	-13610
尽管在	-13611
展示了	-13612
已经对	-13613
年龄段	-13614
并试图	-13615
延伸到	-13616
归结为	-13617
当地的	-13618
恐惧和	-13619
情况的	-13620
成熟的	-13621
我相信	-13622
接受过	-13623
提升了	-13624
放弃其	-13625
斯蒂格	-13626
是人类	-13627
本人的	-13628
沃尔克	-13629
洛杉矶	-13630
灾难的	-13631
的一代	-13632
的传播	-13633
的决心	-13634
的困境	-13635
的外国	-13636
的政客	-13637
的这一	-13638
的首要	-13639
目标和	-13640
米尔顿	-13641
美国也	-13642
解释是	-13643
该法案	-13644
赶下台	-13645
较小的	-13646
进入到	-13647
远大于	-13648
那么多	-13649
预计到	-13650
高昂的	-13651
高油价	-13652
1947	-13653
uman	-13654
▁7%。	-13655
▁互联网	-13656
▁再加上	-13657
▁民主党	-13658
▁这些人	-13659
一直没有	-13660
二十年前	-13661
亚历山大	-13662
仅仅因为	-13663
公共利益	-13664
制定一个	-13665
十分有限	-13666
单枪匹马	-13667
发动战争	-13668
发展日程	-13669
发展计划	-13670
另外一种	-13671
可能引发	-13672
喜马拉雅	-13673
尽可能地	-13674
希腊退出	-13675
平均每年	-13676
心理学家	-13677
所未有的	-13678
担任总统	-13679
指导原则	-13680
挥之不去	-13681
政府正在	-13682
整个国家	-13683
暴力冲突	-13684
未来十年	-13685
标准普尔	-13686
殖民主义	-13687
毁灭性的	-13688
游说集团	-13689
潜在增长	-13690
爱因斯坦	-13691
留在欧盟	-13692
的世界里	-13693
维和部队	-13694
美国已经	-13695
能够带来	-13696
营商环境	-13697
解决方法	-13698
货币宽松	-13699
货币当局	-13700
这种说法	-13701
阿塞拜疆	-13702
风险管理	-13703
骇人听闻	-13704
▁澳大利亚	-13705
▁许多国家	-13706
产品和服务	-13707
地区和全球	-13708
奥斯曼帝国	-13709
并不是一个	-13710
所做的那样	-13711
提供更多的	-13712
欧洲委员会	-13713
由此产生的	-13714
的原因之一	-13715
巴黎气候协定	-13716
带来了巨大的	-13717
所指出的那样	-13718
解决这个问题	-13719
解释了为什么	-13720
首席经济学家	-13721
▁可以肯定的是	-13722
国际货币基金组织的	-13723
ND	-13724
▁所	-13725
一组	-13726
三位	-13727
不胜	-13728
东扩	-13729
两院	-13730
举债	-13731
之所	-13732
倒是	-13733
八年	-13734
兴旺	-13735
冲绳	-13736
切尼	-13737
加盟	-13738
即可	-13739
古代	-13740
另类	-13741
吉斯	-13742
回家	-13743
国和	-13744
在向	-13745
如下	-13746
它来	-13747
寥寥	-13748
尔森	-13749
差额	-13750
市盈	-13751
年起	-13752
废物	-13753
惊奇	-13754
想一	-13755
打下	-13756
抵触	-13757
拉低	-13758
控股	-13759
摧残	-13760
曼谷	-13761
汇聚	-13762
法兰	-13763
潜艇	-13764
物资	-13765
率先	-13766
生动	-13767
界的	-13768
相差	-13769
给他	-13770
能对	-13771
自问	-13772
诅咒	-13773
调动	-13774
赞誉	-13775
运送	-13776
陈词	-13777
随心	-13778
高尚	-13779
ESM	-13780
▁An	-13781
▁Mo	-13782
▁保护	-13783
▁可能	-13784
▁外国	-13785
▁尤其	-13786
▁而对	-13787
不动产	-13788
世界观	-13789
中指出	-13790
为人知	-13791
也更加	-13792
了一套	-13793
产生于	-13794
以应对	-13795
以解决	-13796
会影响	-13797
但对于	-13798
免不了	-13799
其影响	-13800
军队和	-13801
出一辙	-13802
发出的	-13803
另一方	-13804
可以和	-13805
可能给	-13806
和媒体	-13807
和执行	-13808
大问题	-13809
好莱坞	-13810
完成的	-13811
将中国	-13812
屈从于	-13813
市场化	-13814
年以前	-13815
开放和	-13816
当美国	-13817
德国在	-13818
必须的	-13819
恢复到	-13820
政治化	-13821
是出于	-13822
是这一	-13823
有一半	-13824
权力和	-13825
核裁军	-13826
正处在	-13827
比现在	-13828
特征是	-13829
特里谢	-13830
理论的	-13831
病人的	-13832
的义务	-13833
的人力	-13834
的借口	-13835
的减少	-13836
的境地	-13837
的开始	-13838
的演讲	-13839
的通胀	-13840
稳定与	-13841
第一大	-13842
结构的	-13843
统治下	-13844
维持其	-13845
而他们	-13846
能实现	-13847
被发现	-13848
解释说	-13849
近一半	-13850
这一步	-13851
释放出	-13852
需要为	-13853
1500	-13854
edic	-13855
tain	-13856
▁中国在	-13857
▁他们在	-13858
▁而现在	-13859
▁这不仅	-13860
▁这两种	-13861
严重威胁	-13862
为什么要	-13863
也受到了	-13864
以及欧洲	-13865
任何人都	-13866
债务问题	-13867
健康问题	-13868
几个月来	-13869
刺激增长	-13870
势力范围	-13871
受害者的	-13872
在该地区	-13873
基本收入	-13874
外汇市场	-13875
平衡预算	-13876
应该获得	-13877
快速发展	-13878
持续增长	-13879
是全世界	-13880
是否定的	-13881
普通公民	-13882
武装部队	-13883
流动资金	-13884
清算银行	-13885
激励机制	-13886
特别是当	-13887
的不信任	-13888
的失业率	-13889
真实利率	-13890
科学家和	-13891
结构调整	-13892
绿色能源	-13893
能源供应	-13894
资本重组	-13895
资源配置	-13896
重新获得	-13897
随心所欲	-13898
马萨诸塞	-13899
ocial	-13900
▁2002	-13901
▁也就是说	-13902
世界银行和	-13903
中国的经济	-13904
在巴勒斯坦	-13905
极端主义者	-13906
欧盟和美国	-13907
沃尔福威茨	-13908
的中产阶级	-13909
的国家安全	-13910
社会安全网	-13911
贸易自由化	-13912
近几十年来	-13913
▁但不幸的是	-13914
使用化学武器	-13915
国际货币体系	-13916
所面临的问题	-13917
证明了这一点	-13918
ecurity	-13919
▁Health	-13920
▁同样重要的是	-13921
美国总统特朗普	-13922
▁Partnership	-13923
BC	-13924
▁乍	-13925
▁四	-13926
一书	-13927
一千	-13928
上层	-13929
上看	-13930
上空	-13931
不一	-13932
不切	-13933
严苛	-13934
中也	-13935
令我	-13936
你会	-13937
公告	-13938
军国	-13939
劝说	-13940
单个	-13941
卖出	-13942
参谋	-13943
固执	-13944
国库	-13945
坐等	-13946
契合	-13947
孤独	-13948
左倾	-13949
巨人	-13950
开设	-13951
弱小	-13952
怀孕	-13953
急迫	-13954
患病	-13955
成人	-13956
手下	-13957
手可	-13958
把这	-13959
拖欠	-13960
推论	-13961
提炼	-13962
收费	-13963
施以	-13964
更早	-13965
毛里	-13966
水面	-13967
法令	-13968
的头	-13969
皇家	-13970
监察	-13971
种群	-13972
科特	-13973
称作	-13974
算是	-13975
纠结	-13976
美俄	-13977
耶鲁	-13978
肆无	-13979
胜于	-13980
能与	-13981
规格	-13982
诗人	-13983
赖于	-13984
越好	-13985
路口	-13986
避风	-13987
防火	-13988
黑色	-13989
Moh	-13990
enn	-13991
for	-13992
icy	-13993
oci	-13994
ure	-13995
▁21	-13996
▁30	-13997
▁En	-13998
▁与其	-13999
▁在他	-14000
▁技术	-14001
▁改变	-14002
▁难民	-14003
一切都	-14004
一无所	-14005
不包括	-14006
中找到	-14007
中的一	-14008
也相当	-14009
了全球	-14010
了超过	-14011
从中国	-14012
会受到	-14013
使它们	-14014
其结果	-14015
出租车	-14016
则认为	-14017
占到了	-14018
占据着	-14019
另一次	-14020
可以对	-14021
和也门	-14022
和维持	-14023
在其中	-14024
地支持	-14025
大约有	-14026
宪法的	-14027
将不再	-14028
就会被	-14029
布什的	-14030
年以后	-14031
很难说	-14032
总额的	-14033
承认了	-14034
报告的	-14035
排除了	-14036
推动的	-14037
敌人的	-14038
普通的	-14039
暂时性	-14040
最脆弱	-14041
月开始	-14042
有问题	-14043
来看待	-14044
残酷的	-14045
的农民	-14046
的希腊	-14047
的短期	-14048
的联邦	-14049
的著作	-14050
的评估	-14051
目睹了	-14052
网络的	-14053
能说明	-14054
自主权	-14055
行为和	-14056
被告知	-14057
证券化	-14058
误导性	-14059
这些新	-14060
遥远的	-14061
都是由	-14062
革命性	-14063
风险是	-14064
40%,	-14065
roup	-14066
▁人民币	-14067
▁他认为	-14068
▁在印度	-14069
▁在某些	-14070
▁很多人	-14071
▁最新的	-14072
▁而随着	-14073
▁这使得	-14074
▁这是个	-14075
一致同意	-14076
七十年代	-14077
不断恶化	-14078
不是为了	-14079
世界主要	-14080
两个国家	-14081
中国必须	-14082
人的生活	-14083
从中获益	-14084
但是他们	-14085
公民自由	-14086
关系密切	-14087
其他许多	-14088
军事冲突	-14089
博科圣地	-14090
在乌克兰	-14091
在美国的	-14092
在选举中	-14093
奥尔默特	-14094
季莫申科	-14095
将在今年	-14096
建立新的	-14097
急剧下降	-14098
成为美国	-14099
把自己的	-14100
投资者和	-14101
收入增长	-14102
政治精英	-14103
昂山素季	-14104
是另一个	-14105
更强大的	-14106
沙文主义	-14107
犹豫不决	-14108
生产力的	-14109
的一体化	-14110
的什叶派	-14111
社会责任	-14112
管理不善	-14113
肆无忌惮	-14114
蒙受损失	-14115
表面上看	-14116
货币交易	-14117
足够多的	-14118
转移到了	-14119
逍遥法外	-14120
那么我们	-14121
重新开始	-14122
难以为继	-14123
—2012	-14124
▁Fund	-14125
▁一些国家	-14126
▁有鉴于此	-14127
▁这些都是	-14128
一定程度的	-14129
不平等状况	-14130
出人意料地	-14131
创造了一个	-14132
劳动力大军	-14133
富裕国家的	-14134
引人注目的	-14135
海平面上升	-14136
令人印象深刻	-14137
全球金融体系	-14138
可预见的未来	-14139
民意调查显示	-14140
▁在这样的环境下	-14141
亚洲基础设施投资银行	-14142
"。	-14143
,8	-14144
CS	-14145
Ed	-14146
▁曾	-14147
▁皮	-14148
不移	-14149
丢失	-14150
丢掉	-14151
主人	-14152
也给	-14153
五倍	-14154
亲自	-14155
从其	-14156
伦斯	-14157
光荣	-14158
克拉	-14159
公顷	-14160
养殖	-14161
分娩	-14162
刊登	-14163
制订	-14164
匿名	-14165
取悦	-14166
同道	-14167
后才	-14168
坦白	-14169
基尼	-14170
天后	-14171
天生	-14172
失利	-14173
好奇	-14174
子和	-14175
学费	-14176
定于	-14177
定罪	-14178
密度	-14179
少于	-14180
屈辱	-14181
年为	-14182
底线	-14183
强健	-14184
录像	-14185
我是	-14186
房地	-14187
所属	-14188
手脚	-14189
拟议	-14190
拥抱	-14191
接班	-14192
撒谎	-14193
撤回	-14194
敏锐	-14195
文盲	-14196
旗号	-14197
无权	-14198
暗淡	-14199
有罪	-14200
村民	-14201
板上	-14202
极易	-14203
梅尼	-14204
求助	-14205
沙皇	-14206
法郎	-14207
爱沙	-14208
现已	-14209
的马	-14210
直言	-14211
相连	-14212
相邻	-14213
碳氢	-14214
离心	-14215
第六	-14216
签字	-14217
算计	-14218
细致	-14219
维度	-14220
罗毕	-14221
者所	-14222
能从	-14223
腹泻	-14224
舍尔	-14225
航天	-14226
英法	-14227
蛊惑	-14228
蹒跚	-14229
迁往	-14230
递交	-14231
错失	-14232
限额	-14233
雨林	-14234
食用	-14235
鲨鱼	-14236
WTO	-14237
lic	-14238
lin	-14239
ust	-14240
▁Ab	-14241
▁降低	-14242
一致性	-14243
上涨了	-14244
两者的	-14245
为实现	-14246
也未能	-14247
了很多	-14248
事务中	-14249
仅有的	-14250
他人的	-14251
储蓄者	-14252
全国性	-14253
其他的	-14254
利率和	-14255
制定出	-14256
加强对	-14257
危机时	-14258
压力下	-14259
和法律	-14260
圣诞节	-14261
在短期	-14262
在解决	-14263
对西方	-14264
尼日尔	-14265
年收入	-14266
并增加	-14267
并实施	-14268
强化的	-14269
我们从	-14270
所发生	-14271
承诺将	-14272
投机性	-14273
掌握着	-14274
收到了	-14275
数十亿	-14276
方设法	-14277
是欧盟	-14278
是这样	-14279
正义党	-14280
比如说	-14281
水平上	-14282
法基斯	-14283
的人员	-14284
的债券	-14285
的回报	-14286
的官员	-14287
的实施	-14288
的投票	-14289
的种族	-14290
的繁荣	-14291
的评论	-14292
的象征	-14293
真实的	-14294
穷人和	-14295
突破性	-14296
米洛舍	-14297
组成了	-14298
经济区	-14299
绝不能	-14300
而欧盟	-14301
至今仍	-14302
贸易战	-14303
路易斯	-14304
过高的	-14305
这三个	-14306
进程中	-14307
遇到了	-14308
避风港	-14309
那些被	-14310
银行在	-14311
限制的	-14312
预期的	-14313
领袖们	-14314
领袖的	-14315
4000	-14316
60%。	-14317
FARC	-14318
Jean	-14319
▁2%。	-14320
▁很明显	-14321
一个更加	-14322
一点都不	-14323
不是因为	-14324
严重问题	-14325
二十年中	-14326
债务减免	-14327
其中之一	-14328
冷战时期	-14329
几个月前	-14330
卡尔德隆	-14331
及其盟友	-14332
可以避免	-14333
合作关系	-14334
和联合国	-14335
土耳其人	-14336
增长前景	-14337
增长率为	-14338
如出一辙	-14339
实际情况	-14340
对叙利亚	-14341
市场失灵	-14342
德国经济	-14343
必须成为	-14344
怀疑论者	-14345
提供服务	-14346
摩根大通	-14347
政府开支	-14348
政治权力	-14349
最后一次	-14350
来说都是	-14351
核心问题	-14352
橙色革命	-14353
沙特王国	-14354
爆发以来	-14355
爱沙尼亚	-14356
环境问题	-14357
理由认为	-14358
的一点是	-14359
的是一个	-14360
的第二个	-14361
石油出口	-14362
研究显示	-14363
美国国家	-14364
苦苦挣扎	-14365
该委员会	-14366
边际税率	-14367
这项任务	-14368
金融时报	-14369
银行监管	-14370
长期投资	-14371
onald	-14372
ution	-14373
▁各国政府	-14374
▁哥本哈根	-14375
▁如果这一	-14376
中国的崛起	-14377
之间的分歧	-14378
之间的差异	-14379
取得了成功	-14380
和委内瑞拉	-14381
姆斯菲尔德	-14382
已经超过了	-14383
所有国家都	-14384
进一步加剧	-14385
年轻人失业率	-14386
很长一段时间	-14387
美国总统大选	-14388
货币市场基金	-14389
vestment	-14390
▁Council	-14391
跨大西洋贸易和投资伙伴关系	-14392
NI	-14393
PE	-14394
▁给	-14395
上调	-14396
乌兹	-14397
也好	-14398
也没	-14399
互补	-14400
他和	-14401
何况	-14402
保有	-14403
倾销	-14404
光耀	-14405
内涵	-14406
分量	-14407
别国	-14408
办事	-14409
厌倦	-14410
吸毒	-14411
周刊	-14412
哈耶	-14413
困局	-14414
塞内	-14415
声势	-14416
多家	-14417
大厦	-14418
大打	-14419
夭折	-14420
如其	-14421
层级	-14422
并存	-14423
怀有	-14424
意欲	-14425
手册	-14426
扰乱	-14427
抗争	-14428
护士	-14429
担当	-14430
拿马	-14431
指南	-14432
推崇	-14433
是的	-14434
本该	-14435
来做	-14436
欧安	-14437
民权	-14438
满了	-14439
研制	-14440
穆勒	-14441
算法	-14442
纸币	-14443
肉类	-14444
色情	-14445
蓝领	-14446
让你	-14447
身陷	-14448
较弱	-14449
追逐	-14450
队的	-14451
震荡	-14452
面包	-14453
领衔	-14454
首任	-14455
13%	-14456
ICT	-14457
ase	-14458
ier	-14459
ise	-14460
yan	-14461
·11	-14462
▁一份	-14463
▁上周	-14464
▁二战	-14465
▁当局	-14466
▁据说	-14467
▁曾经	-14468
▁超过	-14469
一个有	-14470
一书中	-14471
与我们	-14472
专业化	-14473
为中国	-14474
乌兹别	-14475
了整个	-14476
了解到	-14477
但许多	-14478
供给端	-14479
做的事	-14480
党派的	-14481
出生率	-14482
医疗和	-14483
卡特尔	-14484
古老的	-14485
可以使	-14486
和外交	-14487
围绕着	-14488
在面对	-14489
增加对	-14490
大气中	-14491
妨碍了	-14492
完整的	-14493
将得到	-14494
将被迫	-14495
就显得	-14496
开发和	-14497
或者在	-14498
提到的	-14499
斗争的	-14500
方方面	-14501
是怎样	-14502
更喜欢	-14503
最令人	-14504
有义务	-14505
有效性	-14506
李光耀	-14507
来管理	-14508
正在被	-14509
比过去	-14510
沉重的	-14511
治理的	-14512
法院的	-14513
理论家	-14514
的准备	-14515
的对策	-14516
的朝鲜	-14517
的汇率	-14518
的访问	-14519
石油的	-14520
系统和	-14521
而得到	-14522
联系的	-14523
萨利赫	-14524
让这些	-14525
该协定	-14526
调查局	-14527
贫困率	-14528
资金和	-14529
走上了	-14530
走到了	-14531
起源于	-14532
这一新	-14533
退出的	-14534
随时间	-14535
饥饿和	-14536
高效的	-14537
15%,	-14538
1974	-14539
2500	-14540
ISIS	-14541
Uber	-14542
ject	-14543
▁4%。	-14544
▁8%。	-14545
▁Mon	-14546
▁其他人	-14547
▁只有当	-14548
▁在经济	-14549
▁失业率	-14550
▁当时的	-14551
▁肯尼亚	-14552
▁莫斯科	-14553
▁这也许	-14554
不同国家	-14555
与欧盟的	-14556
中国官员	-14557
从长期看	-14558
他的政府	-14559
保持稳定	-14560
公开市场	-14561
六十年代	-14562
关键因素	-14563
军事基地	-14564
削减支出	-14565
国际收支	-14566
在过去的	-14567
外部需求	-14568
密切关注	-14569
已经非常	-14570
市场价格	-14571
并不容易	-14572
想方设法	-14573
所有问题	-14574
投资者们	-14575
无家可归	-14576
无法得到	-14577
更是如此	-14578
本身就是	-14579
没有哪个	-14580
环境破坏	-14581
生产成本	-14582
电子邮件	-14583
的反对者	-14584
的欧洲人	-14585
的目的是	-14586
的领导者	-14587
相互作用	-14588
社会保险	-14589
继续存在	-14590
美国国内	-14591
萨尔瓦多	-14592
西方世界	-14593
财政扩张	-14594
赢得选举	-14595
遭到破坏	-14596
金融抑制	-14597
阿卜杜勒	-14598
阿拉维派	-14599
4,000	-14600
overn	-14601
—2010	-14602
▁Bern	-14603
▁绝大多数	-14604
世界各国的	-14605
保护主义的	-14606
切尔诺贝利	-14607
发生了什么	-14608
可持续增长	-14609
和其他许多	-14610
和欧洲央行	-14611
哈佛大学的	-14612
奥巴马医保	-14613
实实在在的	-14614
持不同政见	-14615
指出的那样	-14616
根本不存在	-14617
的社会保障	-14618
的经济状况	-14619
米洛舍维奇	-14620
表现出来的	-14621
还有待观察	-14622
这样的情况	-14623
马克思主义	-14624
马歇尔计划	-14625
▁克里姆林宫	-14626
▁越来越多的	-14627
中等收入国家	-14628
今年早些时候	-14629
凯恩斯主义者	-14630
很长的路要走	-14631
欧洲中央银行	-14632
欧盟成员国的	-14633
民族主义情绪	-14634
经常账户盈余	-14635
100,000	-14636
▁Climate	-14637
▁Summers	-14638
2/	-14639
47	-14640
AA	-14641
PR	-14642
ax	-14643
▁跟	-14644
一人	-14645
一生	-14646
三世	-14647
上一	-14648
下定	-14649
专政	-14650
丝毫	-14651
中俄	-14652
丰厚	-14653
乃是	-14654
五月	-14655
交接	-14656
亲属	-14657
以求	-14658
兜售	-14659
兴盛	-14660
内心	-14661
几项	-14662
利他	-14663
化身	-14664
却对	-14665
厄运	-14666
可悲	-14667
名人	-14668
向往	-14669
回落	-14670
国旗	-14671
在任	-14672
基什	-14673
堡垒	-14674
墨尔	-14675
够了	-14676
好战	-14677
存储	-14678
它也	-14679
它还	-14680
定为	-14681
寨卡	-14682
寻租	-14683
尔班	-14684
届时	-14685
已成	-14686
幼稚	-14687
弗雷	-14688
急速	-14689
投降	-14690
护照	-14691
接壤	-14692
收容	-14693
效忠	-14694
整顿	-14695
既定	-14696
是件	-14697
是它	-14698
暴君	-14699
渔民	-14700
热爱	-14701
狭窄	-14702
相容	-14703
税法	-14704
立陶	-14705
类的	-14706
而当	-14707
而无	-14708
胜选	-14709
能被	-14710
自足	-14711
莫桑	-14712
表象	-14713
贩卖	-14714
跌幅	-14715
跟上	-14716
迪克	-14717
雅克	-14718
韧性	-14719
高潮	-14720
,10	-14721
17%	-14722
9%。	-14723
ney	-14724
ore	-14725
ver	-14726
▁Ad	-14727
▁Kr	-14728
▁Th	-14729
▁东亚	-14730
▁同理	-14731
▁增长	-14732
▁当年	-14733
▁本周	-14734
▁牛津	-14735
▁第五	-14736
▁选举	-14737
一次性	-14738
一直被	-14739
一直都	-14740
下一步	-14741
东正教	-14742
中只有	-14743
也不应	-14744
了一致	-14745
享受着	-14746
什维利	-14747
从而将	-14748
他已经	-14749
以帮助	-14750
以每年	-14751
会持续	-14752
但是这	-14753
入学率	-14754
内罗毕	-14755
动荡的	-14756
发动机	-14757
向我们	-14758
和增加	-14759
和消费	-14760
哈耶克	-14761
在这种	-14762
墨尔本	-14763
多数人	-14764
多数派	-14765
富人的	-14766
对一个	-14767
对朝鲜	-14768
左右的	-14769
已故的	-14770
市盈率	-14771
常常会	-14772
微生物	-14773
想要的	-14774
想象力	-14775
我们还	-14776
所引发	-14777
推高了	-14778
明年的	-14779
是值得	-14780
是否是	-14781
更严重	-14782
更像是	-14783
有价值	-14784
欧尔班	-14785
由国家	-14786
疫苗的	-14787
的一方	-14788
的主张	-14789
的生存	-14790
签订了	-14791
翻一番	-14792
而我们	-14793
而政府	-14794
臂之力	-14795
艺术家	-14796
规定了	-14797
让市场	-14798
谢里夫	-14799
赋予了	-14800
进口品	-14801
部门和	-14802
都具有	-14803
阿布哈	-14804
预料到	-14805
高通胀	-14806
6000	-14807
anke	-14808
emoc	-14809
ront	-14810
tive	-14811
▁TPP	-14812
▁但上述	-14813
▁但人们	-14814
▁反过来	-14815
▁接下来	-14816
万美元的	-14817
世界最大	-14818
中国需要	-14819
中美两国	-14820
人们可以	-14821
从本质上	-14822
住房价格	-14823
共同努力	-14824
共同目标	-14825
其他部分	-14826
再次发生	-14827
军事打击	-14828
即使是在	-14829
参与其中	-14830
和伊斯兰	-14831
和共和党	-14832
国际体系	-14833
基因工程	-14834
基本原则	-14835
如何解决	-14836
对土耳其	-14837
导致美国	-14838
已经结束	-14839
意识到了	-14840
所引起的	-14841
所采取的	-14842
换句话说	-14843
数十年来	-14844
整体经济	-14845
斯蒂格尔	-14846
是不可能	-14847
有所改善	-14848
有更多的	-14849
构成威胁	-14850
民间社会	-14851
浮动汇率	-14852
的价值观	-14853
能够得到	-14854
莫桑比克	-14855
要归功于	-14856
认真考虑	-14857
这种现象	-14858
重新统一	-14859
金融公司	-14860
阿富汗和	-14861
风险资本	-14862
▁1979	-14863
▁但事实上	-14864
▁尼日利亚	-14865
▁拉丁美洲	-14866
俄罗斯总统	-14867
华盛顿特区	-14868
发生的事件	-14869
很好的例子	-14870
总理默克尔	-14871
新兴国家的	-14872
欧洲和日本	-14873
独一无二的	-14874
的关键因素	-14875
的经济利益	-14876
艰巨的任务	-14877
解释了为何	-14878
▁所有这一切	-14879
▁这就是为何	-14880
中低收入国家	-14881
和其他国家的	-14882
在过去十年中	-14883
merican	-14884
▁在这样的情况下	-14885
▁美国总统奥巴马	-14886
▁International	-14887
BS	-14888
ts	-14889
▁̃	-14890
▁并	-14891
▁照	-14892
一党	-14893
一线	-14894
上所	-14895
不放	-14896
东非	-14897
丽莎	-14898
之情	-14899
事宜	-14900
五国	-14901
人手	-14902
付款	-14903
传输	-14904
做过	-14905
公斤	-14906
决非	-14907
凯利	-14908
加倍	-14909
单身	-14910
单靠	-14911
却又	-14912
原谅	-14913
参拜	-14914
反之	-14915
可控	-14916
地被	-14917
场景	-14918
夺回	-14919
奴役	-14920
季节	-14921
对华	-14922
尚早	-14923
年才	-14924
广为	-14925
广袤	-14926
得过	-14927
德的	-14928
感知	-14929
所受	-14930
所持	-14931
拉宾	-14932
措辞	-14933
支援	-14934
斡旋	-14935
施行	-14936
无几	-14937
早先	-14938
有钱	-14939
机密	-14940
构筑	-14941
格格	-14942
正逢	-14943
泛美	-14944
注射	-14945
涨幅	-14946
滞后	-14947
珍视	-14948
疼痛	-14949
瘟疫	-14950
矿业	-14951
章程	-14952
管治	-14953
索瓦	-14954
紧紧	-14955
纵观	-14956
聚会	-14957
融化	-14958
表述	-14959
说了	-14960
车辆	-14961
邻邦	-14962
都已	-14963
铁幕	-14964
错配	-14965
闲置	-14966
雅图	-14967
餐厅	-14968
高价	-14969
ECB	-14970
Jer	-14971
agh	-14972
ech	-14973
lam	-14974
yri	-14975
▁·&	-14976
▁东盟	-14977
▁军事	-14978
▁更糟	-14979
▁约翰	-14980
▁议会	-14981
▁这笔	-14982
▁难道	-14983
▁首尔	-14984
不具有	-14985
不可行	-14986
不完全	-14987
世纪末	-14988
之以鼻	-14989
也变得	-14990
于美国	-14991
仍有待	-14992
以满足	-14993
以降低	-14994
儿童和	-14995
公信力	-14996
决定着	-14997
决策的	-14998
出台了	-14999
前首相	-15000
北约的	-15001
受到的	-15002
可能将	-15003
后危机	-15004
向公众	-15005
和改善	-15006
和越南	-15007
回答说	-15008
圣战者	-15009
在伦敦	-15010
奥斯本	-15011
妇女的	-15012
实行了	-15013
对任何	-15014
对民主	-15015
将大大	-15016
将欧洲	-15017
少数人	-15018
已经为	-15019
已经使	-15020
席之地	-15021
年中国	-15022
应当是	-15023
当其冲	-15024
得出的	-15025
必要时	-15026
必须从	-15027
想不到	-15028
所遭受	-15029
扩大其	-15030
扩展到	-15031
推出的	-15032
支付的	-15033
改革者	-15034
新生儿	-15035
是那些	-15036
朋友和	-15037
每个月	-15038
比任何	-15039
清晰地	-15040
独立党	-15041
生存的	-15042
的两倍	-15043
的就是	-15044
的收益	-15045
研究院	-15046
立场的	-15047
立陶宛	-15048
签署国	-15049
给自己	-15050
给那些	-15051
维持着	-15052
缓慢的	-15053
而其他	-15054
联合会	-15055
至少从	-15056
让许多	-15057
该政策	-15058
过渡期	-15059
连通性	-15060
部长们	-15061
都会被	-15062
需要有	-15063
非法的	-15064
面前的	-15065
1984	-15066
ange	-15067
▁4%,	-15068
▁今年的	-15069
▁只有在	-15070
▁对美国	-15071
▁美国和	-15072
▁而对于	-15073
一直处于	-15074
不仅没有	-15075
中的地位	-15076
也得到了	-15077
产业政策	-15078
今年夏天	-15079
从未有过	-15080
他自己的	-15081
令人瞩目	-15082
以及一个	-15083
六方会谈	-15084
共同市场	-15085
几个星期	-15086
创纪录的	-15087
包容性的	-15088
医疗补助	-15089
十字路口	-15090
发展战略	-15091
可以继续	-15092
可能引起	-15093
可能认为	-15094
和乌克兰	-15095
商业利益	-15096
嗤之以鼻	-15097
国际关系	-15098
坚定不移	-15099
墨西哥的	-15100
大幅上升	-15101
官僚主义	-15102
实现经济	-15103
对乌克兰	-15104
对欧洲的	-15105
将会继续	-15106
工作的人	-15107
帮助我们	-15108
平价医疗	-15109
成为一种	-15110
我们认为	-15111
所要求的	-15112
提振增长	-15113
是世界上	-15114
更倾向于	-15115
最有效的	-15116
有所改变	-15117
格格不入	-15118
段时间内	-15119
油价下跌	-15120
生产效率	-15121
生机勃勃	-15122
的人民币	-15123
的天然气	-15124
的联合国	-15125
社会动荡	-15126
私营企业	-15127
纳米比亚	-15128
经济顾问	-15129
能够提供	-15130
航空公司	-15131
英国经济	-15132
要大得多	-15133
贸易平衡	-15134
这一状况	-15135
这些数据	-15136
通胀压力	-15137
食品安全	-15138
首当其冲	-15139
▁伊斯兰国	-15140
▁哥伦比亚	-15141
▁对于那些	-15142
▁新兴市场	-15143
▁根据这一	-15144
▁这一过程	-15145
▁这些政策	-15146
▁遗憾的是	-15147
众所周知的	-15148
发生了变化	-15149
可以预见的	-15150
基础设施的	-15151
日益严重的	-15152
毫无意义的	-15153
由此带来的	-15154
的生活方式	-15155
碳氢化合物	-15156
自由主义的	-15157
越来越难以	-15158
面临的挑战	-15159
▁奥巴马政府	-15160
全球经济危机	-15161
解决这些问题	-15162
▁Global	-15163
巴勒斯坦权力机构	-15164
1⁄	-15165
GI	-15166
eg	-15167
—“	-15168
▁梅	-15169
一波	-15170
三项	-15171
下限	-15172
不停	-15173
不经	-15174
之嫌	-15175
人说	-15176
他就	-15177
付钱	-15178
代孕	-15179
代议	-15180
低价	-15181
儒家	-15182
分销	-15183
刑法	-15184
列举	-15185
初创	-15186
利特	-15187
前线	-15188
割裂	-15189
即在	-15190
另有	-15191
囚禁	-15192
地步	-15193
夏季	-15194
外衣	-15195
大亨	-15196
大增	-15197
对俄	-15198
少量	-15199
带到	-15200
干脆	-15201
引渡	-15202
引爆	-15203
惨痛	-15204
执掌	-15205
担负	-15206
拱手	-15207
文字	-15208
时宜	-15209
是用	-15210
曼努	-15211
档案	-15212
梵蒂	-15213
死了	-15214
死的	-15215
每位	-15216
派对	-15217
浓度	-15218
消化	-15219
炫耀	-15220
狼藉	-15221
电气	-15222
白白	-15223
皇帝	-15224
眼看	-15225
破碎	-15226
窒息	-15227
约合	-15228
约国	-15229
绩效	-15230
肥料	-15231
臭氧	-15232
苏尔	-15233
苛刻	-15234
蛋糕	-15235
谅解	-15236
贯穿	-15237
过大	-15238
运河	-15239
还多	-15240
还款	-15241
适度	-15242
遵从	-15243
钻井	-15244
错综	-15245
雅尔	-15246
饲养	-15247
12.	-15248
ign	-15249
off	-15250
▁0.	-15251
▁Ar	-15252
▁Mc	-15253
▁应对	-15254
与经济	-15255
与英国	-15256
个月中	-15257
中所占	-15258
为这一	-15259
也正是	-15260
了一篇	-15261
了他们	-15262
以保证	-15263
企业在	-15264
伊朗在	-15265
但最终	-15266
但由于	-15267
俄国人	-15268
克里斯	-15269
其长期	-15270
前主席	-15271
南奥塞	-15272
即便在	-15273
却未能	-15274
厢情愿	-15275
双方的	-15276
和南非	-15277
和失业	-15278
塞罗那	-15279
增加值	-15280
外交和	-15281
学校和	-15282
对环境	-15283
导致其	-15284
将减少	-15285
小得多	-15286
并鼓励	-15287
必须对	-15288
必须让	-15289
想一想	-15290
愚蠢的	-15291
所隐含	-15292
手段的	-15293
承诺在	-15294
把我们	-15295
抗议者	-15296
拉动型	-15297
掌握在	-15298
排放的	-15299
推动下	-15300
放大了	-15301
斯诺登	-15302
杠杆率	-15303
核聚变	-15304
根本就	-15305
梵蒂冈	-15306
理想的	-15307
痛苦和	-15308
的回应	-15309
的官方	-15310
的对外	-15311
的平衡	-15312
的忧虑	-15313
相形见	-15314
着重于	-15315
研究了	-15316
确实是	-15317
等国的	-15318
继续在	-15319
而且也	-15320
萨达特	-15321
表现在	-15322
袭击了	-15323
设计和	-15324
该报告	-15325
说到底	-15326
这件事	-15327
霍梅尼	-15328
高利率	-15329
1969	-15330
1972	-15331
berg	-15332
land	-15333
▁1%,	-15334
▁Pen	-15335
▁但只要	-15336
▁在他们	-15337
▁无论是	-15338
▁有人说	-15339
▁而由于	-15340
下降趋势	-15341
不可侵犯	-15342
不堪重负	-15343
世纪以来	-15344
也有一些	-15345
交易成本	-15346
他们能够	-15347
令人满意	-15348
优先事项	-15349
但并没有	-15350
做的事情	-15351
偿债能力	-15352
关注的是	-15353
养老基金	-15354
决定因素	-15355
出口增长	-15356
加入其中	-15357
历史记录	-15358
去年夏天	-15359
发展模式	-15360
可以采取	-15361
因为政府	-15362
地理位置	-15363
基什内尔	-15364
大有裨益	-15365
完全不同	-15366
寿命预期	-15367
尼古拉斯	-15368
年代早期	-15369
应该考虑	-15370
愿意接受	-15371
战略利益	-15372
截然相反	-15373
担任总理	-15374
提供更多	-15375
政治学家	-15376
整个经济	-15377
无法接受	-15378
无法避免	-15379
是美国的	-15380
更为重要	-15381
正在改变	-15382
毫不犹豫	-15383
治理结构	-15384
生产率和	-15385
的例子是	-15386
的国家中	-15387
的进一步	-15388
目前已经	-15389
直接影响	-15390
确实如此	-15391
碳排放量	-15392
精神疾病	-15393
经济结构	-15394
网络安全	-15395
网络攻击	-15396
而产生的	-15397
能源政策	-15398
葛兰运动	-15399
角度来看	-15400
解释为何	-15401
贸易逆差	-15402
资金用于	-15403
还有许多	-15404
这么一个	-15405
这些东西	-15406
阿布哈兹	-15407
需要进行	-15408
革命性的	-15409
预算盈余	-15410
Frank	-15411
Trans	-15412
—2011	-15413
▁1992	-15414
▁与此相反	-15415
▁所有人都	-15416
不足为奇了	-15417
世界最大的	-15418
也不太可能	-15419
低收入家庭	-15420
出口导向型	-15421
可持续性的	-15422
后共产主义	-15423
国民收入的	-15424
委员会成员	-15425
应该认识到	-15426
快速增长的	-15427
总统选举中	-15428
成立了一个	-15429
数万亿美元	-15430
新自由主义	-15431
更加可持续	-15432
的一个主要	-15433
的国家利益	-15434
的国际秩序	-15435
的地缘政治	-15436
的社会福利	-15437
的经济改革	-15438
自由主义者	-15439
萨卡什维利	-15440
问题的答案	-15441
两次世界大战	-15442
宏观经济稳定	-15443
巴勒斯坦民族	-15444
拉姆斯菲尔德	-15445
诺贝尔奖得主	-15446
至关重要的作用	-15447
逊尼派和什叶派	-15448
二十世纪九十年代	-15449
HP	-15450
SC	-15451
ek	-15452
▁个	-15453
▁波	-15454
一丝	-15455
不远	-15456
为新	-15457
之大	-15458
产值	-15459
付费	-15460
价比	-15461
储藏	-15462
先生	-15463
全盘	-15464
兼职	-15465
升至	-15466
卓识	-15467
又有	-15468
古怪	-15469
叫停	-15470
后尘	-15471
咄咄	-15472
喇嘛	-15473
团伙	-15474
大到	-15475
字母	-15476
安然	-15477
小农	-15478
尔尼	-15479
尔逊	-15480
尽头	-15481
年一	-15482
并能	-15483
引诱	-15484
当我	-15485
德罗	-15486
我国	-15487
托宾	-15488
扫地	-15489
收场	-15490
敌视	-15491
来者	-15492
杰出	-15493
橄榄	-15494
欣赏	-15495
歪曲	-15496
毁坏	-15497
泥潭	-15498
浪漫	-15499
热浪	-15500
然大	-15501
爱的	-15502
父辈	-15503
犀牛	-15504
瓦鲁	-15505
画面	-15506
留欧	-15507
疲劳	-15508
矿物	-15509
硬币	-15510
神奇	-15511
线上	-15512
终将	-15513
给人	-15514
绝佳	-15515
绿党	-15516
美孚	-15517
胜过	-15518
自决	-15519
自利	-15520
自尊	-15521
被占	-15522
被指	-15523
要点	-15524
谁来	-15525
财力	-15526
资质	-15527
越高	-15528
跟随	-15529
这片	-15530
违规	-15531
逝世	-15532
防治	-15533
附属	-15534
驯服	-15535
110	-15536
16%	-15537
Pro	-15538
ous	-15539
tec	-15540
▁不能	-15541
▁但有	-15542
▁扩大	-15543
▁提高	-15544
▁要么	-15545
与会者	-15546
两年内	-15547
之一的	-15548
之又少	-15549
也只有	-15550
也希望	-15551
了不起	-15552
亚图拉	-15553
从一个	-15554
从前的	-15555
从欧洲	-15556
他本人	-15557
令他们	-15558
以维持	-15559
会如何	-15560
会选择	-15561
准备着	-15562
利用了	-15563
制造的	-15564
又一场	-15565
另一些	-15566
和城市	-15567
和道德	-15568
因此在	-15569
圣保罗	-15570
在那些	-15571
在面临	-15572
复杂化	-15573
复苏的	-15574
如此多	-15575
学院的	-15576
安全性	-15577
官员和	-15578
密特朗	-15579
对印度	-15580
对外国	-15581
将会被	-15582
将迫使	-15583
就成为	-15584
尼古拉	-15585
已有的	-15586
并减少	-15587
徘徊在	-15588
恶化了	-15589
愿意为	-15590
承受着	-15591
支持其	-15592
是政府	-15593
机会的	-15594
条道路	-15595
极低的	-15596
沙特人	-15597
波兰人	-15598
深深地	-15599
然后再	-15600
爆发前	-15601
犯下了	-15602
甚至还	-15603
的动力	-15604
的各种	-15605
的呼声	-15606
的将来	-15607
的巨额	-15608
的快速	-15609
的服务	-15610
的榜样	-15611
的相对	-15612
的竞选	-15613
的背后	-15614
的衰退	-15615
的语言	-15616
的转型	-15617
的进展	-15618
看成是	-15619
称得上	-15620
突出的	-15621
第一批	-15622
第四次	-15623
纪念碑	-15624
给中国	-15625
罗德里	-15626
群体的	-15627
而如果	-15628
而遭受	-15629
被剥夺	-15630
要么是	-15631
这么多	-15632
这句话	-15633
透明的	-15634
1978	-15635
Mark	-15636
▁Rep	-15637
▁pro	-15638
▁但他的	-15639
▁但日本	-15640
▁尽管在	-15641
▁最大的	-15642
▁突尼斯	-15643
▁第一种	-15644
一个重要	-15645
不再需要	-15646
与叙利亚	-15647
二战以来	-15648
从而实现	-15649
伊朗政府	-15650
但大部分	-15651
信用评级	-15652
公众舆论	-15653
分离主义	-15654
制度改革	-15655
劳动者的	-15656
包括那些	-15657
卡钦斯基	-15658
即将到来	-15659
可能破坏	-15660
各式各样	-15661
同样重要	-15662
向全世界	-15663
国家层面	-15664
在利比亚	-15665
在欧洲的	-15666
地区安全	-15667
坚持要求	-15668
家庭消费	-15669
少之又少	-15670
工人阶级	-15671
巴以冲突	-15672
德国联邦	-15673
总统宝座	-15674
我们可能	-15675
所持有的	-15676
支持这一	-15677
政治人物	-15678
新领导人	-15679
无法承受	-15680
无法控制	-15681
更加容易	-15682
有所上升	-15683
权宜之计	-15684
某种形式	-15685
正在成为	-15686
治疗方法	-15687
深度衰退	-15688
漠不关心	-15689
由来已久	-15690
的阿拉伯	-15691
私人消费	-15692
紧缩措施	-15693
结果如何	-15694
统治下的	-15695
而导致的	-15696
财政契约	-15697
这些公司	-15698
远见卓识	-15699
重大变化	-15700
重新建立	-15701
预算平衡	-15702
高失业率	-15703
ilton	-15704
▁为了避免	-15705
▁在过去的	-15706
▁更糟的是	-15707
▁美国经济	-15708
▁这一问题	-15709
一次又一次	-15710
严重的问题	-15711
前所未有地	-15712
在过去十年	-15713
埃克森美孚	-15714
埃博拉病毒	-15715
已经出现了	-15716
最大限度地	-15717
瓦鲁法基斯	-15718
究竟是什么	-15719
系统性风险	-15720
经济的增长	-15721
部分原因是	-15722
全球金融市场	-15723
在这个问题上	-15724
所发生的事情	-15725
vention	-15726
▁Policy	-15727
▁这并不意味着	-15728
政府间气候变化	-15729
诺贝尔奖获得者	-15730
▁Bernanke	-15731
诺贝尔经济学奖获得者	-15732
",	-15733
we	-15734
▁e	-15735
▁二	-15736
▁奥	-15737
▁科	-15738
一向	-15739
一根	-15740
专长	-15741
严密	-15742
之国	-15743
他与	-15744
以期	-15745
任意	-15746
传说	-15747
住在	-15748
住所	-15749
先行	-15750
先驱	-15751
光诚	-15752
冰盖	-15753
决意	-15754
刑警	-15755
刺杀	-15756
剂量	-15757
卡车	-15758
印证	-15759
去做	-15760
和最	-15761
哈塔	-15762
圈子	-15763
地是	-15764
塔吉	-15765
大局	-15766
大片	-15767
大行	-15768
媒介	-15769
孤儿	-15770
学到	-15771
安纳	-15772
将向	-15773
尖端	-15774
干净	-15775
并于	-15776
引力	-15777
微型	-15778
心里	-15779
性格	-15780
所占	-15781
才有	-15782
扫清	-15783
捉摸	-15784
排挤	-15785
摄入	-15786
攸关	-15787
月度	-15788
木材	-15789
杜绝	-15790
流域	-15791
液压	-15792
温暖	-15793
点的	-15794
特纳	-15795
特网	-15796
狂欢	-15797
独有	-15798
珍珠	-15799
的书	-15800
的女	-15801
的长	-15802
着实	-15803
研讨	-15804
私募	-15805
而将	-15806
自拔	-15807
艾森	-15808
茂德	-15809
蒂亚	-15810
解救	-15811
警觉	-15812
识字	-15813
贪污	-15814
辍学	-15815
逾越	-15816
邻近	-15817
都比	-15818
采伐	-15819
问鼎	-15820
阴暗	-15821
阿赫	-15822
难怪	-15823
面值	-15824
餐馆	-15825
驾驭	-15826
麦加	-15827
,12	-15828
10—	-15829
14%	-15830
8%,	-15831
CDS	-15832
fer	-15833
▁1.	-15834
▁Pe	-15835
▁但该	-15836
▁媒体	-15837
▁希望	-15838
▁此时	-15839
▁泰国	-15840
▁谈判	-15841
▁资本	-15842
▁这让	-15843
下一场	-15844
不及待	-15845
不如说	-15846
不容易	-15847
不结盟	-15848
中占据	-15849
之不理	-15850
也很难	-15851
人员和	-15852
今后的	-15853
以及为	-15854
以时日	-15855
以阻止	-15856
会削弱	-15857
伯利亚	-15858
似乎对	-15859
公布了	-15860
再培训	-15861
准确的	-15862
反对票	-15863
古兰经	-15864
句名言	-15865
吸引着	-15866
和人权	-15867
哈维尔	-15868
因为对	-15869
国内和	-15870
圣彼得	-15871
在上述	-15872
地指出	-15873
大手笔	-15874
姆斯特	-15875
它们都	-15876
富裕的	-15877
将影响	-15878
将更加	-15879
尤科斯	-15880
尼赫鲁	-15881
尽管它	-15882
峰会的	-15883
巴拿马	-15884
平等性	-15885
并允许	-15886
并由此	-15887
性价比	-15888
戏剧性	-15889
我们是	-15890
所表明	-15891
所要求	-15892
批评家	-15893
承包商	-15894
报告说	-15895
指的是	-15896
收益的	-15897
政府会	-15898
政策上	-15899
是十分	-15900
普什图	-15901
更高效	-15902
最近对	-15903
机会和	-15904
来证明	-15905
棱两可	-15906
欧元和	-15907
正准备	-15908
正在为	-15909
泡沫的	-15910
活力和	-15911
的媒体	-15912
的对抗	-15913
的重点	-15914
直接的	-15915
相当的	-15916
科学和	-15917
科学界	-15918
突然间	-15919
罕见的	-15920
罪行的	-15921
股票和	-15922
背负着	-15923
能成为	-15924
被禁止	-15925
让国家	-15926
话语权	-15927
趣的是	-15928
这样说	-15929
那么他	-15930
都将是	-15931
阿联酋	-15932
陈光诚	-15933
陷入到	-15934
韩国人	-15935
驱逐出	-15936
8000	-15937
cker	-15938
▁事实是	-15939
▁但今天	-15940
▁匈牙利	-15941
▁在整个	-15942
▁在日本	-15943
▁如果要	-15944
▁尽管有	-15945
▁我希望	-15946
▁第二种	-15947
▁而这种	-15948
▁这一切	-15949
一臂之力	-15950
不可否认	-15951
不断加剧	-15952
严重不足	-15953
为自己的	-15954
也可以在	-15955
也适用于	-15956
产出增长	-15957
人类活动	-15958
仍在继续	-15959
令人吃惊	-15960
克里斯蒂	-15961
全球化和	-15962
关税壁垒	-15963
冷战结束	-15964
创造条件	-15965
危机前的	-15966
叛乱分子	-15967
因果关系	-15968
国际经济	-15969
在我们的	-15970
外部冲击	-15971
大马士革	-15972
如何处理	-15973
实现和平	-15974
实际工资	-15975
就业增长	-15976
所拥有的	-15977
政治力量	-15978
政治改革	-15979
数字技术	-15980
方方面面	-15981
方面起到	-15982
无法确定	-15983
最佳实践	-15984
最近一次	-15985
有时甚至	-15986
朝鲜政权	-15987
欧洲工程	-15988
欧洲需要	-15989
正在走向	-15990
民意测验	-15991
民间团体	-15992
注意力从	-15993
消除贫困	-15994
爱尔兰和	-15995
的背景下	-15996
私人债务	-15997
私人资本	-15998
移民政策	-15999
经济部门	-16000
继续进行	-16001
置之不理	-16002
美国官员	-16003
美国必须	-16004
而这正是	-16005
自由裁量	-16006
要求他们	-16007
观点认为	-16008
货币供应	-16009
货币扩张	-16010
贸易部门	-16011
这个目标	-16012
这些项目	-16013
迫不及待	-16014
透明度和	-16015
金融产品	-16016
金融工具	-16017
银行账户	-16018
,2009	-16019
6,000	-16020
nited	-16021
▁1998	-16022
▁有人认为	-16023
▁特拉维夫	-16024
严峻的挑战	-16025
二十国集团	-16026
仍然是一个	-16027
从而进一步	-16028
其他地区的	-16029
周年纪念日	-16030
已经成为了	-16031
德国和法国	-16032
特别是如果	-16033
特朗普总统	-16034
经济政策的	-16035
而与此同时	-16036
达成的协议	-16037
ichard	-16038
伊斯兰共和国	-16039
国务卿希拉里	-16040
民粹主义政党	-16041
日本首相安倍晋三	-16042
▁具有讽刺意味的是	-16043
中国国家主席习近平	-16044
54	-16045
CT	-16046
▁́	-16047
一窥	-16048
不丹	-16049
不开	-16050
之声	-16051
争斗	-16052
代谢	-16053
俘虏	-16054
偏袒	-16055
先科	-16056
兼容	-16057
几家	-16058
出面	-16059
利茨	-16060
到位	-16061
加里	-16062
单单	-16063
印巴	-16064
参照	-16065
双赢	-16066
可达	-16067
告知	-16068
哥拉	-16069
回复	-16070
回想	-16071
国营	-16072
多国	-16073
好好	-16074
察觉	-16075
导师	-16076
尚不	-16077
已知	-16078
年长	-16079
幻灭	-16080
幼儿	-16081
开销	-16082
情境	-16083
拉拉	-16084
拉迪	-16085
教导	-16086
文本	-16087
文献	-16088
斯库	-16089
朝向	-16090
期刊	-16091
未被	-16092
次数	-16093
水源	-16094
汇集	-16095
消防	-16096
淡化	-16097
火上	-16098
灭亡	-16099
犯有	-16100
相悖	-16101
看清	-16102
税的	-16103
精诚	-16104
约占	-16105
联络	-16106
荒唐	-16107
萌芽	-16108
虚构	-16109
血统	-16110
要多	-16111
贝巴	-16112
贬低	-16113
赛尔	-16114
赤贫	-16115
起步	-16116
酋长	-16117
重叠	-16118
铲除	-16119
领海	-16120
颓势	-16121
飞速	-16122
高地	-16123
高调	-16124
140	-16125
1⁄2	-16126
Ken	-16127
act	-16128
ini	-16129
ire	-16130
▁50	-16131
▁一般	-16132
▁无法	-16133
▁特别	-16134
▁短期	-16135
▁简单	-16136
▁米兰	-16137
▁那时	-16138
三角洲	-16139
不公正	-16140
丰厚的	-16141
也认为	-16142
了下来	-16143
亿美金	-16144
以使其	-16145
以来最	-16146
伐利亚	-16147
会怎样	-16148
会破坏	-16149
但显然	-16150
倡导者	-16151
僵化的	-16152
全人类	-16153
兴奋剂	-16154
军事化	-16155
决定在	-16156
分裂为	-16157
分裂的	-16158
到现在	-16159
制造出	-16160
南部的	-16161
即将在	-16162
却并未	-16163
只有当	-16164
可见的	-16165
和他们	-16166
和公民	-16167
和改革	-16168
和组织	-16169
和财政	-16170
国家对	-16171
国民党	-16172
图书馆	-16173
在这场	-16174
大数据	-16175
如是说	-16176
它们也	-16177
对许多	-16178
工资税	-16179
平均为	-16180
并非是	-16181
应该以	-16182
当然是	-16183
惩罚性	-16184
意思是	-16185
战争后	-16186
所接受	-16187
捐助国	-16188
放在了	-16189
政府为	-16190
救世主	-16191
数千名	-16192
无政府	-16193
无能为	-16194
月份的	-16195
期间的	-16196
来满足	-16197
来看看	-16198
杰出的	-16199
核安全	-16200
汽车和	-16201
现在正	-16202
的共识	-16203
的反抗	-16204
的姿态	-16205
的宣传	-16206
的崩溃	-16207
的来源	-16208
的梦想	-16209
的研发	-16210
的经历	-16211
的补贴	-16212
相当长	-16213
短暂的	-16214
破坏力	-16215
竞争中	-16216
第二天	-16217
纽约市	-16218
给出的	-16219
者提供	-16220
而增加	-16221
能提供	-16222
艺术品	-16223
行动者	-16224
认为它	-16225
讨论了	-16226
记者的	-16227
论文中	-16228
评论员	-16229
试图用	-16230
贷款和	-16231
足以让	-16232
这将是	-16233
高级别	-16234
鼓励了	-16235
Alan	-16236
eral	-16237
ount	-16238
▁Car	-16239
▁The	-16240
▁几年前	-16241
▁在德国	-16242
▁芝加哥	-16243
▁这导致	-16244
▁进一步	-16245
三中全会	-16246
不会发生	-16247
不可预测	-16248
严重后果	-16249
中国崛起	-16250
人的利益	-16251
假以时日	-16252
停火协议	-16253
储蓄过剩	-16254
减税政策	-16255
受过良好	-16256
可以忽略	-16257
可能发生	-16258
司法体系	-16259
司法系统	-16260
和特朗普	-16261
哈马斯和	-16262
商业投资	-16263
因为中国	-16264
国际储备	-16265
土地使用	-16266
在中国的	-16267
在墨西哥	-16268
基准利率	-16269
基本权利	-16270
外部势力	-16271
安全保障	-16272
实用主义	-16273
密切相关	-16274
对此表示	-16275
将人民币	-16276
尚不清楚	-16277
工资水平	-16278
已经变得	-16279
市场上的	-16280
帮助他们	-16281
思维方式	-16282
总人口的	-16283
慈善机构	-16284
所领导的	-16285
才能确保	-16286
政治压力	-16287
暂时性的	-16288
更严格的	-16289
未来几年	-16290
本世纪末	-16291
框架公约	-16292
模棱两可	-16293
民主体制	-16294
民选政府	-16295
没有能力	-16296
的时间里	-16297
石油收入	-16298
税收政策	-16299
等方面的	-16300
美国政治	-16301
而是为了	-16302
要求我们	-16303
贸易政策	-16304
这一角色	-16305
都能获得	-16306
重新回到	-16307
银行部门	-16308
陷入瘫痪	-16309
革命卫队	-16310
▁1990	-16311
▁1997	-16312
▁世界经济	-16313
▁有趣的是	-16314
▁特别是在	-16315
▁这一趋势	-16316
中东和北非	-16317
伊斯兰教的	-16318
伊朗领导人	-16319
华盛顿邮报	-16320
可能会导致	-16321
欧洲国家的	-16322
民族主义和	-16323
的世界经济	-16324
雄心勃勃的	-16325
领导的政府	-16326
▁Fried	-16327
不平等性加剧	-16328
并不令人奇怪	-16329
阿拉伯国家的	-16330
reement	-16331
伊拉克和叙利亚	-16332
国会预算办公室	-16333
itiative	-16334
▁Security	-16335
AC	-16336
eh	-16337
fr	-16338
▁因	-16339
▁萨	-16340
▁达	-16341
下而	-16342
不屑	-16343
不然	-16344
业已	-16345
之高	-16346
从不	-16347
代言	-16348
传导	-16349
但有	-16350
先知	-16351
入境	-16352
分权	-16353
创办	-16354
助澜	-16355
参观	-16356
友谊	-16357
反叛	-16358
反感	-16359
可是	-16360
名副	-16361
和马	-16362
喜剧	-16363
在前	-16364
在最	-16365
坏账	-16366
坦率	-16367
增幅	-16368
士气	-16369
多余	-16370
天鹅	-16371
奋力	-16372
契机	-16373
子弹	-16374
审讯	-16375
家乡	-16376
尸体	-16377
尼察	-16378
已将	-16379
巴菲	-16380
布兰	-16381
幕僚	-16382
忏悔	-16383
怀旧	-16384
战事	-16385
打压	-16386
把戏	-16387
抚养	-16388
抛售	-16389
抬高	-16390
推波	-16391
收成	-16392
无形	-16393
旦旦	-16394
明晰	-16395
易于	-16396
是指	-16397
有形	-16398
查理	-16399
水泥	-16400
沙拉	-16401
洗钱	-16402
浇油	-16403
渐行	-16404
热量	-16405
王室	-16406
痕迹	-16407
直观	-16408
看不	-16409
礼貌	-16410
票数	-16411
科菲	-16412
第九	-16413
等价	-16414
组装	-16415
美分	-16416
聆听	-16417
胃口	-16418
脱颖	-16419
臃肿	-16420
自负	-16421
莱恩	-16422
行星	-16423
西尔	-16424
诱导	-16425
请愿	-16426
谷物	-16427
转嫁	-16428
这给	-16429
邦的	-16430
邻为	-16431
错过	-16432
长大	-16433
阵痛	-16434
首选	-16435
高压	-16436
高薪	-16437
黑手	-16438
,18	-16439
8%。	-16440
eld	-16441
iam	-16442
ive	-16443
ren	-16444
▁宗教	-16445
▁政策	-16446
▁更有	-16447
▁最初	-16448
▁每个	-16449
一连串	-16450
不但要	-16451
不自由	-16452
与朝鲜	-16453
两方面	-16454
严肃的	-16455
个性化	-16456
中世纪	-16457
中汲取	-16458
中没有	-16459
之下的	-16460
之处是	-16461
也一样	-16462
他可以	-16463
以减少	-16464
以后的	-16465
低效的	-16466
像过去	-16467
公布的	-16468
几何时	-16469
利润的	-16470
制度化	-16471
副总理	-16472
包括我	-16473
区域内	-16474
卡梅隆	-16475
参谋长	-16476
又开始	-16477
发病率	-16478
发起的	-16479
各地的	-16480
和亚洲	-16481
和地方	-16482
和我们	-16483
和机构	-16484
和瑞典	-16485
和生物	-16486
在决定	-16487
在财政	-16488
基本的	-16489
境内的	-16490
大错特	-16491
它不会	-16492
安哥拉	-16493
将持续	-16494
就业的	-16495
就越大	-16496
工业园	-16497
应该把	-16498
忘记了	-16499
总数的	-16500
恐怖的	-16501
意见的	-16502
或间接	-16503
打开了	-16504
描述的	-16505
来换取	-16506
来获得	-16507
每一位	-16508
法兰西	-16509
消除了	-16510
渐行渐	-16511
现阶段	-16512
的公开	-16513
的农业	-16514
的双重	-16515
的年度	-16516
的敌人	-16517
的病人	-16518
的约束	-16519
破产法	-16520
确认了	-16521
种族和	-16522
站在了	-16523
经常会	-16524
美关系	-16525
而只是	-16526
而来的	-16527
被问及	-16528
见证了	-16529
让这一	-16530
议会的	-16531
费舍尔	-16532
近几年	-16533
追求的	-16534
退休者	-16535
都有着	-16536
难民的	-16537
高失业	-16538
1944	-16539
2100	-16540
IPCC	-16541
▁Ind	-16542
▁amp	-16543
▁但也有	-16544
▁但没有	-16545
▁但目前	-16546
▁但这是	-16547
▁卡梅伦	-16548
▁在希腊	-16549
▁在法国	-16550
▁斯坦福	-16551
▁日内瓦	-16552
▁鲁哈尼	-16553
一个问题	-16554
一直保持	-16555
万亿欧元	-16556
上述目标	-16557
不再能够	-16558
东乌克兰	-16559
两国关系	-16560
中东国家	-16561
主权债券	-16562
二十年的	-16563
人口数量	-16564
从而降低	-16565
价值观和	-16566
价格下跌	-16567
但他们的	-16568
但同时也	-16569
先发制人	-16570
公共开支	-16571
公司治理	-16572
公立学校	-16573
其成员国	-16574
创造新的	-16575
刺激政策	-16576
可以理解	-16577
名副其实	-16578
和决策者	-16579
因为没有	-16580
在历史上	-16581
在土耳其	-16582
增长公约	-16583
大部分是	-16584
对伊拉克	-16585
就是这样	-16586
已经通过	-16587
年轻一代	-16588
并不十分	-16589
形成鲜明	-16590
很多人都	-16591
必须确保	-16592
必须采取	-16593
意想不到	-16594
抓住机会	-16595
推波助澜	-16596
收效甚微	-16597
政府需要	-16598
新闻媒体	-16599
新闻自由	-16600
无法提供	-16601
暴力事件	-16602
欧洲安全	-16603
正在崛起	-16604
法律框架	-16605
流动性和	-16606
火上浇油	-16607
盈利能力	-16608
监管者的	-16609
税收减免	-16610
穆斯林的	-16611
粮食生产	-16612
紧张局面	-16613
终于开始	-16614
经济学的	-16615
美国需要	-16616
翻了一番	-16617
联合行动	-16618
自给自足	-16619
证据证明	-16620
负担得起	-16621
贷款利率	-16622
都出现了	-16623
首要任务	-16624
▁中央银行	-16625
▁重要的是	-16626
三分之一的	-16627
不断增加的	-16628
中国和南非	-16629
主要集中在	-16630
之所以如此	-16631
加入欧元区	-16632
在这方面的	-16633
布什政府的	-16634
斯蒂格利茨	-16635
是因为他们	-16636
最为重要的	-16637
有可能导致	-16638
欧盟国家的	-16639
正确的方向	-16640
法国和荷兰	-16641
的最重要的	-16642
经济学家的	-16643
自己的利益	-16644
这个问题的	-16645
迫切需要的	-16646
金融稳定性	-16647
首相卡梅伦	-16648
以前所未有的	-16649
刺激经济增长	-16650
是不可避免的	-16651
气候变化问题	-16652
的新兴经济体	-16653
Richard	-16654
五大常任理事国	-16655
宽松的货币政策	-16656
艾哈迈迪内贾德	-16657
麦肯锡全球研究所	-16658
59	-16659
TM	-16660
co	-16661
gy	-16662
oy	-16663
▁又	-16664
▁水	-16665
上游	-16666
下游	-16667
举步	-16668
之火	-16669
之谜	-16670
乘客	-16671
也令	-16672
了与	-16673
仰仗	-16674
伦堡	-16675
倒向	-16676
借债	-16677
其道	-16678
农地	-16679
冲浪	-16680
助理	-16681
卡因	-16682
去除	-16683
受众	-16684
告别	-16685
在必	-16686
坚称	-16687
大受	-16688
奉献	-16689
安娜	-16690
定时	-16691
实物	-16692
容纳	-16693
寄望	-16694
将此	-16695
居然	-16696
并从	-16697
并用	-16698
归为	-16699
影像	-16700
得知	-16701
心怀	-16702
总会	-16703
意地	-16704
或将	-16705
截了	-16706
所致	-16707
指示	-16708
挺身	-16709
损伤	-16710
插手	-16711
摊子	-16712
散布	-16713
斯亚	-16714
斯登	-16715
时光	-16716
朝圣	-16717
条例	-16718
某人	-16719
标榜	-16720
核查	-16721
模拟	-16722
死后	-16723
死胡	-16724
流量	-16725
浮出	-16726
涉嫌	-16727
深信	-16728
珊瑚	-16729
畅销	-16730
看重	-16731
知晓	-16732
石头	-16733
祈祷	-16734
离任	-16735
离谱	-16736
空想	-16737
窘境	-16738
等量	-16739
粉碎	-16740
纷争	-16741
联军	-16742
脱盟	-16743
获奖	-16744
蔬菜	-16745
视同	-16746
误判	-16747
诺基	-16748
走强	-16749
越长	-16750
转让	-16751
还给	-16752
这块	-16753
这股	-16754
退缩	-16755
量子	-16756
非凡	-16757
面貌	-16758
默默	-16759
85%	-16760
III	-16761
les	-16762
ory	-16763
out	-16764
ram	-16765
”),	-16766
▁与之	-16767
▁减少	-16768
▁加强	-16769
▁发展	-16770
▁国内	-16771
▁早在	-16772
▁明年	-16773
▁此类	-16774
▁网络	-16775
▁苏联	-16776
▁身为	-16777
一个在	-16778
一定要	-16779
不情愿	-16780
与德国	-16781
与社会	-16782
与过去	-16783
世纪前	-16784
之后才	-16785
乐观的	-16786
也表明	-16787
也逐渐	-16788
他们还	-16789
以牺牲	-16790
低效率	-16791
其原因	-16792
其政府	-16793
减少到	-16794
制度下	-16795
制约了	-16796
前提是	-16797
加速了	-16798
升高的	-16799
却似乎	-16800
历史和	-16801
咄咄逼	-16802
和提高	-16803
和能力	-16804
和荷兰	-16805
哈塔米	-16806
国际上	-16807
基础是	-16808
奥尔良	-16809
女性在	-16810
婴儿潮	-16811
安德鲁	-16812
完全的	-16813
尤先科	-16814
局势的	-16815
年代和	-16816
并实现	-16817
并成为	-16818
彰显出	-16819
得出了	-16820
必须被	-16821
怎么样	-16822
愤怒的	-16823
我们又	-16824
所提供	-16825
所显示	-16826
执政者	-16827
拖累了	-16828
挑战和	-16829
是政治	-16830
有信心	-16831
有损于	-16832
有足够	-16833
来作为	-16834
核威胁	-16835
欢迎的	-16836
活动中	-16837
清晰的	-16838
的下跌	-16839
的利润	-16840
的动作	-16841
的早期	-16842
的概率	-16843
的死亡	-16844
的渴望	-16845
的终结	-16846
的自我	-16847
的行业	-16848
直截了	-16849
看一看	-16850
第四个	-16851
签订的	-16852
综合症	-16853
自己和	-16854
自己是	-16855
艾森豪	-16856
补贴和	-16857
认真地	-16858
设备和	-16859
负责人	-16860
还要高	-16861
进出口	-16862
远没有	-16863
退出了	-16864
都希望	-16865
都支持	-16866
都未能	-16867
集中营	-16868
霸权的	-16869
非营利	-16870
1949	-16871
70%。	-16872
9/11	-16873
Alex	-16874
cher	-16875
ific	-16876
usti	-16877
▁-2.	-16878
▁伊朗的	-16879
▁但是这	-16880
▁印度的	-16881
▁对中国	-16882
▁更好的	-16883
▁阿巴斯	-16884
两国政府	-16885
乌克兰人	-16886
他们没有	-16887
令人不快	-16888
以及欧盟	-16889
以此作为	-16890
价值观的	-16891
伊朗总统	-16892
全球合作	-16893
全球气温	-16894
全面禁止	-16895
关键性的	-16896
决策者和	-16897
决策过程	-16898
几十年前	-16899
出了问题	-16900
创业企业	-16901
协调一致	-16902
南奥塞梯	-16903
历史上最	-16904
压倒性的	-16905
可以减少	-16906
可以用于	-16907
圣彼得堡	-16908
增长引擎	-16909
大幅贬值	-16910
奇怪的是	-16911
如何影响	-16912
姆斯特丹	-16913
将他们的	-16914
尤为重要	-16915
年以来的	-16916
并不仅仅	-16917
延续下去	-16918
开始实施	-16919
弗朗索瓦	-16920
必须找到	-16921
意义深远	-16922
意义重大	-16923
挑战在于	-16924
政府通过	-16925
政治支持	-16926
政治问题	-16927
斯亚贝巴	-16928
日益严重	-16929
是可能的	-16930
正常运转	-16931
民主党的	-16932
民主转型	-16933
民营企业	-16934
消费增长	-16935
现代社会	-16936
的例子中	-16937
的条件下	-16938
的观点是	-16939
的领导层	-16940
相当长的	-16941
确切地说	-16942
积极影响	-16943
能源需求	-16944
菲尔普斯	-16945
解放广场	-16946
计划中的	-16947
许多人都	-16948
财富效应	-16949
贫富差距	-16950
赤字削减	-16951
这些数字	-16952
通信技术	-16953
遥不可及	-16954
重新审视	-16955
重要影响	-16956
银行业务	-16957
陷入混乱	-16958
需要通过	-16959
非常相似	-16960
黎巴嫩和	-16961
Larry	-16962
—2013	-16963
▁不管怎样	-16964
▁圣地亚哥	-16965
▁如果政府	-16966
▁直到最近	-16967
▁结果导致	-16968
与巴勒斯坦	-16969
任何形式的	-16970
全球供应链	-16971
北约成员国	-16972
同样的问题	-16973
和安全政策	-16974
岁以下儿童	-16975
市场经济的	-16976
总理温家宝	-16977
我们不应该	-16978
拥有巨大的	-16979
数以百万计	-16980
欧元区外围	-16981
特别是美国	-16982
环保主义者	-16983
的人均收入	-16984
联合国宪章	-16985
艰巨的挑战	-16986
解释为什么	-16987
运转良好的	-16988
这两个国家	-16989
这就意味着	-16990
金融和经济	-16991
10,000	-16992
50,000	-16993
▁Group	-16994
▁这就意味着	-16995
中国和俄罗斯	-16996
低收入国家的	-16997
劳动力参与率	-16998
法国和意大利	-16999
金融稳定基金	-17000
olution	-17001
美国总统巴拉克	-17002
▁Friedman	-17003
联合国秘书长潘基文	-17004
▁Investment	-17005
):	-17006
Ad	-17007
DS	-17008
hm	-17009
ru	-17010
▁–	-17011
▁莫	-17012
▁贝	-17013
、“	-17014
一击	-17015
一刀	-17016
一团	-17017
一堂	-17018
三名	-17019
上月	-17020
世代	-17021
习俗	-17022
五角	-17023
人与	-17024
人皆	-17025
他被	-17026
传媒	-17027
伦比	-17028
供水	-17029
侵袭	-17030
八个	-17031
六年	-17032
冬天	-17033
冰山	-17034
刑讯	-17035
划算	-17036
前列	-17037
剧增	-17038
十六	-17039
卡路	-17040
即时	-17041
厘清	-17042
又被	-17043
反射	-17044
受控	-17045
合伙	-17046
向上	-17047
向着	-17048
告诫	-17049
和以	-17050
和被	-17051
商讨	-17052
地为	-17053
声名	-17054
大米	-17055
天皇	-17056
妖魔	-17057
学界	-17058
定制	-17059
定论	-17060
寄生	-17061
小怪	-17062
尔摩	-17063
尘埃	-17064
尼拉	-17065
岛国	-17066
巨变	-17067
开会	-17068
开办	-17069
忘了	-17070
惧怕	-17071
憧憬	-17072
成因	-17073
或被	-17074
房贷	-17075
所处	-17076
执照	-17077
抛开	-17078
捕鱼	-17079
撼动	-17080
放到	-17081
救市	-17082
散播	-17083
斯尼	-17084
新疆	-17085
日在	-17086
时尚	-17087
时才	-17088
最先	-17089
本意	-17090
某项	-17091
桑迪	-17092
正轨	-17093
母国	-17094
比这	-17095
津贴	-17096
滥调	-17097
版图	-17098
玩笑	-17099
病原	-17100
的风	-17101
眼球	-17102
示范	-17103
穆兄	-17104
穿着	-17105
第七	-17106
签名	-17107
维斯	-17108
老师	-17109
肥沃	-17110
肩负	-17111
蒙羞	-17112
西奥	-17113
誓言	-17114
议事	-17115
诸国	-17116
诺夫	-17117
课以	-17118
调低	-17119
赫勒	-17120
走廊	-17121
路德	-17122
身亡	-17123
近在	-17124
遴选	-17125
重量	-17126
防空	-17127
降幅	-17128
隐蔽	-17129
颗粒	-17130
鲁兹	-17131
麦当	-17132
麻风	-17133
齐兹	-17134
2/3	-17135
IBM	-17136
Sus	-17137
duc	-17138
lah	-17139
▁Kh	-17140
▁乔治	-17141
▁什么	-17142
▁农业	-17143
▁印尼	-17144
▁妇女	-17145
▁官方	-17146
▁相对	-17147
▁紧缩	-17148
▁缺乏	-17149
▁雅典	-17150
不完美	-17151
不能在	-17152
不至于	-17153
了政治	-17154
事件后	-17155
交易员	-17156
人口中	-17157
价值和	-17158
会变得	-17159
但至少	-17160
但这个	-17161
使用者	-17162
保证了	-17163
信任的	-17164
公开的	-17165
共有的	-17166
军事上	-17167
劳动法	-17168
医学院	-17169
发挥着	-17170
可能有	-17171
可预防	-17172
和右翼	-17173
因此也	-17174
团体的	-17175
培训和	-17176
外部性	-17177
大地震	-17178
大学和	-17179
好处的	-17180
好得多	-17181
如果要	-17182
完善的	-17183
实质上	-17184
对德国	-17185
对社会	-17186
对美元	-17187
对自身	-17188
对金融	-17189
将利率	-17190
将变得	-17191
工作时	-17192
希望和	-17193
希望能	-17194
年增长	-17195
年年中	-17196
并利用	-17197
并承诺	-17198
并提供	-17199
并支持	-17200
强国的	-17201
当选为	-17202
志愿者	-17203
总书记	-17204
总是会	-17205
成立于	-17206
提出过	-17207
提振了	-17208
政治局	-17209
敏感性	-17210
时间表	-17211
最主要	-17212
有意识	-17213
有时会	-17214
来防止	-17215
核材料	-17216
武力的	-17217
死胡同	-17218
每一项	-17219
法律与	-17220
注定会	-17221
消费量	-17222
满足于	-17223
激烈的	-17224
烂摊子	-17225
爆发时	-17226
由一个	-17227
百分之	-17228
的不良	-17229
的反腐	-17230
的审判	-17231
的强大	-17232
的担心	-17233
的治疗	-17234
的现状	-17235
的答案	-17236
的药物	-17237
的裁决	-17238
的过去	-17239
的阴影	-17240
目前已	-17241
第三种	-17242
繁荣期	-17243
结合了	-17244
继承人	-17245
美国前	-17246
而印度	-17247
能保证	-17248
能够从	-17249
能成功	-17250
自杀式	-17251
衡量的	-17252
衰退中	-17253
被看作	-17254
誓旦旦	-17255
计划将	-17256
让那些	-17257
许可证	-17258
设计师	-17259
证明其	-17260
该行业	-17261
该项目	-17262
责任和	-17263
还是有	-17264
这也许	-17265
那么就	-17266
邻为壑	-17267
零排放	-17268
领土上	-17269
2019	-17270
25%,	-17271
9·11	-17272
▁1%。	-17273
▁6%。	-17274
▁Rev	-17275
▁但印度	-17276
▁但现实	-17277
▁在没有	-17278
一定程度	-17279
上市公司	-17280
不可能在	-17281
严重影响	-17282
中美关系	-17283
主要问题	-17284
也可能会	-17285
人权宣言	-17286
人民币的	-17287
他们来说	-17288
伊朗政权	-17289
优先考虑	-17290
但却没有	-17291
但它们的	-17292
保持不变	-17293
候选人都	-17294
兑现承诺	-17295
入主白宫	-17296
决策者们	-17297
利比亚的	-17298
卢卡申科	-17299
去监管化	-17300
发达世界	-17301
可以选择	-17302
可能产生	-17303
可能最终	-17304
和平解决	-17305
国内政策	-17306
国际足联	-17307
坚决反对	-17308
外国公司	-17309
多元主义	-17310
大幅减少	-17311
大惊小怪	-17312
奥巴马在	-17313
宪法条约	-17314
就会发现	-17315
希望通过	-17316
往常一样	-17317
必须承认	-17318
快速变化	-17319
情报部门	-17320
感到惊讶	-17321
成为欧洲	-17322
我们看到	-17323
我们这些	-17324
或者其他	-17325
战争期间	-17326
才能获得	-17327
托克维尔	-17328
持续时间	-17329
改变现状	-17330
是一回事	-17331
是否可以	-17332
最强大的	-17333
有所作为	-17334
根本问题	-17335
欧安组织	-17336
正确方向	-17337
民族身份	-17338
汇率政策	-17339
深远影响	-17340
渐行渐远	-17341
激进主义	-17342
特朗普和	-17343
现在应该	-17344
矛头指向	-17345
立法机关	-17346
经济实力	-17347
维持现状	-17348
能够帮助	-17349
至少部分	-17350
融资成本	-17351
衡量标准	-17352
要求政府	-17353
要求美国	-17354
视为一个	-17355
解放出来	-17356
证据显示	-17357
象征意义	-17358
货币供给	-17359
这一模式	-17360
这些企业	-17361
这些投资	-17362
进行改革	-17363
金融援助	-17364
长期存在	-17365
长期来看	-17366
陷入麻烦	-17367
领土完整	-17368
领导力的	-17369
领导者的	-17370
,2004	-17371
World	-17372
▁Sand	-17373
▁事实证明	-17374
▁在欧元区	-17375
不受欢迎的	-17376
卫生工作者	-17377
发生了改变	-17378
存在巨大的	-17379
对经济增长	-17380
寻求庇护者	-17381
市场参与者	-17382
并不是因为	-17383
形成了一个	-17384
文化大革命	-17385
有可能成为	-17386
留在欧元区	-17387
的民主制度	-17388
盖茨基金会	-17389
管理委员会	-17390
经济的发展	-17391
联邦调查局	-17392
自上而下的	-17393
许多国家的	-17394
还为时过早	-17395
这个问题上	-17396
问题的根源	-17397
Marine	-17398
▁Found	-17399
▁但与此同时	-17400
▁巴勒斯坦人	-17401
乌兹别克斯坦	-17402
亚的斯亚贝巴	-17403
和其他地区的	-17404
固定资产投资	-17405
本月早些时候	-17406
的发展中国家	-17407
经济学家认为	-17408
长期以来一直	-17409
印度和巴基斯坦	-17410
货币和财政政策	-17411
4,	-17412
55	-17413
Am	-17414
En	-17415
RE	-17416
▁帕	-17417
▁弗	-17418
一本	-17419
一类	-17420
下面	-17421
不均	-17422
专员	-17423
丰裕	-17424
丹佛	-17425
之列	-17426
乌斯	-17427
乙醇	-17428
交出	-17429
交往	-17430
产妇	-17431
人将	-17432
人意	-17433
伪装	-17434
借入	-17435
冲销	-17436
决赛	-17437
冷酷	-17438
几大	-17439
前后	-17440
加权	-17441
卡斯	-17442
反响	-17443
发作	-17444
取向	-17445
受助	-17446
听从	-17447
和海	-17448
国情	-17449
复原	-17450
多位	-17451
天花	-17452
好坏	-17453
妄想	-17454
宁可	-17455
富于	-17456
将令	-17457
尾声	-17458
山区	-17459
岛上	-17460
常谈	-17461
得了	-17462
得很	-17463
德华	-17464
悄然	-17465
或不	-17466
投给	-17467
抹黑	-17468
捆绑	-17469
援手	-17470
斗士	-17471
暴徒	-17472
月和	-17473
有个	-17474
水电	-17475
没法	-17476
洛斯	-17477
渡过	-17478
漠视	-17479
濒危	-17480
猩猩	-17481
玷污	-17482
甩卖	-17483
病态	-17484
的手	-17485
皇室	-17486
皮肤	-17487
盟军	-17488
禁飞	-17489
私利	-17490
称赞	-17491
稍微	-17492
窃听	-17493
粮农	-17494
经纪	-17495
美欧	-17496
老虎	-17497
肤浅	-17498
解密	-17499
论述	-17500
话说	-17501
诱人	-17502
费尔	-17503
超市	-17504
身着	-17505
过快	-17506
过量	-17507
通行	-17508
遍及	-17509
遥遥	-17510
重拾	-17511
阳性	-17512
阿什	-17513
难逃	-17514
震撼	-17515
颁发	-17516
领头	-17517
颜色	-17518
饲料	-17519
马琳	-17520
高得	-17521
鸽派	-17522
麻疹	-17523
17.	-17524
187	-17525
22%	-17526
AAA	-17527
Ber	-17528
CDU	-17529
igh	-17530
ink	-17531
oth	-17532
rad	-17533
tee	-17534
▁el	-17535
▁加州	-17536
▁最为	-17537
▁看看	-17538
▁缅甸	-17539
▁试想	-17540
下个月	-17541
不景气	-17542
两国在	-17543
个月后	-17544
为何要	-17545
为那些	-17546
丽莎白	-17547
也日益	-17548
也是最	-17549
也没能	-17550
人员的	-17551
代表性	-17552
代议制	-17553
以增加	-17554
任命为	-17555
但并未	-17556
依赖的	-17557
债券和	-17558
像现在	-17559
公司将	-17560
军队在	-17561
出口和	-17562
击败了	-17563
别人的	-17564
到那时	-17565
劳伦斯	-17566
包含着	-17567
占领了	-17568
反应是	-17569
只是个	-17570
只限于	-17571
可以与	-17572
吉尼亚	-17573
同事们	-17574
和巴西	-17575
和智利	-17576
和私人	-17577
和种族	-17578
国与国	-17579
在一边	-17580
地球的	-17581
地表明	-17582
学术界	-17583
岁以上	-17584
崩溃的	-17585
年夏天	-17586
开发商	-17587
开始在	-17588
当下的	-17589
当权者	-17590
很强的	-17591
心血管	-17592
战斗机	-17593
扭曲了	-17594
承认的	-17595
技术性	-17596
投入品	-17597
推向了	-17598
放射性	-17599
数不清	-17600
斯特恩	-17601
新经济	-17602
新鲜事	-17603
无休止	-17604
无法从	-17605
昔日的	-17606
更强大	-17607
更适合	-17608
机构中	-17609
来取代	-17610
正在以	-17611
清楚的	-17612
清算所	-17613
生常谈	-17614
的大脑	-17615
的扩张	-17616
的改善	-17617
的欧元	-17618
的生物	-17619
的社区	-17620
的私人	-17621
的细节	-17622
相媲美	-17623
相比较	-17624
移交给	-17625
穷国的	-17626
等因素	-17627
等组织	-17628
美国是	-17629
而现在	-17630
自由党	-17631
被美国	-17632
赖喇嘛	-17633
迎来了	-17634
这才是	-17635
这条路	-17636
阵营的	-17637
阿勒颇	-17638
限度的	-17639
非正规	-17640
领土的	-17641
form	-17642
neth	-17643
▁com	-17644
▁同样的	-17645
▁在我们	-17646
▁在欧盟	-17647
▁如果他	-17648
▁政府的	-17649
▁穆尔西	-17650
▁该报告	-17651
下降到了	-17652
不断下降	-17653
不是什么	-17654
世界人口	-17655
中的角色	-17656
为了避免	-17657
举步维艰	-17658
也很重要	-17659
也采取了	-17660
二十年来	-17661
五角大楼	-17662
产生影响	-17663
仍然十分	-17664
以色列对	-17665
伊丽莎白	-17666
保护自己	-17667
信誓旦旦	-17668
修正主义	-17669
做出改变	-17670
入盟谈判	-17671
公平竞争	-17672
共同繁荣	-17673
其他因素	-17674
几乎毫无	-17675
利息支付	-17676
劳动成本	-17677
双管齐下	-17678
反映的是	-17679
变成现实	-17680
可能还会	-17681
吉尔吉斯	-17682
同样也是	-17683
和平共处	-17684
国内储蓄	-17685
国际法庭	-17686
塞内加尔	-17687
大学教授	-17688
大打折扣	-17689
大行其道	-17690
太阳能和	-17691
失业问题	-17692
密切合作	-17693
工作年龄	-17694
已经表明	-17695
已经过去	-17696
巴解组织	-17697
弗朗西斯	-17698
必须改变	-17699
所必需的	-17700
所支持的	-17701
所进行的	-17702
投票支持	-17703
援助资金	-17704
方面做得	-17705
无法满足	-17706
无论是在	-17707
日本首相	-17708
旷日持久	-17709
更加关注	-17710
欧元贬值	-17711
欧洲必须	-17712
欧盟必须	-17713
正在寻求	-17714
民主政治	-17715
民主社会	-17716
犯罪行为	-17717
相形见绌	-17718
相比之下	-17719
短时间内	-17720
确实存在	-17721
筹集资金	-17722
精诚合作	-17723
维持下去	-17724
表现出的	-17725
被证明是	-17726
解决这一	-17727
贝尔斯登	-17728
财政收入	-17729
资产管理	-17730
超过美国	-17731
这些改革	-17732
这些都是	-17733
这样的人	-17734
进行投资	-17735
进行评估	-17736
都是一个	-17737
重要问题	-17738
重蹈覆辙	-17739
针对性的	-17740
陈词滥调	-17741
马哈茂德	-17742
黎巴嫩的	-17743
,2005	-17744
—2014	-17745
▁Rein	-17746
▁为了应对	-17747
▁他们希望	-17748
不遗余力地	-17749
与巴基斯坦	-17750
严重的经济	-17751
主要原因是	-17752
习近平主席	-17753
以色列政府	-17754
其中也包括	-17755
单一市场的	-17756
取得了一些	-17757
叙利亚问题	-17758
和金融稳定	-17759
在一夜之间	-17760
大学毕业生	-17761
对气候变化	-17762
恐怖分子的	-17763
所有国家的	-17764
最贫困国家	-17765
民族国家的	-17766
的关键要素	-17767
结合在一起	-17768
结构性变化	-17769
艾森豪威尔	-17770
赤字和债务	-17771
Donald	-17772
▁Front	-17773
人们普遍认为	-17774
泛美开发银行	-17775
美国和欧洲的	-17776
▁从这个角度看	-17777
▁现在的问题是	-17778
形成了鲜明对比	-17779
俄罗斯天然气工业	-17780
欧洲央行行长德拉吉	-17781
▁Initiative	-17782
68	-17783
89	-17784
Er	-17785
――	-17786
”?	-17787
▁̈	-17788
▁低	-17789
▁埃	-17790
▁德	-17791
▁罗	-17792
▁能	-17793
一辆	-17794
万事	-17795
不曾	-17796
丑陋	-17797
主角	-17798
之死	-17799
亚尔	-17800
交谈	-17801
人格	-17802
亿多	-17803
仇视	-17804
他又	-17805
伯尼	-17806
使人	-17807
兀鹫	-17808
公式	-17809
公职	-17810
兴未	-17811
其为	-17812
其时	-17813
内卢	-17814
军火	-17815
分红	-17816
列岛	-17817
则将	-17818
判定	-17819
利尔	-17820
到访	-17821
卡恩	-17822
即刻	-17823
发声	-17824
发誓	-17825
发送	-17826
后退	-17827
塔伊	-17828
外表	-17829
天空	-17830
太久	-17831
奈尔	-17832
姗姗	-17833
学的	-17834
宫颈	-17835
尖阁	-17836
屋主	-17837
崇高	-17838
巴克	-17839
库什	-17840
弹药	-17841
当政	-17842
心中	-17843
恶魔	-17844
想必	-17845
感的	-17846
懂得	-17847
拉姆	-17848
拍摄	-17849
排在	-17850
推到	-17851
操控	-17852
改写	-17853
改观	-17854
敲响	-17855
文官	-17856
最强	-17857
末期	-17858
来对	-17859
来得	-17860
林肯	-17861
某位	-17862
梅尔	-17863
棉花	-17864
欢欣	-17865
欣慰	-17866
求斯	-17867
污点	-17868
法拉	-17869
洛夫	-17870
流产	-17871
涅托	-17872
漫画	-17873
版权	-17874
牲畜	-17875
特工	-17876
玛丽	-17877
现成	-17878
理顺	-17879
益的	-17880
相处	-17881
看好	-17882
秘诀	-17883
移交	-17884
童婚	-17885
等候	-17886
纽带	-17887
线路	-17888
终点	-17889
给定	-17890
绝无	-17891
羞耻	-17892
而知	-17893
脑后	-17894
至上	-17895
营业	-17896
蒙蔽	-17897
计入	-17898
试点	-17899
诱使	-17900
课堂	-17901
谣言	-17902
较之	-17903
过后	-17904
过滤	-17905
还为	-17906
还债	-17907
这番	-17908
连同	-17909
迪瓦	-17910
通吃	-17911
逼迫	-17912
酷刑	-17913
陈旧	-17914
隐患	-17915
震慑	-17916
靠谱	-17917
面上	-17918
面纱	-17919
黑海	-17920
28%	-17921
9%,	-17922
95%	-17923
ere	-17924
isc	-17925
nie	-17926
ong	-17927
ors	-17928
uch	-17929
▁一场	-17930
▁不同	-17931
▁即将	-17932
▁外部	-17933
▁导致	-17934
▁已经	-17935
▁当我	-17936
▁所谓	-17937
一边倒	-17938
下降和	-17939
不相容	-17940
与伦比	-17941
为所有	-17942
亚洲人	-17943
产品和	-17944
从经济	-17945
代名词	-17946
以及其	-17947
以提高	-17948
克服了	-17949
兴未艾	-17950
其核心	-17951
几年里	-17952
几百万	-17953
则必须	-17954
动力的	-17955
却并不	-17956
参与的	-17957
合作社	-17958
同情心	-17959
否决票	-17960
和使用	-17961
和繁荣	-17962
哪怕是	-17963
土地上	-17964
在公共	-17965
城市和	-17966
增加其	-17967
大多是	-17968
大自然	-17969
宗教的	-17970
对市场	-17971
就很难	-17972
尽管他	-17973
展开了	-17974
工具和	-17975
工程的	-17976
市场对	-17977
并同时	-17978
并接受	-17979
幸存者	-17980
当选的	-17981
总收入	-17982
想知道	-17983
所在国	-17984
才能让	-17985
批判性	-17986
承担着	-17987
投票中	-17988
投资率	-17989
损失的	-17990
推迟了	-17991
描绘成	-17992
明显地	-17993
是不能	-17994
有两种	-17995
有缺陷	-17996
本身就	-17997
条件是	-17998
来控制	-17999
来支撑	-18000
极左翼	-18001
核问题	-18002
比中国	-18003
求助于	-18004
汇率的	-18005
海洋法	-18006
漫长而	-18007
激发了	-18008
状态的	-18009
电动车	-18010
的可靠	-18011
的大约	-18012
的新书	-18013
的观念	-18014
的记忆	-18015
的迅速	-18016
相匹配	-18017
相适应	-18018
神经元	-18019
福利的	-18020
等方式	-18021
算得上	-18022
给欧洲	-18023
而随着	-18024
联邦制	-18025
自以为	-18026
至少要	-18027
行动中	-18028
行动和	-18029
表示了	-18030
让英国	-18031
设立了	-18032
象征性	-18033
贫民窟	-18034
跨党派	-18035
轻松地	-18036
过渡到	-18037
通过在	-18038
邪恶的	-18039
都属于	-18040
集中到	-18041
青年人	-18042
顿巴斯	-18043
hart	-18044
▁9%,	-18045
▁Hol	-18046
▁他们说	-18047
▁但最近	-18048
▁但欧盟	-18049
▁在当今	-18050
▁查韦斯	-18051
▁马克龙	-18052
一直认为	-18053
上述问题	-18054
下定决心	-18055
与伊朗的	-18056
之间进行	-18057
也是一样	-18058
仍有可能	-18059
他们无法	-18060
债务违约	-18061
关键领域	-18062
再也无法	-18063
几个月内	-18064
刑警组织	-18065
利用这一	-18066
制造业和	-18067
削减赤字	-18068
前工业化	-18069
区分开来	-18070
十分之一	-18071
印度总理	-18072
双重标准	-18073
取得胜利	-18074
叙利亚人	-18075
可以增加	-18076
和加勒比	-18077
和哈马斯	-18078
国家政策	-18079
圣战分子	-18080
埃及总统	-18081
基尼系数	-18082
基本问题	-18083
增长潜力	-18084
如果中国	-18085
它们必须	-18086
容易得多	-18087
市场改革	-18088
希腊危机	-18089
并不完全	-18090
应该包括	-18091
建立起来	-18092
强制性的	-18093
德国央行	-18094
性别差距	-18095
总有一天	-18096
悲哀的是	-18097
意料之外	-18098
成本效益	-18099
提供贷款	-18100
政权更迭	-18101
政治僵局	-18102
新闻报道	-18103
方兴未艾	-18104
无法想象	-18105
普遍存在	-18106
最伟大的	-18107
最近宣布	-18108
极低利率	-18109
正在逐渐	-18110
每一美元	-18111
毛里求斯	-18112
民主党人	-18113
永久性的	-18114
的事实是	-18115
的消费者	-18116
相互关联	-18117
科特迪瓦	-18118
等问题上	-18119
系统性的	-18120
经济前景	-18121
经济模式	-18122
统治地位	-18123
能够保持	-18124
能源资源	-18125
花旗集团	-18126
西伯利亚	-18127
视为一种	-18128
许多其他	-18129
许多地方	-18130
财政大臣	-18131
达成妥协	-18132
过剩产能	-18133
还不足以	-18134
这一任务	-18135
这一方向	-18136
进口关税	-18137
远远大于	-18138
重新平衡	-18139
金砖四国	-18140
银行危机	-18141
阿里巴巴	-18142
零和博弈	-18143
预防措施	-18144
Charl	-18145
ugman	-18146
▁尽管中国	-18147
▁法国总统	-18148
▁美国国会	-18149
不得不面对	-18150
严重的后果	-18151
中欧和东欧	-18152
也同样如此	-18153
二氧化碳的	-18154
从现在开始	-18155
伊斯兰教法	-18156
国内和国际	-18157
在全球经济	-18158
巨大的经济	-18159
已经认识到	-18160
很有可能会	-18161
撒切尔夫人	-18162
日益增加的	-18163
最大的国家	-18164
的意识形态	-18165
真正的问题	-18166
石油出口国	-18167
美国的利益	-18168
造成的影响	-18169
马萨诸塞州	-18170
apital	-18171
▁Green	-18172
变得更加困难	-18173
将不可避免地	-18174
斯蒂格尔法案	-18175
适应气候变化	-18176
国民生产总值的	-18177
英格兰银行行长	-18178
许多发展中国家	-18179
▁Krugman	-18180
#160;&#160;	-18181
▁Foundation	-18182
42	-18183
FP	-18184
OA	-18185
ón	-18186
€‚	-18187
▁利	-18188
一等	-18189
三方	-18190
三月	-18191
上说	-18192
不言	-18193
不讳	-18194
不高	-18195
与众	-18196
与前	-18197
之父	-18198
争执	-18199
事例	-18200
事的	-18201
互利	-18202
以更	-18203
优雅	-18204
伤口	-18205
伸出	-18206
但当	-18207
修宪	-18208
先后	-18209
兰德	-18210
典礼	-18211
内斯	-18212
军阀	-18213
几近	-18214
出自	-18215
分成	-18216
切特	-18217
利得	-18218
前来	-18219
助力	-18220
劳尔	-18221
勾勒	-18222
医改	-18223
发掘	-18224
发端	-18225
味道	-18226
哈德	-18227
响亮	-18228
唯恐	-18229
回头	-18230
在有	-18231
地狱	-18232
地铁	-18233
塔克	-18234
增兵	-18235
夏威	-18236
失当	-18237
夺去	-18238
奖赏	-18239
奥林	-18240
安保	-18241
岁月	-18242
巡逻	-18243
已达	-18244
帕克	-18245
带入	-18246
并给	-18247
广阔	-18248
康复	-18249
开脱	-18250
式微	-18251
得分	-18252
心存	-18253
怀着	-18254
总比	-18255
恰逢	-18256
想像	-18257
扎克	-18258
打了	-18259
投诉	-18260
投身	-18261
抱负	-18262
抵扣	-18263
拉贾	-18264
拜登	-18265
捷径	-18266
排队	-18267
放下	-18268
敞口	-18269
敬姬	-18270
方程	-18271
既成	-18272
晚上	-18273
智商	-18274
更佳	-18275
本营	-18276
机动	-18277
柴油	-18278
横行	-18279
横跨	-18280
每日	-18281
水扁	-18282
洛普	-18283
派出	-18284
海牙	-18285
海默	-18286
淡水	-18287
深的	-18288
满满	-18289
热病	-18290
熊市	-18291
熊彼	-18292
生根	-18293
由我	-18294
疏离	-18295
疗效	-18296
病症	-18297
百科	-18298
的被	-18299
硬件	-18300
碳排	-18301
离职	-18302
竞相	-18303
米哈	-18304
纳森	-18305
线的	-18306
绥靖	-18307
翻译	-18308
者都	-18309
而起	-18310
英尺	-18311
见效	-18312
让位	-18313
议长	-18314
象牙	-18315
贴上	-18316
过上	-18317
还得	-18318
适宜	-18319
适龄	-18320
那一	-18321
都很	-18322
配给	-18323
重任	-18324
重整	-18325
金色	-18326
链条	-18327
锻炼	-18328
阐明	-18329
魔法	-18330
黎明	-18331
黑帮	-18332
齐观	-18333
OMC	-18334
Pac	-18335
ies	-18336
itt	-18337
ler	-18338
▁保持	-18339
▁实施	-18340
▁很难	-18341
▁此举	-18342
▁过度	-18343
▁预计	-18344
万灵丹	-18345
三年前	-18346
不希望	-18347
不支持	-18348
不是在	-18349
与一个	-18350
与全球	-18351
与那些	-18352
与邻国	-18353
也有着	-18354
了一点	-18355
事实的	-18356
他们能	-18357
他必须	-18358
以下的	-18359
以此来	-18360
会如此	-18361
会降低	-18362
但仍有	-18363
但同时	-18364
其政策	-18365
前瞻性	-18366
加大了	-18367
势在必	-18368
医生和	-18369
协议中	-18370
另一项	-18371
可以向	-18372
同意在	-18373
同样是	-18374
后果的	-18375
向欧洲	-18376
和科学	-18377
因特网	-18378
增加和	-18379
夏威夷	-18380
学生们	-18381
学生的	-18382
学者和	-18383
宝贵的	-18384
宫颈癌	-18385
对某些	-18386
对移民	-18387
将引发	-18388
将逐渐	-18389
尽管其	-18390
州政府	-18391
并可能	-18392
并帮助	-18393
并获得	-18394
废除了	-18395
开发的	-18396
引以为	-18397
当局的	-18398
心自问	-18399
情形下	-18400
或政治	-18401
所包含	-18402
所面对	-18403
抓住了	-18404
挑战者	-18405
政府也	-18406
政策中	-18407
数以千	-18408
文尼亚	-18409
新一届	-18410
方面是	-18411
是否在	-18412
更别提	-18413
更广义	-18414
曾经在	-18415
最终被	-18416
有资格	-18417
来提高	-18418
正是在	-18419
比例从	-18420
比如在	-18421
水平和	-18422
治疗的	-18423
泰国的	-18424
活跃的	-18425
流向了	-18426
浪费了	-18427
涵盖了	-18428
混乱的	-18429
热内卢	-18430
熟悉的	-18431
特殊的	-18432
现金流	-18433
班加西	-18434
的最为	-18435
的治理	-18436
的缺乏	-18437
的考验	-18438
的议会	-18439
穆兄会	-18440
第一轮	-18441
系统中	-18442
经常被	-18443
而变得	-18444
能提高	-18445
艾利斯	-18446
被授予	-18447
贷款给	-18448
转换为	-18449
边界的	-18450
还要大	-18451
进行着	-18452
遏制了	-18453
金敬姬	-18454
陈水扁	-18455
非传统	-18456
首先要	-18457
鼓吹者	-18458
7000	-18459
▁par	-18460
▁他们会	-18461
▁但德国	-18462
▁但无论	-18463
▁反对派	-18464
▁在理想	-18465
▁它们是	-18466
▁更广泛	-18467
▁甚至连	-18468
不仅在于	-18469
不如说是	-18470
不容忽视	-18471
不平等的	-18472
不断膨胀	-18473
中间道路	-18474
为目标的	-18475
举行选举	-18476
亚洲地区	-18477
人们开始	-18478
人类发展	-18479
从而确保	-18480
他们是否	-18481
以巴冲突	-18482
以色列在	-18483
任何地方	-18484
保护措施	-18485
借款人的	-18486
全球失衡	-18487
其他人的	-18488
几个月后	-18489
利率上升	-18490
劳动力和	-18491
取得进步	-18492
可能会被	-18493
可能因为	-18494
周边国家	-18495
和菲律宾	-18496
团结工会	-18497
国际能源	-18498
在大多数	-18499
多年以来	-18500
多数国家	-18501
大大降低	-18502
女权主义	-18503
如何实现	-18504
家庭成员	-18505
对欧盟的	-18506
尽管美国	-18507
已经成了	-18508
已经达到	-18509
并且没有	-18510
得到改善	-18511
必须包括	-18512
快的速度	-18513
感到失望	-18514
慈善组织	-18515
所必须的	-18516
担心的是	-18517
拥有大量	-18518
挺身而出	-18519
政府政策	-18520
是否存在	-18521
是建立在	-18522
最近指出	-18523
有所助益	-18524
来自中国	-18525
极端组织	-18526
某种方式	-18527
欧盟成员	-18528
正在失去	-18529
正在考虑	-18530
正在试图	-18531
正常化的	-18532
此外还有	-18533
民主原则	-18534
现在必须	-18535
甚至包括	-18536
生物医学	-18537
疫苗接种	-18538
的不稳定	-18539
的受访者	-18540
相对较低	-18541
研究结果	-18542
社团主义	-18543
稳定机制	-18544
等量齐观	-18545
经济体中	-18546
绿色经济	-18547
苏联时代	-18548
苹果公司	-18549
解决机制	-18550
解放组织	-18551
边缘化的	-18552
达成一个	-18553
这一计划	-18554
这一转变	-18555
这一风险	-18556
这项工作	-18557
进口商品	-18558
迫使他们	-18559
那么他们	-18560
重大进步	-18561
金融风险	-18562
银行家们	-18563
铺平道路	-18564
阿萨德的	-18565
非常清楚	-18566
,2000	-18567
,2006	-18568
ition	-18569
rowth	-18570
▁中国经济	-18571
▁否则的话	-18572
▁因此我们	-18573
▁尽管存在	-18574
▁尽管美国	-18575
俄罗斯经济	-18576
其中一部分	-18577
农村地区的	-18578
发布的一份	-18579
可能意味着	-18580
可贸易部门	-18581
和气候变化	-18582
多年来一直	-18583
宏观经济学	-18584
巴沙尔政权	-18585
微不足道的	-18586
德克萨斯州	-18587
房地产投资	-18588
整个地区的	-18589
斯洛文尼亚	-18590
正在进行的	-18591
的主要障碍	-18592
的唯一办法	-18593
直接或间接	-18594
站不住脚的	-18595
系统重要性	-18596
经济一体化	-18597
诺斯艾利斯	-18598
这样的政策	-18599
这样的观点	-18600
进一步降低	-18601
金融危机中	-18602
20,000	-18603
30,000	-18604
ustice	-18605
vement	-18606
▁World	-18607
▁原因很简单	-18608
▁在此过程中	-18609
不仅仅是一个	-18610
创造就业岗位	-18611
国家资本主义	-18612
基础设施支出	-18613
所带来的好处	-18614
灾难性的后果	-18615
美国外交政策	-18616
贸易保护主义	-18617
▁值得注意的是	-18618
▁根据这一观点	-18619
▁从某种程度上说	-18620
▁National	-18621
5—	-18622
64	-18623
BI	-18624
EP	-18625
IF	-18626
▁或	-18627
一举	-18628
一顾	-18629
下达	-18630
东德	-18631
两点	-18632
之策	-18633
乐意	-18634
九月	-18635
互信	-18636
以待	-18637
但她	-18638
佩林	-18639
依照	-18640
假期	-18641
偏爱	-18642
像我	-18643
全都	-18644
六大	-18645
内外	-18646
内幕	-18647
再无	-18648
减产	-18649
凯蒂	-18650
出局	-18651
分工	-18652
分开	-18653
利弊	-18654
动武	-18655
包袱	-18656
匹克	-18657
十个	-18658
千禧	-18659
卜拉	-18660
可耻	-18661
同类	-18662
后盾	-18663
周末	-18664
命名	-18665
和其	-18666
和可	-18667
和梅	-18668
土崩	-18669
土库	-18670
坐拥	-18671
大都	-18672
太子	-18673
好友	-18674
好过	-18675
威斯	-18676
威望	-18677
威权	-18678
存亡	-18679
守护	-18680
安定	-18681
家中	-18682
容量	-18683
宿命	-18684
对照	-18685
导演	-18686
将钱	-18687
小镇	-18688
尼加	-18689
工薪	-18690
年期	-18691
幸免	-18692
废弃	-18693
延期	-18694
当事	-18695
得越	-18696
德哥	-18697
急性	-18698
急转	-18699
恩斯	-18700
手上	-18701
接踵	-18702
放开	-18703
教室	-18704
敞开	-18705
数月	-18706
文职	-18707
施展	-18708
无止	-18709
最能	-18710
样板	-18711
检讨	-18712
残余	-18713
毒性	-18714
洪森	-18715
深厚	-18716
满怀	-18717
版的	-18718
牵头	-18719
特例	-18720
猛增	-18721
王子	-18722
瓦拉	-18723
甚者	-18724
用电	-18725
病的	-18726
秉承	-18727
租金	-18728
移居	-18729
等着	-18730
米勒	-18731
紧缺	-18732
纳摩	-18733
细微	-18734
而至	-18735
脚跟	-18736
致裂	-18737
蕴含	-18738
裁判	-18739
要靠	-18740
评分	-18741
诠释	-18742
诱发	-18743
谢尔	-18744
豪华	-18745
赖斯	-18746
超乎	-18747
踌躇	-18748
载体	-18749
输掉	-18750
辨别	-18751
造福	-18752
都由	-18753
鄙视	-18754
采集	-18755
里尼	-18756
钉钉	-18757
镜头	-18758
院校	-18759
雕像	-18760
饿死	-18761
香烟	-18762
高端	-18763
黑市	-18764
AIG	-18765
AfD	-18766
EFS	-18767
GNP	-18768
ICC	-18769
SPD	-18770
You	-18771
ann	-18772
ats	-18773
gel	-18774
iss	-18775
tif	-18776
”,“	-18777
▁Bo	-18778
▁两位	-18779
▁只是	-18780
▁后者	-18781
▁和平	-18782
▁它是	-18783
▁就拿	-18784
▁左翼	-18785
▁环境	-18786
▁结束	-18787
▁而后	-18788
▁腐败	-18789
▁自然	-18790
▁荷兰	-18791
▁足球	-18792
▁风险	-18793
下一轮	-18794
不一致	-18795
不再有	-18796
不多的	-18797
不止于	-18798
与普京	-18799
与法国	-18800
与这些	-18801
专家和	-18802
丹尼尔	-18803
也拥有	-18804
了一种	-18805
五年内	-18806
亿英镑	-18807
仍需要	-18808
以刺激	-18809
保护区	-18810
偏好的	-18811
做生意	-18812
公民们	-18813
共同化	-18814
分别为	-18815
分裂和	-18816
前者的	-18817
力量和	-18818
加深了	-18819
动荡和	-18820
十年内	-18821
参与国	-18822
后来的	-18823
向他们	-18824
和人口	-18825
和分析	-18826
和破坏	-18827
和那些	-18828
和需求	-18829
国外的	-18830
土库曼	-18831
大大地	-18832
失败后	-18833
子公司	-18834
完全不	-18835
完整性	-18836
完美的	-18837
寄生虫	-18838
小时的	-18839
就更加	-18840
尽管这	-18841
局限在	-18842
已经向	-18843
已经把	-18844
巴菲特	-18845
希望将	-18846
年左右	-18847
并引发	-18848
并推动	-18849
应当在	-18850
弄清楚	-18851
当年的	-18852
很高兴	-18853
微小的	-18854
怀疑论	-18855
总统在	-18856
想当然	-18857
战后的	-18858
战略上	-18859
所经历	-18860
承受了	-18861
把这一	-18862
拯救了	-18863
损失和	-18864
接触到	-18865
援助和	-18866
方面所	-18867
无国界	-18868
时不时	-18869
是所有	-18870
更深入	-18871
有很大	-18872
来完成	-18873
来阻止	-18874
核心国	-18875
梅纳德	-18876
正在与	-18877
每年要	-18878
沙拉菲	-18879
然后是	-18880
爱德华	-18881
犹太教	-18882
现在也	-18883
现成的	-18884
由中国	-18885
男性和	-18886
的会议	-18887
的关于	-18888
的年均	-18889
的日益	-18890
的汽车	-18891
的邻国	-18892
的食品	-18893
眼前的	-18894
短期的	-18895
社会化	-18896
社区的	-18897
索罗斯	-18898
经历着	-18899
缔造者	-18900
而产生	-18901
而他的	-18902
而获得	-18903
而被迫	-18904
脱离了	-18905
萨赫勒	-18906
行长的	-18907
衰退的	-18908
袭击的	-18909
认定为	-18910
讨论中	-18911
该基金	-18912
购买了	-18913
转移给	-18914
达佩斯	-18915
这或许	-18916
进化论	-18917
选出的	-18918
通胀和	-18919
防火墙	-18920
需要与	-18921
需要从	-18922
领域中	-18923
频繁地	-18924
高回报	-18925
高负债	-18926
1940	-18927
1956	-18928
olog	-18929
▁-3.	-18930
▁Mar	-18931
▁New	-18932
▁que	-18933
▁他指出	-18934
▁传统上	-18935
▁但只有	-18936
▁但政府	-18937
▁加拿大	-18938
▁历史上	-18939
▁唯一的	-18940
▁在今年	-18941
▁对欧洲	-18942
▁我们对	-18943
▁这将是	-18944
▁这或许	-18945
▁那就是	-18946
一夜之间	-18947
一无所知	-18948
不仅需要	-18949
不会因为	-18950
中央集权	-18951
二战期间	-18952
人力资源	-18953
什么才是	-18954
什叶派和	-18955
从伊拉克	-18956
从而增加	-18957
他们想要	-18958
以及中国	-18959
以邻为壑	-18960
会进一步	-18961
值得关注	-18962
免疫系统	-18963
全球基金	-18964
共同之处	-18965
关塔纳摩	-18966
其他一些	-18967
冷战期间	-18968
出于政治	-18969
出手干预	-18970
北大西洋	-18971
区别对待	-18972
卡尔德龙	-18973
卫生保健	-18974
危险之中	-18975
发生冲突	-18976
可以产生	-18977
合情合理	-18978
和大规模	-18979
和太阳能	-18980
和投资者	-18981
因为后者	-18982
国家经济	-18983
国际发展	-18984
国际援助	-18985
城市居民	-18986
墨西哥湾	-18987
多样性和	-18988
奥巴马和	-18989
安全威胁	-18990
将会产生	-18991
将会导致	-18992
就职演说	-18993
并不只是	-18994
怎样才能	-18995
急剧上升	-18996
恐怖份子	-18997
我们仍然	-18998
我的祖国	-18999
所作出的	-19000
扪心自问	-19001
拯救欧元	-19002
拯救生命	-19003
政治稳定	-19004
政界人士	-19005
无可否认	-19006
是俄罗斯	-19007
是明确的	-19008
显然不是	-19009
显著下降	-19010
最近几年	-19011
有很大的	-19012
有所提高	-19013
柔性力量	-19014
欧洲货币	-19015
浮出水面	-19016
特殊关系	-19017
独裁者的	-19018
现任总统	-19019
的基础是	-19020
的大屠杀	-19021
的批评者	-19022
的时间内	-19023
研究机构	-19024
私募股权	-19025
空气质量	-19026
统治者的	-19027
绿色革命	-19028
美国人民	-19029
至今仍在	-19030
认为这些	-19031
财政调整	-19032
资金来源	-19033
身份政治	-19034
还有可能	-19035
这一做法	-19036
这些变化	-19037
这些条件	-19038
这些趋势	-19039
采取更加	-19040
问题需要	-19041
难以想象	-19042
Andre	-19043
Peter	-19044
earch	-19045
ordon	-19046
▁1991	-19047
▁众所周知	-19048
▁几乎所有	-19049
▁时至今日	-19050
▁穆沙拉夫	-19051
▁经合组织	-19052
也没有什么	-19053
令人震惊的	-19054
佛罗里达州	-19055
决策者应该	-19056
出口竞争力	-19057
反映了一个	-19058
国家之间的	-19059
在此过程中	-19060
塔吉克斯坦	-19061
实体经济的	-19062
开发银行的	-19063
是一个错误	-19064
最大经济体	-19065
有吸引力的	-19066
本世纪中叶	-19067
核试验条约	-19068
的工作岗位	-19069
的金融体系	-19070
种族和宗教	-19071
联合国难民	-19072
▁Democ	-19073
▁从历史上看	-19074
令人难以置信	-19075
州和地方政府	-19076
持不同政见者	-19077
经济增长放缓	-19078
雷曼兄弟倒闭	-19079
黎巴嫩真主党	-19080
▁&#160;	-19081
▁今年早些时候	-19082
▁在某种程度上	-19083
也就不足为奇了	-19084
世界货币基金组织	-19085
+1	-19086
,"	-19087
56	-19088
57	-19089
67	-19090
85	-19091
SS	-19092
ma	-19093
▁y	-19094
一把	-19095
不稳	-19096
不谈	-19097
买房	-19098
亟待	-19099
他命	-19100
众筹	-19101
但要	-19102
侵占	-19103
全额	-19104
八月	-19105
公元	-19106
公海	-19107
六月	-19108
写作	-19109
冷却	-19110
凯末	-19111
则有	-19112
创出	-19113
勒索	-19114
参半	-19115
双轨	-19116
反其	-19117
台风	-19118
右倾	-19119
各异	-19120
各级	-19121
听说	-19122
周永	-19123
哀叹	-19124
唤醒	-19125
图谋	-19126
地址	-19127
基层	-19128
增添	-19129
天下	-19130
失落	-19131
头彻	-19132
它就	-19133
家常	-19134
家里	-19135
就其	-19136
平行	-19137
年纪	-19138
庆贺	-19139
庇隆	-19140
废止	-19141
归于	-19142
很强	-19143
思索	-19144
惯性	-19145
憎恶	-19146
成败	-19147
戴着	-19148
扎比	-19149
拉大	-19150
接待	-19151
接手	-19152
效用	-19153
断层	-19154
断绝	-19155
斯曼	-19156
斯雷	-19157
斯麦	-19158
新月	-19159
旗鼓	-19160
普查	-19161
最差	-19162
有近	-19163
来迟	-19164
案中	-19165
植入	-19166
水的	-19167
洞察	-19168
深层	-19169
火灾	-19170
点上	-19171
热潮	-19172
牧民	-19173
牵制	-19174
猛虎	-19175
疲于	-19176
的亲	-19177
的净	-19178
的和	-19179
的旧	-19180
碰巧	-19181
神学	-19182
神权	-19183
粉饰	-19184
繁琐	-19185
翻了	-19186
自大	-19187
自贸	-19188
芯片	-19189
英文	-19190
落在	-19191
葬礼	-19192
表露	-19193
警官	-19194
诚意	-19195
说成	-19196
账单	-19197
质问	-19198
赎金	-19199
起因	-19200
超凡	-19201
超导	-19202
辖区	-19203
这使	-19204
进度	-19205
退步	-19206
途中	-19207
遣返	-19208
都曾	-19209
铁腕	-19210
露面	-19211
11.	-19212
HPV	-19213
ama	-19214
emy	-19215
ics	-19216
iew	-19217
ins	-19218
odd	-19219
rig	-19220
ude	-19221
ush	-19222
▁se	-19223
▁不少	-19224
▁在与	-19225
▁持续	-19226
▁消费	-19227
▁监管	-19228
▁选择	-19229
▁面临	-19230
一直到	-19231
一直对	-19232
不充分	-19233
不只是	-19234
不过了	-19235
与合作	-19236
两年后	-19237
个月的	-19238
五规划	-19239
产油国	-19240
他没有	-19241
众议员	-19242
使中国	-19243
保留了	-19244
做一些	-19245
公民权	-19246
公里的	-19247
其如此	-19248
其目标	-19249
冲击的	-19250
减少其	-19251
出版的	-19252
出资者	-19253
分化的	-19254
十亿人	-19255
原有的	-19256
受困于	-19257
可能要	-19258
吸收了	-19259
周永康	-19260
和平等	-19261
和强化	-19262
团结和	-19263
固有的	-19264
国家或	-19265
国峰会	-19266
地解决	-19267
头彻尾	-19268
好比是	-19269
官员在	-19270
将开始	-19271
将迎来	-19272
尘埃落	-19273
就包括	-19274
就成了	-19275
就知道	-19276
就难以	-19277
并保持	-19278
并建立	-19279
并避免	-19280
应该让	-19281
建制派	-19282
影响是	-19283
彻斯特	-19284
得更好	-19285
得过且	-19286
思想和	-19287
总是在	-19288
恰当地	-19289
成长的	-19290
所欲为	-19291
打击了	-19292
投票给	-19293
拿不出	-19294
提出要	-19295
政府还	-19296
是一名	-19297
是一条	-19298
更健康	-19299
更包容	-19300
曾经的	-19301
最喜欢	-19302
有力地	-19303
朝一日	-19304
来实施	-19305
欧洲对	-19306
正式的	-19307
比例的	-19308
沃克尔	-19309
没有了	-19310
满足了	-19311
火箭弹	-19312
特里娜	-19313
癌细胞	-19314
的一员	-19315
的不利	-19316
的企图	-19317
的体系	-19318
的军队	-19319
的前沿	-19320
的动机	-19321
的大陆	-19322
的年代	-19323
的形势	-19324
的总和	-19325
的成果	-19326
的普及	-19327
的有力	-19328
的组合	-19329
的联合	-19330
的范畴	-19331
的赤字	-19332
目前在	-19333
相一致	-19334
纽伦堡	-19335
纽约州	-19336
而改变	-19337
聪明的	-19338
肯尼斯	-19339
能通过	-19340
记录的	-19341
设计出	-19342
调查中	-19343
赛克斯	-19344
赞成票	-19345
趋势的	-19346
逆转录	-19347
通过其	-19348
都不愿	-19349
阶段的	-19350
降低其	-19351
难民和	-19352
零售业	-19353
需要用	-19354
非盈利	-19355
预测到	-19356
黄热病	-19357
黑手党	-19358
1931	-19359
1977	-19360
▁Man	-19361
▁May	-19362
▁des	-19363
▁pol	-19364
▁乍一看	-19365
▁但一个	-19366
▁但这次	-19367
▁对许多	-19368
▁批评者	-19369
[...]
