<pad>	0
<unk>	0
<s>	0
</s>	0
▁t	-0
in	-1
▁a	-2
he	-3
re	-4
on	-5
▁the	-6
er	-7
at	-8
en	-9
▁s	-10
▁c	-11
▁o	-12
it	-13
an	-14
es	-15
is	-16
▁w	-17
al	-18
▁p	-19
or	-20
▁b	-21
▁in	-22
ed	-23
▁f	-24
nd	-25
ing	-26
▁to	-27
ic	-28
ar	-29
▁of	-30
▁m	-31
ion	-32
ro	-33
▁d	-34
▁and	-35
ou	-36
▁th	-37
ent	-38
le	-39
▁e	-40
st	-41
▁h	-42
▁re	-43
om	-44
▁n	-45
il	-46
as	-47
ly	-48
ve	-49
▁l	-50
▁be	-51
ct	-52
▁g	-53
ut	-54
▁is	-55
▁T	-56
ol	-57
▁that	-58
ation	-59
im	-60
ce	-61
▁I	-62
se	-63
ra	-64
ot	-65
▁de	-66
ver	-67
▁A	-68
ur	-69
id	-70
▁for	-71
ment	-72
ld	-73
ig	-74
ow	-75
▁it	-76
▁on	-77
et	-78
▁st	-79
ies	-80
ad	-81
▁u	-82
ch	-83
nt	-84
▁pro	-85
ir	-86
▁con	-87
ul	-88
ill	-89
ate	-90
▁C	-91
▁S	-92
▁B	-93
▁as	-94
▁The	-95
▁–	-96
ore	-97
ers	-98
ith	-99
▁wh	-100
est	-101
▁E	-102
pe	-103
ity	-104
▁al	-105
▁r	-106
▁su	-107
her	-108
▁cou	-109
ist	-110
▁with	-111
ge	-112
ay	-113
▁ex	-114
ort	-115
▁are	-116
lo	-117
▁an	-118
ess	-119
us	-120
▁ne	-121
ab	-122
am	-123
ial	-124
con	-125
ive	-126
▁U	-127
res	-128
ain	-129
▁not	-130
ter	-131
▁ha	-132
if	-133
▁we	-134
th	-135
iv	-136
ke	-137
▁com	-138
▁M	-139
▁by	-140
em	-141
▁has	-142
▁have	-143
ould	-144
▁P	-145
▁se	-146
pp	-147
ac	-148
▁W	-149
conom	-150
▁le	-151
and	-152
▁pol	-153
▁sh	-154
qu	-155
oc	-156
▁will	-157
▁v	-158
▁wor	-159
igh	-160
▁count	-161
▁econom	-162
over	-163
ust	-164
rom	-165
▁G	-166
um	-167
ia	-168
ap	-169
▁en	-170
▁F	-171
ical	-172
op	-173
▁or	-174
ant	-175
ost	-176
▁at	-177
os	-178
▁countr	-179
▁from	-180
uro	-181
▁im	-182
ions	-183
▁he	-184
od	-185
art	-186
iz	-187
▁its	-188
▁their	-189
▁“	-190
▁more	-191
▁Ch	-192
▁y	-193
ast	-194
ome	-195
▁ch	-196
ong	-197
el	-198
ure	-199
ib	-200
un	-201
▁R	-202
ans	-203
▁inc	-204
▁int	-205
▁N	-206
ther	-207
▁un	-208
ak	-209
▁res	-210
ff	-211
▁2	-212
red	-213
▁But	-214
▁was	-215
▁imp	-216
ich	-217
▁would	-218
▁In	-219
mer	-220
▁Euro	-221
end	-222
ect	-223
ru	-224
ary	-225
gh	-226
overn	-227
▁Chin	-228
pt	-229
▁Europe	-230
▁ab	-231
▁can	-232
ear	-233
all	-234
▁this	-235
ight	-236
▁ag	-237
ance	-238
row	-239
▁ad	-240
anc	-241
▁1	-242
▁US	-243
▁they	-244
ous	-245
▁govern	-246
ud	-247
▁O	-248
▁cont	-249
▁than	-250
▁all	-251
out	-252
▁which	-253
ational	-254
du	-255
ip	-256
able	-257
rou	-258
ard	-259
▁countries	-260
cc	-261
ates	-262
▁20	-263
ations	-264
▁Th	-265
▁D	-266
▁comp	-267
ign	-268
ated	-269
▁fin	-270
ere	-271
▁pr	-272
▁government	-273
▁H	-274
▁whe	-275
ie	-276
ult	-277
▁(	-278
ark	-279
▁world	-280
▁China	-281
any	-282
lic	-283
▁fa	-284
▁but	-285
▁rec	-286
ide	-287
ks	-288
▁j	-289
▁year	-290
▁do	-291
ress	-292
ike	-293
▁polit	-294
▁exp	-295
ven	-296
ree	-297
▁part	-298
bal	-299
orm	-300
▁dis	-301
ence	-302
one	-303
▁grow	-304
▁tr	-305
reat	-306
▁reg	-307
ag	-308
▁economic	-309
▁polic	-310
▁J	-311
ime	-312
▁L	-313
ub	-314
ian	-315
▁bec	-316
▁been	-317
▁other	-318
▁so	-319
▁pe	-320
▁out	-321
lobal	-322
▁pl	-323
ep	-324
▁K	-325
▁new	-326
ine	-327
ction	-328
▁inv	-329
age	-330
og	-331
▁dec	-332
ors	-333
▁cr	-334
ile	-335
erm	-336
ll	-337
▁who	-338
▁over	-339
▁me	-340
▁one	-341
▁global	-342
▁inter	-343
▁dem	-344
▁Un	-345
ally	-346
meric	-347
▁As	-348
are	-349
ens	-350
▁lead	-351
ition	-352
so	-353
ower	-354
arket	-355
rad	-356
form	-357
▁und	-358
▁Americ	-359
ern	-360
▁only	-361
lop	-362
▁should	-363
ue	-364
velop	-365
▁ind	-366
▁political	-367
ack	-368
▁also	-369
ident	-370
▁eff	-371
▁need	-372
ren	-373
au	-374
ake	-375
▁his	-376
▁ris	-377
▁growth	-378
▁like	-379
ility	-380
cy	-381
ose	-382
our	-383
reas	-384
ire	-385
▁pre	-386
ities	-387
▁about	-388
▁financ	-389
▁comm	-390
▁no	-391
▁Ind	-392
▁could	-393
▁most	-394
ism	-395
▁cons	-396
ople	-397
▁It	-398
fic	-399
▁market	-400
▁bet	-401
▁there	-402
▁such	-403
▁sp	-404
ited	-405
▁per	-406
▁supp	-407
▁19	-408
▁ban	-409
▁develop	-410
▁str	-411
▁now	-412
▁invest	-413
ublic	-414
▁long	-415
uch	-416
▁go	-417
ious	-418
ord	-419
▁people	-420
ish	-421
ments	-422
▁qu	-423
ative	-424
oll	-425
▁were	-426
▁ar	-427
ange	-428
▁acc	-429
▁cl	-430
▁even	-431
▁policy	-432
▁them	-433
▁country	-434
ution	-435
▁rel	-436
▁if	-437
ew	-438
old	-439
lect	-440
▁years	-441
▁some	-442
▁financial	-443
▁k	-444
ble	-445
▁St	-446
uc	-447
ces	-448
▁increas	-449
▁many	-450
▁up	-451
▁under	-452
▁em	-453
▁rem	-454
ber	-455
▁cap	-456
amp	-457
▁inf	-458
ough	-459
ach	-460
int	-461
bt	-462
▁European	-463
▁This	-464
ause	-465
ice	-466
uss	-467
▁sy	-468
ace	-469
und	-470
ame	-471
▁cur	-472
ons	-473
▁when	-474
ang	-475
▁app	-476
av	-477
king	-478
lear	-479
▁Is	-480
ric	-481
▁power	-482
per	-483
gy	-484
▁must	-485
ass	-486
▁economy	-487
eral	-488
very	-489
vent	-490
pect	-491
▁these	-492
▁tw	-493
illion	-494
▁lar	-495
act	-496
▁may	-497
▁into	-498
we	-499
own	-500
▁ro	-501
stem	-502
▁soc	-503
resident	-504
cess	-505
▁what	-506
▁trad	-507
erv	-508
▁200	-509
erest	-510
▁fir	-511
▁And	-512
▁am	-513
rough	-514
▁time	-515
▁intern	-516
▁produ	-517
ory	-518
▁us	-519
▁cris	-520
ices	-521
▁much	-522
▁Af	-523
stit	-524
ating	-525
▁how	-526
▁had	-527
▁po	-528
▁rep	-529
▁att	-530
ise	-531
ms	-532
lud	-533
ital	-534
▁sc	-535
▁system	-536
▁ra	-537
ced	-538
▁public	-539
▁act	-540
▁cent	-541
▁dif	-542
its	-543
▁any	-544
ful	-545
ind	-546
ax	-547
▁mon	-548
ual	-549
▁again	-550
▁pos	-551
ount	-552
▁interest	-553
ible	-554
▁Russ	-555
▁te	-556
urn	-557
▁leaders	-558
alth	-559
▁work	-560
▁prov	-561
ite	-562
▁conf	-563
.”	-564
ular	-565
ond	-566
▁EU	-567
▁ow	-568
ert	-569
ild	-570
ists	-571
▁201	-572
▁co	-573
ov	-574
▁crisis	-575
▁gen	-576
get	-577
hed	-578
iet	-579
▁high	-580
▁just	-581
ied	-582
▁United	-583
▁international	-584
ific	-585
▁real	-586
▁war	-587
▁ac	-588
hip	-589
ade	-590
ob	-591
▁well	-592
▁import	-593
ization	-594
▁two	-595
▁trans	-596
olog	-597
▁support	-598
▁ref	-599
ient	-600
▁recent	-601
oth	-602
vers	-603
▁because	-604
▁proble	-605
▁way	-606
eed	-607
▁Y	-608
▁fore	-609
ruct	-610
inist	-611
ase	-612
ween	-613
itt	-614
hen	-615
ran	-616
iss	-617
ral	-618
ics	-619
cur	-620
▁debt	-621
▁opp	-622
▁between	-623
ef	-624
ese	-625
▁those	-626
▁man	-627
iven	-628
ove	-629
▁America	-630
▁def	-631
▁far	-632
ict	-633
ject	-634
ives	-635
ilit	-636
▁right	-637
▁des	-638
apan	-639
low	-640
aw	-641
▁remain	-642
▁end	-643
imate	-644
rent	-645
pec	-646
▁less	-647
ound	-648
ize	-649
sel	-650
ward	-651
▁includ	-652
loy	-653
▁fact	-654
▁contin	-655
▁For	-656
▁Japan	-657
▁too	-658
▁Wh	-659
▁effect	-660
uring	-661
ploy	-662
▁Germ	-663
00	-664
ail	-665
aj	-666
▁state	-667
▁while	-668
▁tax	-669
ues	-670
ings	-671
atic	-672
round	-673
read	-674
▁prog	-675
vel	-676
ry	-677
ince	-678
▁ass	-679
▁our	-680
rit	-681
▁ent	-682
▁pop	-683
▁national	-684
ption	-685
▁sur	-686
▁mod	-687
▁first	-688
term	-689
▁own	-690
ures	-691
▁large	-692
▁af	-693
▁democ	-694
ural	-695
▁result	-696
ration	-697
▁mem	-698
▁sub	-699
lp	-700
▁resp	-701
led	-702
▁off	-703
▁reform	-704
▁On	-705
▁ob	-706
▁sim	-707
▁adv	-708
▁region	-709
▁add	-710
ajor	-711
▁help	-712
ability	-713
▁against	-714
ized	-715
fere	-716
▁both	-717
▁redu	-718
pr	-719
▁seem	-720
▁requ	-721
curity	-722
ially	-723
▁examp	-724
▁ext	-725
▁current	-726
▁last	-727
▁cost	-728
▁major	-729
chn	-730
▁Se	-731
▁infl	-732
▁kn	-733
▁Russia	-734
ians	-735
aking	-736
▁partic	-737
▁capital	-738
▁euro	-739
rib	-740
▁conc	-741
▁milit	-742
▁change	-743
▁fund	-744
▁after	-745
▁sign	-746
les	-747
cal	-748
ood	-749
oun	-750
▁great	-751
▁bo	-752
▁trade	-753
▁ben	-754
▁ke	-755
▁investment	-756
rael	-757
utions	-758
allen	-759
▁make	-760
▁good	-761
▁banks	-762
orts	-763
▁become	-764
▁prot	-765
ically	-766
▁example	-767
ays	-768
▁If	-769
ty	-770
ex	-771
▁through	-772
gan	-773
▁Iran	-774
ts	-775
▁cre	-776
▁dep	-777
▁markets	-778
ump	-779
▁important	-780
▁appro	-781
ram	-782
▁$	-783
▁governments	-784
day	-785
▁hum	-786
ense	-787
▁cor	-788
ging	-789
▁Israel	-790
ather	-791
▁fail	-792
ending	-793
▁social	-794
▁demand	-795
▁instit	-796
▁techn	-797
▁bu	-798
▁lo	-799
▁where	-800
▁ret	-801
ract	-802
gest	-803
▁rest	-804
▁est	-805
▁aut	-806
▁President	-807
▁foreign	-808
▁West	-809
other	-810
▁does	-811
▁States	-812
ting	-813
ank	-814
▁rates	-815
▁fut	-816
ortun	-817
ath	-818
▁emer	-819
▁policies	-820
iness	-821
▁leg	-822
▁iss	-823
▁back	-824
▁sa	-825
▁prom	-826
less	-827
olution	-828
▁military	-829
ok	-830
uclear	-831
ulation	-832
▁every	-833
▁Indeed	-834
arly	-835
als	-836
▁main	-837
ater	-838
▁offic	-839
▁health	-840
ergy	-841
▁Tr	-842
ft	-843
▁ins	-844
▁risk	-845
▁That	-846
▁More	-847
▁challen	-848
ined	-849
,”	-850
▁differe	-851
ision	-852
▁India	-853
▁today	-854
▁future	-855
DP	-856
▁still	-857
▁cour	-858
ential	-859
ually	-860
▁Chinese	-861
ccess	-862
ily	-863
▁ord	-864
▁elect	-865
▁same	-866
▁cred	-867
eg	-868
iew	-869
▁bas	-870
ri	-871
▁development	-872
▁benef	-873
▁economies	-874
▁V	-875
ron	-876
▁being	-877
▁dom	-878
▁American	-879
eration	-880
▁since	-881
ning	-882
▁el	-883
▁strate	-884
etary	-885
▁disc	-886
▁neg	-887
ingly	-888
ness	-889
▁use	-890
hing	-891
▁sm	-892
fore	-893
iscal	-894
▁set	-895
▁tra	-896
ants	-897
▁rate	-898
▁strong	-899
omm	-900
▁level	-901
▁br	-902
ior	-903
idd	-904
▁Afric	-905
▁including	-906
▁val	-907
▁human	-908
▁might	-909
▁nuclear	-910
▁ter	-911
outh	-912
▁ed	-913
bers	-914
orth	-915
ployment	-916
▁bel	-917
▁agree	-918
▁commun	-919
ably	-920
▁Germany	-921
imes	-922
▁likely	-923
▁serv	-924
▁priv	-925
▁success	-926
▁see	-927
pl	-928
usiness	-929
▁low	-930
ten	-931
ared	-932
inc	-933
ready	-934
▁pur	-935
).	-936
▁take	-937
ever	-938
▁problem	-939
▁equ	-940
ell	-941
ality	-942
ieve	-943
▁vot	-944
▁call	-945
▁clear	-946
▁op	-947
▁prices	-948
▁billion	-949
not	-950
cept	-951
▁East	-952
▁did	-953
▁term	-954
▁energy	-955
),	-956
▁short	-957
ved	-958
▁3	-959
▁fiscal	-960
▁reas	-961
rab	-962
ctor	-963
▁technolog	-964
ged	-965
▁without	-966
▁security	-967
▁pers	-968
▁made	-969
▁compet	-970
▁GDP	-971
▁contro	-972
▁already	-973
▁better	-974
▁threat	-975
li	-976
ency	-977
▁central	-978
▁point	-979
▁hist	-980
▁ide	-981
▁ser	-982
▁particular	-983
▁es	-984
arch	-985
lam	-986
ertain	-987
oss	-988
ider	-989
zone	-990
rast	-991
▁quest	-992
ss	-993
abor	-994
▁Brit	-995
▁poss	-996
▁hig	-997
istan	-998
cond	-999
rem	-1000
iddle	-1001
▁business	-1002
▁ann	-1003
▁stand	-1004
ered	-1005
ving	-1006
racy	-1007
▁med	-1008
▁know	-1009
▁down	-1010
▁Kore	-1011
ges	-1012
▁educ	-1013
ama	-1014
ger	-1015
ars	-1016
▁product	-1017
tern	-1018
▁Trump	-1019
▁consum	-1020
ush	-1021
0%	-1022
abl	-1023
▁decl	-1024
▁ap	-1025
▁states	-1026
▁Ob	-1027
▁Int	-1028
▁We	-1029
▁dire	-1030
hor	-1031
ury	-1032
ollow	-1033
ents	-1034
▁prop	-1035
▁So	-1036
▁then	-1037
▁rev	-1038
▁indust	-1039
▁job	-1040
▁dist	-1041
ck	-1042
▁aff	-1043
xt	-1044
▁cannot	-1045
▁arg	-1046
▁pres	-1047
▁Gree	-1048
osed	-1049
▁often	-1050
ivers	-1051
▁expect	-1052
▁protect	-1053
▁Bank	-1054
roup	-1055
mental	-1056
▁president	-1057
▁Wor	-1058
▁Fr	-1059
here	-1060
▁turn	-1061
ines	-1062
▁order	-1063
▁imm	-1064
land	-1065
ouse	-1066
▁process	-1067
ratic	-1068
▁law	-1069
▁ev	-1070
▁There	-1071
▁To	-1072
ink	-1073
▁With	-1074
▁another	-1075
▁Sy	-1076
▁oil	-1077
▁course	-1078
▁among	-1079
▁At	-1080
▁They	-1081
iron	-1082
▁Arab	-1083
▁few	-1084
▁ele	-1085
▁start	-1086
▁three	-1087
▁private	-1088
self	-1089
▁very	-1090
oney	-1091
por	-1092
▁bank	-1093
▁fac	-1094
▁Asia	-1095
▁hard	-1096
▁institutions	-1097
ah	-1098
▁clo	-1099
▁move	-1100
▁toward	-1101
▁follow	-1102
▁impro	-1103
raq	-1104
▁view	-1105
▁allow	-1106
iving	-1107
aly	-1108
▁climate	-1109
rug	-1110
▁Obama	-1111
ivid	-1112
▁pot	-1113
ience	-1114
▁Re	-1115
stand	-1116
▁Iraq	-1117
▁before	-1118
uel	-1119
itions	-1120
ves	-1121
inister	-1122
▁ful	-1123
▁199	-1124
▁pay	-1125
aps	-1126
uge	-1127
▁million	-1128
ades	-1129
cing	-1130
hold	-1131
ead	-1132
▁rul	-1133
▁env	-1134
▁av	-1135
ret	-1136
▁lif	-1137
▁An	-1138
▁adm	-1139
▁past	-1140
▁eas	-1141
▁Al	-1142
omen	-1143
ructure	-1144
anies	-1145
up	-1146
▁eurozone	-1147
▁ine	-1148
▁weak	-1149
▁Moreover	-1150
▁money	-1151
▁De	-1152
ute	-1153
▁role	-1154
▁members	-1155
▁increase	-1156
▁ant	-1157
▁Union	-1158
▁rather	-1159
▁monetary	-1160
ages	-1161
▁child	-1162
stain	-1163
▁peace	-1164
▁least	-1165
▁ach	-1166
ued	-1167
▁num	-1168
ying	-1169
ittle	-1170
▁form	-1171
ately	-1172
▁press	-1173
ick	-1174
ross	-1175
▁Islam	-1176
▁around	-1177
▁lim	-1178
lement	-1179
▁Syr	-1180
ances	-1181
▁group	-1182
ph	-1183
▁mat	-1184
most	-1185
ror	-1186
ources	-1187
▁higher	-1188
▁put	-1189
▁prof	-1190
ibility	-1191
▁sustain	-1192
io	-1193
road	-1194
ening	-1195
▁approach	-1196
▁though	-1197
▁societ	-1198
▁defic	-1199
▁South	-1200
urther	-1201
▁inst	-1202
▁vi	-1203
itiz	-1204
▁beh	-1205
▁play	-1206
▁World	-1207
▁income	-1208
▁official	-1209
▁little	-1210
▁companies	-1211
▁account	-1212
▁whether	-1213
▁author	-1214
▁opportun	-1215
▁inflation	-1216
▁ens	-1217
▁curren	-1218
▁meas	-1219
gin	-1220
▁asse	-1221
▁effective	-1222
▁small	-1223
ficult	-1224
▁loc	-1225
▁different	-1226
▁car	-1227
▁labor	-1228
▁difficult	-1229
▁signific	-1230
▁control	-1231
▁par	-1232
▁Tur	-1233
▁credit	-1234
ining	-1235
▁month	-1236
pecially	-1237
▁next	-1238
ides	-1239
oti	-1240
▁problems	-1241
ished	-1242
akes	-1243
ocus	-1244
▁chang	-1245
▁developing	-1246
vere	-1247
▁needs	-1248
▁Intern	-1249
▁establ	-1250
▁5	-1251
▁needed	-1252
▁gener	-1253
▁spec	-1254
ering	-1255
aim	-1256
▁concern	-1257
▁relations	-1258
▁gu	-1259
▁crit	-1260
▁citiz	-1261
▁ph	-1262
alest	-1263
▁fe	-1264
ivil	-1265
▁Africa	-1266
▁environ	-1267
▁case	-1268
▁run	-1269
▁appe	-1270
ix	-1271
estic	-1272
▁reason	-1273
ash	-1274
ened	-1275
▁exper	-1276
▁conflic	-1277
▁focus	-1278
▁spending	-1279
▁sol	-1280
▁Comm	-1281
▁ca	-1282
▁get	-1283
▁He	-1284
ivity	-1285
▁plan	-1286
ted	-1287
imin	-1288
acy	-1289
▁simp	-1290
▁especially	-1291
ner	-1292
air	-1293
ogn	-1294
▁address	-1295
▁education	-1296
▁remains	-1297
▁rise	-1298
idence	-1299
ases	-1300
▁democracy	-1301
▁why	-1302
▁cond	-1303
reed	-1304
▁free	-1305
▁cut	-1306
▁France	-1307
▁non	-1308
▁share	-1309
▁Rep	-1310
itive	-1311
▁significant	-1312
▁tar	-1313
▁Korea	-1314
▁doll	-1315
change	-1316
▁fall	-1317
▁him	-1318
▁pros	-1319
▁negoti	-1320
▁come	-1321
▁When	-1322
▁during	-1323
▁happ	-1324
▁rese	-1325
▁Fed	-1326
▁poor	-1327
▁respons	-1328
▁show	-1329
▁return	-1330
▁domestic	-1331
sequ	-1332
▁decades	-1333
▁civil	-1334
▁means	-1335
ird	-1336
▁deep	-1337
for	-1338
▁emerging	-1339
▁want	-1340
▁question	-1341
▁mass	-1342
vention	-1343
▁big	-1344
▁citizens	-1345
▁longer	-1346
▁find	-1347
▁bal	-1348
ators	-1349
itional	-1350
omet	-1351
▁4	-1352
▁further	-1353
▁reforms	-1354
urd	-1355
pite	-1356
▁North	-1357
▁Palest	-1358
▁viol	-1359
▁costs	-1360
anced	-1361
epend	-1362
▁suff	-1363
▁eng	-1364
▁efforts	-1365
▁continue	-1366
▁however	-1367
ork	-1368
ling	-1369
▁others	-1370
▁col	-1371
cies	-1372
▁almost	-1373
▁gain	-1374
▁progress	-1375
▁hal	-1376
vious	-1377
ission	-1378
▁serious	-1379
az	-1380
▁nat	-1381
▁price	-1382
▁requi	-1383
▁given	-1384
▁best	-1385
▁her	-1386
▁build	-1387
▁inn	-1388
izing	-1389
▁women	-1390
▁seems	-1391
ave	-1392
▁pat	-1393
▁meet	-1394
▁ago	-1395
omes	-1396
▁second	-1397
▁key	-1398
▁Sh	-1399
▁stud	-1400
way	-1401
pid	-1402
▁say	-1403
▁sector	-1404
▁occ	-1405
▁hand	-1406
▁camp	-1407
▁organ	-1408
0,	-1409
ither	-1410
▁within	-1411
the	-1412
▁fam	-1413
▁you	-1414
formation	-1415
▁recogn	-1416
▁terror	-1417
▁er	-1418
▁election	-1419
lf	-1420
▁potential	-1421
▁hold	-1422
▁const	-1423
arm	-1424
▁dr	-1425
▁One	-1426
▁claim	-1427
hes	-1428
ope	-1429
▁direct	-1430
▁yet	-1431
▁increasingly	-1432
▁access	-1433
▁coll	-1434
▁model	-1435
▁benefits	-1436
▁found	-1437
▁population	-1438
▁growing	-1439
▁provide	-1440
▁my	-1441
ising	-1442
ided	-1443
▁agreement	-1444
key	-1445
▁enough	-1446
cent	-1447
▁tru	-1448
udget	-1449
▁project	-1450
nce	-1451
ock	-1452
▁understand	-1453
▁care	-1454
ences	-1455
▁post	-1456
▁itself	-1457
▁event	-1458
tain	-1459
▁Middle	-1460
▁require	-1461
▁prevent	-1462
▁Part	-1463
▁administ	-1464
wh	-1465
ai	-1466
be	-1467
000	-1468
arn	-1469
▁comple	-1470
▁cho	-1471
▁particularly	-1472
lus	-1473
▁lib	-1474
lim	-1475
▁While	-1476
▁used	-1477
▁treat	-1478
▁currency	-1479
empt	-1480
▁slow	-1481
▁consider	-1482
ale	-1483
▁Yet	-1484
▁greater	-1485
▁regime	-1486
▁she	-1487
ipl	-1488
▁sug	-1489
▁Greece	-1490
reng	-1491
▁interests	-1492
▁lower	-1493
▁caus	-1494
▁War	-1495
icient	-1496
▁life	-1497
selves	-1498
▁services	-1499
ool	-1500
ention	-1501
▁regul	-1502
te	-1503
▁rights	-1504
▁deal	-1505
0’	-1506
▁workers	-1507
▁resources	-1508
sp	-1509
▁regional	-1510
▁terms	-1511
ression	-1512
▁target	-1513
▁streng	-1514
iqu	-1515
ividual	-1516
▁After	-1517
▁Turkey	-1518
▁number	-1519
▁By	-1520
▁Pr	-1521
yn	-1522
rate	-1523
▁recently	-1524
▁left	-1525
ON	-1526
▁budget	-1527
rop	-1528
rastructure	-1529
come	-1530
ised	-1531
▁mult	-1532
▁never	-1533
ug	-1534
▁unem	-1535
▁open	-1536
▁innov	-1537
▁init	-1538
verage	-1539
▁These	-1540
ik	-1541
▁min	-1542
▁integ	-1543
▁place	-1544
▁force	-1545
▁certain	-1546
▁common	-1547
▁gr	-1548
▁deb	-1549
▁Republic	-1550
man	-1551
▁ren	-1552
▁impact	-1553
▁each	-1554
▁shif	-1555
▁politics	-1556
▁thus	-1557
ession	-1558
haps	-1559
▁suggest	-1560
ners	-1561
▁former	-1562
like	-1563
▁Pol	-1564
▁enc	-1565
▁Le	-1566
ived	-1567
▁dest	-1568
▁What	-1569
▁individual	-1570
rench	-1571
▁Con	-1572
▁ur	-1573
▁face	-1574
▁home	-1575
▁reduce	-1576
▁reflect	-1577
▁influ	-1578
▁rapid	-1579
ination	-1580
▁oppos	-1581
ording	-1582
▁local	-1583
▁simil	-1584
▁contrib	-1585
ief	-1586
▁children	-1587
▁Western	-1588
▁strateg	-1589
▁tal	-1590
oming	-1591
ec	-1592
▁relative	-1593
5%	-1594
ban	-1595
▁Palestin	-1596
▁accept	-1597
▁possible	-1598
ateral	-1599
▁history	-1600
omp	-1601
ier	-1602
cil	-1603
▁oper	-1604
▁New	-1605
ends	-1606
▁industr	-1607
where	-1608
▁char	-1609
ified	-1610
iate	-1611
akistan	-1612
▁report	-1613
kra	-1614
▁spe	-1615
▁Syria	-1616
▁begin	-1617
oura	-1618
▁sec	-1619
0.	-1620
▁risks	-1621
▁broad	-1622
atives	-1623
▁bl	-1624
aign	-1625
ises	-1626
▁value	-1627
▁unt	-1628
▁UN	-1629
▁fl	-1630
utin	-1631
▁infrastructure	-1632
▁6	-1633
▁extrem	-1634
▁pred	-1635
▁conflict	-1636
ased	-1637
▁Ukra	-1638
▁coop	-1639
ield	-1640
ceed	-1641
▁fear	-1642
▁somet	-1643
▁sav	-1644
▁implement	-1645
akers	-1646
▁issues	-1647
▁strategy	-1648
▁stability	-1649
▁half	-1650
▁necess	-1651
aged	-1652
▁society	-1653
▁campaign	-1654
▁ru	-1655
▁forces	-1656
iod	-1657
aken	-1658
▁jobs	-1659
▁exchange	-1660
▁Pakistan	-1661
▁challenges	-1662
▁dang	-1663
▁che	-1664
▁funda	-1665
▁consequ	-1666
▁mean	-1667
gypt	-1668
▁lack	-1669
▁Even	-1670
▁bor	-1671
▁head	-1672
ront	-1673
▁cult	-1674
▁create	-1675
iation	-1676
▁once	-1677
▁themselves	-1678
▁investors	-1679
▁member	-1680
ards	-1681
ways	-1682
▁Egypt	-1683
ata	-1684
▁Ar	-1685
▁ever	-1686
onal	-1687
▁bond	-1688
oid	-1689
▁saf	-1690
abil	-1691
▁sense	-1692
▁leadership	-1693
▁repres	-1694
▁independ	-1695
-2	-1696
▁house	-1697
ats	-1698
uslim	-1699
▁Cent	-1700
istic	-1701
▁struct	-1702
▁step	-1703
▁sch	-1704
▁2008	-1705
▁French	-1706
▁democratic	-1707
▁able	-1708
▁action	-1709
▁rising	-1710
lation	-1711
▁Fin	-1712
▁believe	-1713
▁research	-1714
overty	-1715
ys	-1716
▁dev	-1717
▁led	-1718
▁early	-1719
▁unemployment	-1720
▁administration	-1721
▁levels	-1722
▁program	-1723
▁politic	-1724
▁wr	-1725
▁Minister	-1726
▁la	-1727
ins	-1728
▁fight	-1729
▁improve	-1730
▁ensure	-1731
▁net	-1732
ilateral	-1733
▁commit	-1734
▁popul	-1735
▁community	-1736
side	-1737
▁exist	-1738
arian	-1739
▁dou	-1740
gether	-1741
▁together	-1742
oral	-1743
▁old	-1744
▁decision	-1745
▁bring	-1746
erve	-1747
▁rules	-1748
▁maintain	-1749
▁keep	-1750
▁wealth	-1751
conomic	-1752
▁sit	-1753
▁comb	-1754
▁achieve	-1755
▁disp	-1756
▁emb	-1757
▁Muslim	-1758
▁finance	-1759
▁Bush	-1760
▁expl	-1761
▁land	-1762
yond	-1763
▁purs	-1764
▁198	-1765
▁anti	-1766
▁Putin	-1767
▁constit	-1768
▁modern	-1769
uation	-1770
▁stat	-1771
▁British	-1772
dom	-1773
irst	-1774
emoc	-1775
▁similar	-1776
▁bre	-1777
to	-1778
makers	-1779
▁simply	-1780
▁vict	-1781
▁youn	-1782
▁close	-1783
▁issue	-1784
acc	-1785
▁making	-1786
▁dollar	-1787
▁challenge	-1788
▁century	-1789
▁gra	-1790
oint	-1791
though	-1792
▁times	-1793
▁poverty	-1794
▁increased	-1795
▁blo	-1796
▁measures	-1797
▁met	-1798
▁across	-1799
raw	-1800
▁recover	-1801
▁four	-1802
▁boost	-1803
▁period	-1804
▁balance	-1805
▁unc	-1806
incip	-1807
▁International	-1808
▁data	-1809
▁corpor	-1810
MF	-1811
rodu	-1812
▁pract	-1813
▁Of	-1814
iplom	-1815
ently	-1816
▁full	-1817
cial	-1818
RI	-1819
acks	-1820
▁technology	-1821
ium	-1822
▁fuel	-1823
utional	-1824
▁always	-1825
▁rule	-1826
isions	-1827
ler	-1828
ival	-1829
▁hope	-1830
▁danger	-1831
▁ident	-1832
▁Russian	-1833
▁establish	-1834
just	-1835
▁IMF	-1836
▁Some	-1837
▁weap	-1838
▁Britain	-1839
▁five	-1840
issions	-1841
▁food	-1842
▁German	-1843
▁employment	-1844
▁Ukraine	-1845
▁systems	-1846
▁sl	-1847
▁top	-1848
▁bord	-1849
bon	-1850
rupt	-1851
veral	-1852
▁aim	-1853
ively	-1854
▁else	-1855
▁true	-1856
▁based	-1857
▁decade	-1858
▁princip	-1859
ee	-1860
quality	-1861
▁loss	-1862
▁7	-1863
ended	-1864
ctions	-1865
onse	-1866
▁Sp	-1867
▁sure	-1868
▁sovere	-1869
▁encoura	-1870
▁self	-1871
▁Party	-1872
▁manage	-1873
▁$1	-1874
aring	-1875
▁parties	-1876
▁Sa	-1877
then	-1878
▁despite	-1879
▁information	-1880
mm	-1881
▁ty	-1882
▁diplom	-1883
wise	-1884
arent	-1885
,000	-1886
▁party	-1887
▁abs	-1888
▁position	-1889
by	-1890
▁liberal	-1891
▁Or	-1892
▁regard	-1893
▁tre	-1894
▁sing	-1895
▁areas	-1896
▁amount	-1897
▁response	-1898
▁En	-1899
aster	-1900
▁refuge	-1901
uing	-1902
▁conditions	-1903
▁opportunity	-1904
▁advanced	-1905
ming	-1906
▁relig	-1907
▁promot	-1908
acity	-1909
▁Afgh	-1910
▁developed	-1911
▁adop	-1912
▁avoid	-1913
oh	-1914
▁dise	-1915
▁pressure	-1916
▁called	-1917
▁entire	-1918
▁sk	-1919
▁firms	-1920
▁invol	-1921
illions	-1922
▁bar	-1923
▁rece	-1924
irc	-1925
▁Central	-1926
lia	-1927
▁bad	-1928
ighb	-1929
▁officials	-1930
raz	-1931
▁groups	-1932
▁histor	-1933
▁school	-1934
▁Cl	-1935
▁said	-1936
▁Afghan	-1937
▁deficit	-1938
▁Americans	-1939
▁All	-1940
lt	-1941
iting	-1942
▁strengthen	-1943
▁var	-1944
rated	-1945
▁assets	-1946
ource	-1947
▁consumption	-1948
pped	-1949
▁dam	-1950
▁done	-1951
▁young	-1952
▁supply	-1953
▁tot	-1954
▁Coun	-1955
ned	-1956
▁mar	-1957
▁consequences	-1958
▁vis	-1959
▁effort	-1960
▁Council	-1961
▁whose	-1962
iveness	-1963
▁average	-1964
▁export	-1965
▁kind	-1966
ured	-1967
▁politicians	-1968
cl	-1969
rag	-1970
▁effects	-1971
▁ess	-1972
rams	-1973
▁UK	-1974
ify	-1975
▁Fund	-1976
▁until	-1977
ented	-1978
▁norm	-1979
▁production	-1980
▁requires	-1981
mber	-1982
ean	-1983
▁taken	-1984
ruption	-1985
▁creat	-1986
▁Q	-1987
▁cooperation	-1988
CB	-1989
▁unlike	-1990
▁working	-1991
▁productivity	-1992
▁reach	-1993
▁leading	-1994
▁several	-1995
▁Res	-1996
reg	-1997
▁changes	-1998
▁months	-1999
▁single	-2000
▁largest	-2001
▁look	-2002
▁borrow	-2003
razil	-2004
▁Pro	-2005
▁class	-2006
▁think	-2007
▁failed	-2008
▁neighb	-2009
▁annual	-2010
▁cause	-2011
▁assum	-2012
▁demon	-2013
▁weapons	-2014
▁Prime	-2015
▁water	-2016
▁coal	-2017
▁largely	-2018
▁respect	-2019
▁ill	-2020
▁created	-2021
imul	-2022
▁Cong	-2023
▁drug	-2024
▁household	-2025
rade	-2026
▁Many	-2027
▁successful	-2028
▁fav	-2029
▁death	-2030
▁Such	-2031
▁test	-2032
▁influence	-2033
▁don	-2034
▁structural	-2035
▁policymakers	-2036
igr	-2037
▁ways	-2038
liament	-2039
▁opposition	-2040
med	-2041
▁excess	-2042
▁popular	-2043
oday	-2044
▁powerful	-2045
▁Bar	-2046
▁King	-2047
▁banking	-2048
▁Z	-2049
▁emissions	-2050
▁197	-2051
▁voters	-2052
▁leader	-2053
ne	-2054
▁debate	-2055
▁attempt	-2056
ensive	-2057
market	-2058
▁Democ	-2059
istance	-2060
down	-2061
▁massive	-2062
▁perform	-2063
▁programs	-2064
▁8	-2065
ched	-2066
wide	-2067
ds	-2068
▁fundamental	-2069
▁Ge	-2070
aging	-2071
▁Today	-2072
▁beyond	-2073
iversity	-2074
▁Par	-2075
▁agg	-2076
sid	-2077
▁prob	-2078
▁alone	-2079
▁total	-2080
▁determ	-2081
ored	-2082
▁gre	-2083
iding	-2084
▁initi	-2085
mb	-2086
▁Ab	-2087
▁Asian	-2088
▁counter	-2089
▁capacity	-2090
▁violence	-2091
▁scient	-2092
▁stimul	-2093
▁particip	-2094
▁environment	-2095
▁flow	-2096
▁live	-2097
▁day	-2098
▁Brazil	-2099
▁demonst	-2100
TO	-2101
rec	-2102
▁prec	-2103
ruction	-2104
▁kill	-2105
igration	-2106
▁Nations	-2107
▁funds	-2108
thing	-2109
▁agend	-2110
uted	-2111
ember	-2112
▁behav	-2113
▁necessary	-2114
omb	-2115
▁partners	-2116
▁affect	-2117
▁perhaps	-2118
ortunately	-2119
▁strategic	-2120
▁makes	-2121
▁transp	-2122
▁ECB	-2123
inking	-2124
▁Islamic	-2125
alled	-2126
▁Saud	-2127
▁industry	-2128
ene	-2129
▁Given	-2130
▁Japanese	-2131
▁expected	-2132
▁relationship	-2133
verse	-2134
ories	-2135
▁proper	-2136
1,	-2137
▁expand	-2138
atory	-2139
▁having	-2140
itted	-2141
▁failure	-2142
▁majority	-2143
▁away	-2144
▁goods	-2145
▁natural	-2146
▁quick	-2147
hood	-2148
arily	-2149
ously	-2150
▁activ	-2151
▁idea	-2152
▁media	-2153
reedom	-2154
▁underm	-2155
▁ability	-2156
ya	-2157
▁mov	-2158
▁shift	-2159
▁object	-2160
fer	-2161
▁lives	-2162
▁decline	-2163
lev	-2164
▁cy	-2165
▁pass	-2166
exic	-2167
▁opt	-2168
▁rad	-2169
▁began	-2170
ien	-2171
andid	-2172
ris	-2173
▁Now	-2174
▁give	-2175
▁ten	-2176
▁Italy	-2177
▁Mon	-2178
▁gas	-2179
▁prim	-2180
oviet	-2181
▁win	-2182
▁propos	-2183
▁elections	-2184
▁increasing	-2185
▁exports	-2186
▁del	-2187
▁Cons	-2188
▁Acc	-2189
▁aid	-2190
att	-2191
▁san	-2192
▁huge	-2193
▁benefit	-2194
▁sustainable	-2195
▁seen	-2196
▁Mexic	-2197
▁Afghanistan	-2198
▁ult	-2199
lying	-2200
▁Inst	-2201
gent	-2202
▁willing	-2203
▁subst	-2204
▁depend	-2205
▁mis	-2206
ledge	-2207
▁inequality	-2208
▁altern	-2209
▁candid	-2210
▁lost	-2211
▁soon	-2212
▁discuss	-2213
set	-2214
▁How	-2215
▁surpr	-2216
fact	-2217
▁clos	-2218
▁governance	-2219
▁eth	-2220
▁nearly	-2221
▁circ	-2222
▁obs	-2223
▁legit	-2224
▁negotiations	-2225
▁jud	-2226
▁perm	-2227
de	-2228
oring	-2229
▁later	-2230
▁break	-2231
▁legal	-2232
▁taxes	-2233
▁Pe	-2234
▁incent	-2235
sw	-2236
▁predict	-2237
▁rich	-2238
▁prosper	-2239
▁solution	-2240
▁mom	-2241
▁recovery	-2242
▁news	-2243
▁occur	-2244
▁Instead	-2245
▁innovation	-2246
▁prior	-2247
▁protection	-2248
▁reven	-2249
owers	-2250
▁feel	-2251
▁fram	-2252
▁doing	-2253
▁argu	-2254
▁evidence	-2255
▁ear	-2256
▁agenda	-2257
60	-2258
▁design	-2259
▁either	-2260
ton	-2261
▁wee	-2262
▁economists	-2263
▁Palestinian	-2264
▁vol	-2265
▁path	-2266
▁wide	-2267
▁contrast	-2268
▁NA	-2269
ream	-2270
▁unp	-2271
▁revolution	-2272
▁bonds	-2273
▁became	-2274
▁Commission	-2275
ape	-2276
▁prospect	-2277
▁amb	-2278
put	-2279
lies	-2280
▁third	-2281
▁comes	-2282
▁taking	-2283
▁environmental	-2284
▁respond	-2285
▁union	-2286
itarian	-2287
▁employ	-2288
▁experience	-2289
▁industrial	-2290
go	-2291
rugg	-2292
▁exc	-2293
apse	-2294
▁Like	-2295
▁Develop	-2296
line	-2297
▁really	-2298
▁Congress	-2299
uster	-2300
▁domin	-2301
▁9	-2302
▁read	-2303
▁owing	-2304
▁vir	-2305
ody	-2306
▁First	-2307
▁insur	-2308
▁Kingdom	-2309
▁general	-2310
▁authorities	-2311
▁represent	-2312
▁behind	-2313
▁middle	-2314
▁something	-2315
▁globalization	-2316
▁Lib	-2317
▁wrong	-2318
▁extreme	-2319
▁vote	-2320
▁highly	-2321
min	-2322
ternal	-2323
aced	-2324
▁State	-2325
▁things	-2326
based	-2327
▁living	-2328
▁nothing	-2329
lin	-2330
▁Geor	-2331
▁strugg	-2332
▁cru	-2333
▁side	-2334
chan	-2335
right	-2336
▁stock	-2337
erves	-2338
▁behavior	-2339
▁probably	-2340
▁subsid	-2341
▁values	-2342
▁along	-2343
▁opportunities	-2344
▁situation	-2345
rought	-2346
▁Soviet	-2347
▁trillion	-2348
▁Lat	-2349
ring	-2350
▁Saudi	-2351
▁ground	-2352
▁skill	-2353
▁attack	-2354
ieved	-2355
ufact	-2356
▁immed	-2357
▁trend	-2358
▁powers	-2359
▁presidential	-2360
ina	-2361
▁super	-2362
▁advant	-2363
nect	-2364
▁indic	-2365
▁estim	-2366
▁freedom	-2367
▁integration	-2368
▁investments	-2369
▁di	-2370
▁sw	-2371
▁shar	-2372
▁moment	-2373
▁rat	-2374
▁Ag	-2375
▁cases	-2376
▁goal	-2377
▁complex	-2378
▁X	-2379
▁late	-2380
▁recession	-2381
▁record	-2382
head	-2383
arant	-2384
zer	-2385
▁den	-2386
▁traditional	-2387
▁collapse	-2388
▁tem	-2389
▁reality	-2390
ricult	-2391
het	-2392
▁ge	-2393
aving	-2394
▁previous	-2395
▁deficits	-2396
▁laun	-2397
▁analy	-2398
izations	-2399
▁actually	-2400
▁substant	-2401
ology	-2402
▁using	-2403
▁matter	-2404
▁minister	-2405
ctors	-2406
▁worse	-2407
▁Security	-2408
while	-2409
▁Global	-2410
force	-2411
▁corporate	-2412
▁territ	-2413
▁National	-2414
▁uncertain	-2415
▁jo	-2416
imately	-2417
▁indeed	-2418
▁status	-2419
▁manufact	-2420
▁following	-2421
ls	-2422
▁arr	-2423
▁men	-2424
▁limited	-2425
▁attention	-2426
▁host	-2427
icy	-2428
▁ask	-2429
agn	-2430
aid	-2431
▁held	-2432
▁took	-2433
▁larger	-2434
iance	-2435
▁guarant	-2436
ung	-2437
▁Be	-2438
▁lat	-2439
▁adjust	-2440
▁include	-2441
▁resol	-2442
mp	-2443
▁mob	-2444
ulner	-2445
▁sharp	-2446
ension	-2447
▁coming	-2448
OR	-2449
▁deli	-2450
ological	-2451
▁corruption	-2452
ets	-2453
▁protest	-2454
▁NE	-2455
▁Latin	-2456
olit	-2457
ception	-2458
▁outcome	-2459
ired	-2460
ones	-2461
▁sett	-2462
▁air	-2463
▁ign	-2464
▁answ	-2465
▁relatively	-2466
▁prep	-2467
▁learn	-2468
▁According	-2469
▁standards	-2470
▁miss	-2471
▁mechan	-2472
▁concerns	-2473
▁NEW	-2474
▁Per	-2475
▁repl	-2476
▁avail	-2477
▁external	-2478
▁conv	-2479
▁Israeli	-2480
▁mere	-2481
▁collect	-2482
lig	-2483
▁Sim	-2484
▁burd	-2485
▁mist	-2486
▁stop	-2487
▁favor	-2488
▁announ	-2489
plus	-2490
▁near	-2491
▁reducing	-2492
▁rein	-2493
igrants	-2494
▁legis	-2495
▁attract	-2496
&#	-2497
5,	-2498
iquid	-2499
▁religious	-2500
af	-2501
called	-2502
unction	-2503
▁quickly	-2504
▁movement	-2505
▁known	-2506
▁purch	-2507
▁vulner	-2508
use	-2509
▁cat	-2510
▁African	-2511
ification	-2512
▁obvious	-2513
▁decisions	-2514
▁competition	-2515
▁results	-2516
▁Ad	-2517
▁framew	-2518
▁explain	-2519
▁fed	-2520
arter	-2521
▁confidence	-2522
▁let	-2523
iated	-2524
leg	-2525
▁produce	-2526
▁critical	-2527
▁unlikely	-2528
▁-	-2529
▁words	-2530
▁intervention	-2531
ters	-2532
ault	-2533
▁cities	-2534
ator	-2535
▁commitment	-2536
year	-2537
▁came	-2538
▁easy	-2539
▁asset	-2540
▁Ham	-2541
▁May	-2542
▁expans	-2543
▁meeting	-2544
▁certainly	-2545
▁rough	-2546
▁defense	-2547
▁refugees	-2548
ext	-2549
▁offer	-2550
AN	-2551
▁nar	-2552
▁surplus	-2553
sh	-2554
▁div	-2555
▁reb	-2556
▁suc	-2557
▁mind	-2558
ots	-2559
▁ve	-2560
▁Development	-2561
▁Mexico	-2562
▁attacks	-2563
lex	-2564
▁Spain	-2565
▁Barack	-2566
▁cuts	-2567
ached	-2568
▁sent	-2569
oy	-2570
▁desc	-2571
▁above	-2572
▁NATO	-2573
my	-2574
▁cal	-2575
▁agricult	-2576
▁ir	-2577
▁Most	-2578
▁Greek	-2579
entially	-2580
usterity	-2581
▁financing	-2582
▁technologies	-2583
▁caused	-2584
▁established	-2585
ensus	-2586
▁succeed	-2587
▁Sc	-2588
▁currently	-2589
▁responsibility	-2590
▁surv	-2591
▁becoming	-2592
itable	-2593
▁beginning	-2594
▁worldwide	-2595
▁Since	-2596
lier	-2597
▁enter	-2598
vest	-2599
▁reserves	-2600
▁Great	-2601
▁creating	-2602
hest	-2603
▁line	-2604
▁elsewhere	-2605
▁sovereign	-2606
osing	-2607
▁millions	-2608
kn	-2609
▁Europeans	-2610
utes	-2611
▁univers	-2612
orn	-2613
rary	-2614
▁hous	-2615
▁projects	-2616
ech	-2617
ancing	-2618
▁negative	-2619
▁days	-2620
ees	-2621
▁age	-2622
▁reject	-2623
9,	-2624
ought	-2625
ressed	-2626
▁reasons	-2627
▁doubt	-2628
▁mechanism	-2629
▁recognize	-2630
▁dyn	-2631
▁heav	-2632
bi	-2633
▁cle	-2634
▁products	-2635
▁expansion	-2636
▁dram	-2637
▁dangerous	-2638
▁fig	-2639
▁Internet	-2640
▁clearly	-2641
▁continued	-2642
▁six	-2643
action	-2644
▁liquid	-2645
▁Although	-2646
▁spread	-2647
app	-2648
▁sanctions	-2649
rain	-2650
▁art	-2651
▁tend	-2652
ici	-2653
▁typ	-2654
▁basic	-2655
oph	-2656
une	-2657
ries	-2658
▁repe	-2659
▁roughly	-2660
rex	-2661
val	-2662
▁No	-2663
▁tool	-2664
ane	-2665
▁ce	-2666
income	-2667
▁below	-2668
▁Govern	-2669
▁helped	-2670
nces	-2671
acter	-2672
erate	-2673
▁2012	-2674
▁brought	-2675
acro	-2676
▁uns	-2677
retary	-2678
▁carbon	-2679
▁Monetary	-2680
▁fair	-2681
▁positive	-2682
▁won	-2683
loc	-2684
▁bi	-2685
▁organizations	-2686
rep	-2687
ison	-2688
ogra	-2689
ordin	-2690
▁alternative	-2691
▁performance	-2692
▁summ	-2693
▁refere	-2694
▁everyone	-2695
rats	-2696
▁unf	-2697
▁essential	-2698
▁parliament	-2699
hem	-2700
▁deg	-2701
▁knowledge	-2702
DG	-2703
▁Ex	-2704
▁raise	-2705
▁renew	-2706
▁thing	-2707
▁creation	-2708
oking	-2709
▁outside	-2710
▁moral	-2711
▁family	-2712
ressive	-2713
▁competit	-2714
▁personal	-2715
▁forced	-2716
ature	-2717
▁introdu	-2718
▁mess	-2719
▁disease	-2720
erc	-2721
uth	-2722
part	-2723
▁Des	-2724
-1	-2725
▁det	-2726
▁red	-2727
▁gradu	-2728
light	-2729
▁building	-2730
▁II	-2731
rist	-2732
▁twent	-2733
▁source	-2734
▁according	-2735
4,	-2736
▁assoc	-2737
ensions	-2738
▁allowed	-2739
▁company	-2740
enh	-2741
▁special	-2742
▁proposed	-2743
add	-2744
▁18	-2745
▁elimin	-2746
▁independence	-2747
aries	-2748
▁existing	-2749
▁required	-2750
3,	-2751
▁basis	-2752
▁choice	-2753
iment	-2754
▁severe	-2755
ites	-2756
▁austerity	-2757
▁businesses	-2758
cer	-2759
els	-2760
▁implic	-2761
▁distrib	-2762
▁1.	-2763
▁victory	-2764
▁output	-2765
▁stimulus	-2766
ands	-2767
▁Mean	-2768
▁answer	-2769
atically	-2770
▁thereby	-2771
▁Republican	-2772
aper	-2773
encies	-2774
▁scale	-2775
▁Arabia	-2776
used	-2777
▁expert	-2778
▁factors	-2779
▁crises	-2780
▁prosperity	-2781
pro	-2782
▁allies	-2783
ony	-2784
▁Dep	-2785
▁federal	-2786
ortion	-2787
▁continues	-2788
equ	-2789
▁Sw	-2790
ograph	-2791
▁framework	-2792
▁thought	-2793
economic	-2794
▁Meanwhile	-2795
▁advantage	-2796
▁available	-2797
▁transform	-2798
eneral	-2799
▁Leban	-2800
▁trust	-2801
▁center	-2802
▁person	-2803
▁Economic	-2804
-20	-2805
ptember	-2806
▁Can	-2807
ilities	-2808
▁leave	-2809
▁Second	-2810
ilt	-2811
▁provided	-2812
▁individuals	-2813
▁science	-2814
160	-2815
160;	-2816
▁rapidly	-2817
IN	-2818
▁institutional	-2819
▁forward	-2820
rexit	-2821
▁Indian	-2822
▁Federal	-2823
omin	-2824
making	-2825
▁fully	-2826
▁radical	-2827
▁additional	-2828
▁generation	-2829
%.	-2830
▁commod	-2831
off	-2832
▁mal	-2833
▁September	-2834
ox	-2835
sy	-2836
osp	-2837
▁Other	-2838
▁minor	-2839
▁independent	-2840
▁15	-2841
▁societies	-2842
par	-2843
▁mot	-2844
erb	-2845
ili	-2846
▁imposs	-2847
▁internal	-2848
ients	-2849
▁gains	-2850
▁instead	-2851
▁office	-2852
ibly	-2853
rust	-2854
▁Aust	-2855
▁dynam	-2856
▁Sec	-2857
lling	-2858
▁damage	-2859
pol	-2860
unn	-2861
▁Hamas	-2862
▁argue	-2863
▁management	-2864
▁Ass	-2865
▁savings	-2866
▁netw	-2867
▁cover	-2868
of	-2869
▁virt	-2870
▁agreed	-2871
▁deliver	-2872
duct	-2873
phas	-2874
▁subject	-2875
&#160;	-2876
▁recon	-2877
▁worth	-2878
unt	-2879
▁Mar	-2880
▁Unf	-2881
▁contain	-2882
▁aimed	-2883
▁macro	-2884
▁supposed	-2885
ann	-2886
▁hy	-2887
▁Rev	-2888
▁simple	-2889
▁transition	-2890
▁imper	-2891
▁incentives	-2892
▁earn	-2893
▁mark	-2894
▁afford	-2895
▁eventually	-2896
▁technological	-2897
zero	-2898
▁extra	-2899
▁questions	-2900
lled	-2901
▁pain	-2902
emic	-2903
ellig	-2904
▁inev	-2905
▁engage	-2906
▁vision	-2907
▁contract	-2908
▁Simil	-2909
▁funding	-2910
▁Unfortunately	-2911
iety	-2912
ishing	-2913
▁bub	-2914
▁vast	-2915
▁households	-2916
▁trou	-2917
▁explo	-2918
▁increases	-2919
hens	-2920
▁buy	-2921
▁dict	-2922
ott	-2923
▁Finally	-2924
▁insurance	-2925
▁harm	-2926
undred	-2927
▁solutions	-2928
▁effectively	-2929
▁critic	-2930
oks	-2931
ustain	-2932
▁assess	-2933
▁seek	-2934
lusion	-2935
▁ahead	-2936
▁talks	-2937
▁wages	-2938
▁appears	-2939
▁overall	-2940
rel	-2941
▁conserv	-2942
▁legitim	-2943
▁activities	-2944
▁crucial	-2945
▁reduced	-2946
ventional	-2947
▁emp	-2948
onald	-2949
▁orig	-2950
▁loans	-2951
▁borders	-2952
▁mort	-2953
▁claims	-2954
▁reached	-2955
▁restric	-2956
▁economics	-2957
sc	-2958
▁12	-2959
▁flows	-2960
aterial	-2961
▁facing	-2962
▁stronger	-2963
▁boom	-2964
ashing	-2965
▁burden	-2966
▁impossible	-2967
▁2007	-2968
▁emphas	-2969
▁farm	-2970
▁thous	-2971
▁link	-2972
▁phys	-2973
▁widely	-2974
▁providing	-2975
▁Med	-2976
▁Despite	-2977
umb	-2978
▁turned	-2979
▁nor	-2980
▁ideas	-2981
oot	-2982
▁$2	-2983
olid	-2984
▁hop	-2985
▁terrorism	-2986
ware	-2987
▁chance	-2988
▁normal	-2989
▁whole	-2990
▁authority	-2991
▁diplomatic	-2992
▁exec	-2993
▁commer	-2994
▁dollars	-2995
▁Clint	-2996
ask	-2997
ohn	-2998
▁cross	-2999
▁losses	-3000
▁matters	-3001
▁communities	-3002
▁Tw	-3003
gence	-3004
▁area	-3005
▁points	-3006
▁housing	-3007
▁sectors	-3008
▁consensus	-3009
itud	-3010
▁193	-3011
▁Just	-3012
▁road	-3013
▁shared	-3014
▁elected	-3015
hel	-3016
▁Not	-3017
▁Ke	-3018
onents	-3019
▁urban	-3020
iter	-3021
ried	-3022
▁goals	-3023
abilities	-3024
▁directly	-3025
▁draw	-3026
▁Clinton	-3027
▁Palestinians	-3028
▁describ	-3029
▁Jew	-3030
▁appear	-3031
▁thinking	-3032
aff	-3033
care	-3034
▁connect	-3035
▁quality	-3036
▁Secretary	-3037
uk	-3038
▁era	-3039
▁your	-3040
▁engine	-3041
▁suggests	-3042
▁neighbors	-3043
augh	-3044
▁border	-3045
▁events	-3046
▁nature	-3047
▁industries	-3048
%,	-3049
ellect	-3050
▁precise	-3051
ober	-3052
▁minim	-3053
▁study	-3054
▁stable	-3055
▁followed	-3056
▁character	-3057
do	-3058
▁gap	-3059
▁Commun	-3060
▁consumer	-3061
▁nation	-3062
▁consumers	-3063
▁trying	-3064
▁service	-3065
oman	-3066
▁list	-3067
▁material	-3068
opolit	-3069
▁Likewise	-3070
cont	-3071
▁196	-3072
▁culture	-3073
▁regions	-3074
▁significantly	-3075
cle	-3076
▁wat	-3077
nb	-3078
▁coup	-3079
▁limit	-3080
▁skills	-3081
den	-3082
▁Nor	-3083
arity	-3084
sector	-3085
▁politically	-3086
eng	-3087
rest	-3088
▁parts	-3089
▁liquidity	-3090
asion	-3091
▁occup	-3092
▁withd	-3093
▁pus	-3094
▁constra	-3095
▁deter	-3096
▁yield	-3097
▁Reserve	-3098
▁regulation	-3099
▁throughout	-3100
▁ultimately	-3101
▁encourage	-3102
▁mid	-3103
minbi	-3104
▁hundred	-3105
▁complete	-3106
▁My	-3107
▁Gaz	-3108
▁sal	-3109
celer	-3110
▁divid	-3111
▁vital	-3112
▁equity	-3113
fully	-3114
lands	-3115
▁wants	-3116
istent	-3117
▁sound	-3118
▁experien	-3119
▁difference	-3120
▁bro	-3121
▁prime	-3122
▁enh	-3123
aces	-3124
▁rob	-3125
▁fast	-3126
▁primary	-3127
going	-3128
pping	-3129
▁front	-3130
▁agreements	-3131
▁manufacturing	-3132
▁responsible	-3133
aul	-3134
rehens	-3135
▁fri	-3136
▁efficient	-3137
▁Pl	-3138
ustom	-3139
ulated	-3140
▁plans	-3141
▁easily	-3142
cher	-3143
▁tro	-3144
▁From	-3145
▁heart	-3146
elt	-3147
rect	-3148
▁fix	-3149
▁ste	-3150
▁size	-3151
iciency	-3152
▁seemed	-3153
▁Lebanon	-3154
▁warming	-3155
▁competitive	-3156
50	-3157
sec	-3158
lection	-3159
▁seeking	-3160
▁understanding	-3161
▁Net	-3162
▁poll	-3163
▁committed	-3164
▁John	-3165
▁sides	-3166
▁intellect	-3167
ORK	-3168
nbsp	-3169
▁Only	-3170
account	-3171
century	-3172
▁circum	-3173
ocks	-3174
▁Sen	-3175
eria	-3176
▁Soc	-3177
▁YORK	-3178
5.	-3179
▁Col	-3180
▁sufficient	-3181
▁pursue	-3182
▁reduction	-3183
▁terrorist	-3184
▁city	-3185
▁soft	-3186
▁conduct	-3187
▁renminbi	-3188
vert	-3189
war	-3190
▁Mal	-3191
▁Syrian	-3192
▁referend	-3193
▁direction	-3194
▁name	-3195
▁poore	-3196
▁argued	-3197
▁default	-3198
▁contrary	-3199
▁intellig	-3200
▁minist	-3201
nder	-3202
▁scen	-3203
▁wars	-3204
▁importance	-3205
1.	-3206
▁Korean	-3207
▁actions	-3208
▁bilateral	-3209
urs	-3210
▁Paris	-3211
▁steps	-3212
▁People	-3213
▁extent	-3214
▁provides	-3215
bo	-3216
▁trig	-3217
▁bail	-3218
atever	-3219
illing	-3220
▁summit	-3221
▁separ	-3222
▁fre	-3223
▁Over	-3224
▁jour	-3225
cember	-3226
▁Though	-3227
▁purp	-3228
lusive	-3229
▁argument	-3230
▁treatment	-3231
▁legitimacy	-3232
hern	-3233
▁destro	-3234
▁secure	-3235
▁vulnerable	-3236
▁embra	-3237
▁Christ	-3238
▁standard	-3239
▁Similarly	-3240
▁laws	-3241
▁cultural	-3242
auc	-3243
▁Sunn	-3244
▁demands	-3245
▁sources	-3246
▁flo	-3247
ender	-3248
▁core	-3249
▁promote	-3250
▁safe	-3251
▁save	-3252
▁quant	-3253
▁lending	-3254
▁excessive	-3255
iff	-3256
▁sens	-3257
holders	-3258
ovember	-3259
▁December	-3260
▁confront	-3261
ety	-3262
ops	-3263
angu	-3264
▁mut	-3265
▁reve	-3266
idency	-3267
▁enorm	-3268
▁subsidies	-3269
EL	-3270
▁apparent	-3271
nic	-3272
airs	-3273
▁dig	-3274
▁saving	-3275
▁produced	-3276
lif	-3277
sis	-3278
ique	-3279
antic	-3280
▁Trade	-3281
▁shows	-3282
▁withdraw	-3283
▁assistance	-3284
▁historical	-3285
cast	-3286
▁oblig	-3287
▁perman	-3288
▁targets	-3289
▁reflects	-3290
6,	-3291
▁going	-3292
▁focused	-3293
▁sometimes	-3294
▁zero	-3295
▁displ	-3296
▁origin	-3297
▁meaning	-3298
▁property	-3299
▁push	-3300
▁anything	-3301
▁Eng	-3302
▁House	-3303
▁pattern	-3304
▁November	-3305
▁structure	-3306
▁competitiveness	-3307
enth	-3308
▁tell	-3309
▁advoc	-3310
▁falling	-3311
▁immediate	-3312
▁substantial	-3313
ira	-3314
▁Thus	-3315
▁imag	-3316
▁takes	-3317
▁Brexit	-3318
▁faster	-3319
▁story	-3320
ustainable	-3321
▁log	-3322
▁George	-3323
▁partly	-3324
▁creditors	-3325
▁principle	-3326
▁multilateral	-3327
▁apprec	-3328
▁students	-3329
▁surve	-3330
▁intellectual	-3331
ita	-3332
▁defe	-3333
▁models	-3334
fficient	-3335
▁paid	-3336
▁serve	-3337
▁margin	-3338
▁scientific	-3339
▁expectations	-3340
pay	-3341
edly	-3342
▁try	-3343
▁limits	-3344
▁acceler	-3345
▁Xi	-3346
racies	-3347
▁aband	-3348
▁coalition	-3349
order	-3350
▁merely	-3351
▁regulatory	-3352
porary	-3353
▁Argent	-3354
▁Its	-3355
▁sou	-3356
▁batt	-3357
▁port	-3358
▁whom	-3359
▁latest	-3360
▁prospects	-3361
▁His	-3362
▁adopted	-3363
▁continent	-3364
▁commercial	-3365
▁week	-3366
▁option	-3367
▁neither	-3368
▁compared	-3369
men	-3370
uses	-3371
gency	-3372
▁Perhaps	-3373
▁changed	-3374
▁flex	-3375
▁frag	-3376
▁game	-3377
▁here	-3378
▁truth	-3379
▁earlier	-3380
▁referendum	-3381
oses	-3382
ights	-3383
▁biggest	-3384
▁enterpr	-3385
▁CA	-3386
▁electric	-3387
urm	-3388
izes	-3389
state	-3390
▁mand	-3391
▁shown	-3392
▁threats	-3393
▁Kh	-3394
▁York	-3395
▁becomes	-3396
▁finally	-3397
▁therefore	-3398
▁principles	-3399
▁mer	-3400
▁opin	-3401
▁abandon	-3402
uct	-3403
▁lose	-3404
▁faces	-3405
▁conclud	-3406
▁uncertainty	-3407
nty	-3408
▁acqu	-3409
▁Iranian	-3410
▁0.	-3411
▁compar	-3412
▁various	-3413
▁victim	-3414
▁announced	-3415
ignty	-3416
▁field	-3417
▁theory	-3418
zy	-3419
▁calls	-3420
ij	-3421
▁remark	-3422
▁membership	-3423
ancial	-3424
▁comprom	-3425
▁scenar	-3426
▁stabil	-3427
MB	-3428
iles	-3429
▁Mer	-3430
▁spend	-3431
▁thousands	-3432
com	-3433
▁Gu	-3434
▁Sch	-3435
▁abroad	-3436
EC	-3437
nal	-3438
orks	-3439
▁happen	-3440
▁Consider	-3441
▁presidency	-3442
▁book	-3443
▁Libya	-3444
▁Treat	-3445
▁Revolution	-3446
▁belief	-3447
▁function	-3448
▁Why	-3449
▁welf	-3450
acific	-3451
policy	-3452
▁Organ	-3453
▁speech	-3454
▁achieved	-3455
▁profession	-3456
▁Republicans	-3457
▁isol	-3458
▁stagn	-3459
▁himself	-3460
▁built	-3461
▁drugs	-3462
▁welfare	-3463
TON	-3464
▁Abe	-3465
▁dism	-3466
▁safety	-3467
▁General	-3468
rich	-3469
▁10%	-3470
▁imbal	-3471
▁accounts	-3472
▁circumst	-3473
ynes	-3474
ondon	-3475
third	-3476
▁unable	-3477
▁quarter	-3478
▁specific	-3479
idesp	-3480
thern	-3481
▁Last	-3482
▁Poland	-3483
idespread	-3484
uck	-3485
▁rele	-3486
▁adopt	-3487
orthern	-3488
▁incomes	-3489
▁Am	-3490
▁Ken	-3491
rehensive	-3492
anks	-3493
rowth	-3494
▁Both	-3495
▁wage	-3496
▁context	-3497
▁commodity	-3498
3.	-3499
▁worry	-3500
▁enable	-3501
▁macroeconomic	-3502
▁Cam	-3503
▁present	-3504
▁promise	-3505
▁lot	-3506
inary	-3507
▁vacc	-3508
▁volat	-3509
▁London	-3510
▁police	-3511
▁arrange	-3512
▁immigration	-3513
▁Go	-3514
▁Ju	-3515
aled	-3516
ulate	-3517
▁cash	-3518
▁profits	-3519
▁Econom	-3520
▁started	-3521
▁fighting	-3522
▁initiative	-3523
▁adap	-3524
▁prem	-3525
▁Their	-3526
▁bound	-3527
▁spent	-3528
▁tools	-3529
▁percent	-3530
▁trading	-3531
▁€	-3532
▁final	-3533
ubl	-3534
fect	-3535
▁stem	-3536
▁confere	-3537
▁sovereignty	-3538
iers	-3539
▁enj	-3540
aches	-3541
▁Gaza	-3542
▁solid	-3543
▁Treaty	-3544
▁precisely	-3545
ugh	-3546
▁deflation	-3547
▁widespread	-3548
▁CO	-3549
ossil	-3550
nam	-3551
▁Ph	-3552
itting	-3553
▁autom	-3554
▁candidates	-3555
▁30	-3556
iable	-3557
▁task	-3558
▁resulting	-3559
▁vers	-3560
▁diseases	-3561
▁Jan	-3562
▁sen	-3563
ifying	-3564
▁ethnic	-3565
▁insist	-3566
▁treaty	-3567
ieving	-3568
▁Donald	-3569
▁communic	-3570
▁struggle	-3571
kel	-3572
▁base	-3573
▁dead	-3574
▁went	-3575
▁space	-3576
▁addition	-3577
▁training	-3578
▁differences	-3579
vail	-3580
ING	-3581
know	-3582
levant	-3583
ference	-3584
▁circumstances	-3585
ER	-3586
inet	-3587
iring	-3588
▁barri	-3589
▁carry	-3590
▁causes	-3591
▁enormous	-3592
.)	-3593
▁pan	-3594
▁Comp	-3595
▁custom	-3596
▁geopolit	-3597
la	-3598
hib	-3599
▁secur	-3600
▁happened	-3601
ait	-3602
aling	-3603
ilies	-3604
▁optim	-3605
▁Eastern	-3606
▁operations	-3607
ray	-3608
icro	-3609
▁capt	-3610
▁comput	-3611
▁easing	-3612
▁strength	-3613
▁team	-3614
▁improved	-3615
▁supported	-3616
▁meant	-3617
▁managed	-3618
▁Su	-3619
▁Keynes	-3620
▁absence	-3621
▁appropr	-3622
▁running	-3623
▁possibility	-3624
▁2.	-3625
▁worst	-3626
AS	-3627
▁Bl	-3628
▁100	-3629
▁Har	-3630
ecause	-3631
▁round	-3632
▁trial	-3633
▁University	-3634
▁currencies	-3635
▁firm	-3636
▁gold	-3637
▁pack	-3638
rative	-3639
▁schools	-3640
▁intelligence	-3641
▁194	-3642
mar	-3643
ittee	-3644
▁bomb	-3645
▁prove	-3646
▁message	-3647
OND	-3648
▁hour	-3649
▁Those	-3650
▁concent	-3651
▁estimated	-3652
ONDON	-3653
▁June	-3654
▁army	-3655
▁publ	-3656
▁hands	-3657
▁leaving	-3658
aves	-3659
▁sex	-3660
idered	-3661
▁measure	-3662
▁promises	-3663
▁received	-3664
▁Organization	-3665
▁"	-3666
hetor	-3667
▁outc	-3668
▁clean	-3669
▁LONDON	-3670
▁giving	-3671
▁Muslims	-3672
▁launched	-3673
uild	-3674
▁spir	-3675
▁drive	-3676
▁depends	-3677
▁activity	-3678
▁efficiency	-3679
▁Ma	-3680
enez	-3681
▁Cold	-3682
▁wind	-3683
▁asked	-3684
enezuel	-3685
▁repeated	-3686
▁considered	-3687
ull	-3688
reced	-3689
▁fell	-3690
▁tried	-3691
▁Another	-3692
▁broader	-3693
▁restrict	-3694
usion	-3695
▁diss	-3696
▁sold	-3697
▁range	-3698
▁rural	-3699
▁Because	-3700
▁bankers	-3701
▁construction	-3702
▁lies	-3703
▁fossil	-3704
▁Austral	-3705
▁facilit	-3706
▁Venezuel	-3707
▁transport	-3708
▁Democratic	-3709
co	-3710
ching	-3711
▁ratio	-3712
▁anyone	-3713
▁rhetor	-3714
▁highest	-3715
▁families	-3716
The	-3717
▁Er	-3718
time	-3719
▁Merkel	-3720
▁deeply	-3721
▁advance	-3722
▁raising	-3723
▁revenue	-3724
▁revenues	-3725
▁conflicts	-3726
▁hit	-3727
actions	-3728
recedented	-3729
▁associated	-3730
▁considerable	-3731
▁langu	-3732
▁capita	-3733
▁collective	-3734
3%	-3735
gn	-3736
▁infect	-3737
standing	-3738
▁designed	-3739
▁weakness	-3740
7%	-3741
▁Bo	-3742
▁legislation	-3743
ios	-3744
rimin	-3745
▁bill	-3746
▁tight	-3747
▁inform	-3748
▁Argentina	-3749
▁exception	-3750
▁equal	-3751
▁farmers	-3752
▁helping	-3753
▁justice	-3754
▁medical	-3755
▁returns	-3756
▁populist	-3757
▁unprecedented	-3758
▁bure	-3759
▁stake	-3760
▁opinion	-3761
▁hundreds	-3762
▁sustained	-3763
itig	-3764
lied	-3765
mark	-3766
▁Bro	-3767
▁sum	-3768
▁der	-3769
utive	-3770
▁exceed	-3771
▁imports	-3772
▁ensuring	-3773
▁identity	-3774
etic	-3775
ashington	-3776
▁disaster	-3777
▁involved	-3778
▁remained	-3779
sych	-3780
whel	-3781
▁mortg	-3782
▁Social	-3783
▁migration	-3784
▁instability	-3785
▁constitution	-3786
uary	-3787
0,000	-3788
▁mostly	-3789
▁permanent	-3790
▁acknow	-3791
▁factor	-3792
▁multip	-3793
▁borrowing	-3794
▁democracies	-3795
▁gl	-3796
aria	-3797
▁talk	-3798
▁Polit	-3799
▁prevail	-3800
▁resistance	-3801
ih	-3802
ada	-3803
reet	-3804
▁Sunni	-3805
▁driven	-3806
uine	-3807
▁2009	-3808
ceived	-3809
▁views	-3810
▁everything	-3811
raft	-3812
▁smaller	-3813
▁agencies	-3814
▁economist	-3815
see	-3816
▁usually	-3817
▁consolid	-3818
▁generally	-3819
ethe	-3820
▁Ber	-3821
▁closer	-3822
▁raised	-3823
▁regulations	-3824
▁comprehensive	-3825
▁bureauc	-3826
ze	-3827
▁goes	-3828
▁1990’	-3829
▁frequ	-3830
▁visit	-3831
▁worked	-3832
▁entirely	-3833
bles	-3834
▁unw	-3835
▁sell	-3836
▁Invest	-3837
▁allowing	-3838
▁outcomes	-3839
orb	-3840
umm	-3841
rene	-3842
▁Man	-3843
▁prefer	-3844
▁troops	-3845
▁controls	-3846
▁Do	-3847
▁colle	-3848
▁hor	-3849
▁obst	-3850
▁rare	-3851
lantic	-3852
▁light	-3853
itative	-3854
▁changing	-3855
▁overwhel	-3856
▁candidate	-3857
▁partnership	-3858
wan	-3859
▁due	-3860
▁During	-3861
ague	-3862
icip	-3863
▁squ	-3864
▁weeks	-3865
▁choose	-3866
▁compens	-3867
▁electoral	-3868
▁Co	-3869
scal	-3870
▁Cour	-3871
6%	-3872
▁places	-3873
▁concept	-3874
▁declared	-3875
▁credibility	-3876
yle	-3877
uman	-3878
inent	-3879
▁Sing	-3880
ames	-3881
back	-3882
▁wel	-3883
▁body	-3884
▁upon	-3885
▁adequ	-3886
▁eight	-3887
▁emerged	-3888
▁tensions	-3889
▁capitalism	-3890
▁DC	-3891
▁2010	-3892
▁root	-3893
reprene	-3894
etheless	-3895
▁genuine	-3896
▁journal	-3897
▁perspect	-3898
▁Tal	-3899
scale	-3900
▁assert	-3901
▁ongoing	-3902
▁receive	-3903
▁slowdown	-3904
▁enab	-3905
▁stage	-3906
▁greatest	-3907
▁July	-3908
iately	-3909
▁destroy	-3910
ieth	-3911
▁sought	-3912
▁highlight	-3913
▁Washington	-3914
▁recognized	-3915
ulf	-3916
▁AI	-3917
▁quite	-3918
reasury	-3919
▁killed	-3920
▁decided	-3921
▁overcome	-3922
▁pun	-3923
▁secular	-3924
▁conference	-3925
▁anim	-3926
▁susp	-3927
▁faced	-3928
raction	-3929
▁undermine	-3930
▁productive	-3931
ains	-3932
astro	-3933
uting	-3934
▁narrow	-3935
▁unless	-3936
ode	-3937
▁meth	-3938
▁cancer	-3939
▁crimin	-3940
▁instru	-3941
▁generate	-3942
▁suffering	-3943
..	-3944
4.	-3945
EN	-3946
ani	-3947
▁202	-3948
remlin	-3949
▁implies	-3950
▁populations	-3951
▁authoritarian	-3952
anda	-3953
coming	-3954
▁stands	-3955
▁restore	-3956
▁contribute	-3957
▁agricultural	-3958
▁organization	-3959
gen	-3960
▁50	-3961
▁Cal	-3962
▁getting	-3963
▁regimes	-3964
▁ey	-3965
▁Non	-3966
▁pen	-3967
eenth	-3968
▁Kremlin	-3969
▁mention	-3970
▁Islamist	-3971
▁payments	-3972
▁Financial	-3973
ints	-3974
orial	-3975
▁resist	-3976
▁offered	-3977
▁barriers	-3978
▁practices	-3979
aks	-3980
ula	-3981
▁Kim	-3982
▁Tai	-3983
which	-3984
▁Will	-3985
▁told	-3986
govern	-3987
▁forms	-3988
▁hardly	-3989
▁migrants	-3990
▁proposal	-3991
▁guarantee	-3992
▁participation	-3993
▁viewed	-3994
uries	-3995
▁digital	-3996
▁rhetoric	-3997
▁initiatives	-3998
▁potentially	-3999
ev	-4000
▁Nig	-4001
endit	-4002
▁Kurd	-4003
aching	-4004
▁Court	-4005
▁improving	-4006
▁geopolitical	-4007
4%	-4008
oil	-4009
▁ties	-4010
▁complic	-4011
▁nations	-4012
▁numbers	-4013
▁scientists	-4014
▁Then	-4015
▁depos	-4016
▁fears	-4017
▁supporters	-4018
▁transformation	-4019
IV	-4020
▁beg	-4021
▁Rather	-4022
▁deaths	-4023
▁diplomacy	-4024
▁percentage	-4025
DS	-4026
lar	-4027
▁Dav	-4028
▁block	-4029
▁lesson	-4030
▁forecast	-4031
antly	-4032
asing	-4033
▁plat	-4034
▁aggreg	-4035
▁moving	-4036
▁fundament	-4037
▁strategies	-4038
▁establishment	-4039
kept	-4040
itude	-4041
ares	-4042
▁revers	-4043
▁southern	-4044
▁entreprene	-4045
▁implemented	-4046
7,	-4047
DGE	-4048
isc	-4049
MBRI	-4050
aste	-4051
ikes	-4052
efense	-4053
▁chann	-4054
MBRIDGE	-4055
▁Taiwan	-4056
▁mainly	-4057
▁Indones	-4058
▁CAMBRIDGE	-4059
▁estimates	-4060
▁otherwise	-4061
▁positions	-4062
▁commitments	-4063
ollah	-4064
▁bott	-4065
▁psych	-4066
▁alliance	-4067
▁practice	-4068
-200	-4069
long	-4070
lows	-4071
risis	-4072
▁pace	-4073
reland	-4074
▁Under	-4075
▁combined	-4076
▁expendit	-4077
ote	-4078
▁Turk	-4079
▁arms	-4080
▁join	-4081
▁exerc	-4082
▁medium	-4083
▁experts	-4084
▁priority	-4085
1%	-4086
sts	-4087
▁fallen	-4088
▁played	-4089
▁transfer	-4090
atis	-4091
▁Sea	-4092
▁mor	-4093
▁mach	-4094
▁debts	-4095
▁January	-4096
▁scenario	-4097
more	-4098
▁esc	-4099
▁includes	-4100
▁correct	-4101
▁involve	-4102
▁sharply	-4103
▁analysis	-4104
car	-4105
lad	-4106
run	-4107
urt	-4108
ogue	-4109
▁exact	-4110
▁manip	-4111
▁Ireland	-4112
▁mechanisms	-4113
▁vo	-4114
anted	-4115
▁ordinary	-4116
-19	-4117
▁insp	-4118
istics	-4119
▁double	-4120
▁easier	-4121
▁suffer	-4122
▁electricity	-4123
▁implications	-4124
atures	-4125
▁remov	-4126
▁movements	-4127
▁ones	-4128
▁planet	-4129
▁disrupt	-4130
▁territory	-4131
▁continuing	-4132
rat	-4133
power	-4134
herent	-4135
▁defend	-4136
▁options	-4137
ructuring	-4138
▁universal	-4139
ria	-4140
▁ended	-4141
▁ruling	-4142
▁amounts	-4143
▁imbalances	-4144
▁conventional	-4145
▁distribution	-4146
wing	-4147
▁1990	-4148
▁rely	-4149
▁wanted	-4150
▁affairs	-4151
▁experienced	-4152
los	-4153
ods	-4154
▁har	-4155
▁accomp	-4156
▁actors	-4157
▁Brother	-4158
▁refugee	-4159
dden	-4160
▁demonstr	-4161
▁appropriate	-4162
raf	-4163
idents	-4164
▁2008,	-4165
▁compl	-4166
▁mount	-4167
▁works	-4168
▁intens	-4169
▁patients	-4170
▁aggregate	-4171
aren	-4172
▁Kong	-4173
▁pled	-4174
▁leverage	-4175
▁rational	-4176
▁everywhere	-4177
▁constitutional	-4178
▁room	-4179
ietnam	-4180
▁Trans	-4181
▁medic	-4182
▁proved	-4183
▁learned	-4184
▁prepared	-4185
doğ	-4186
▁Ital	-4187
▁Erdoğ	-4188
▁dimin	-4189
▁bankrupt	-4190
▁platform	-4191
▁protests	-4192
ery	-4193
uous	-4194
▁spur	-4195
▁Erdoğan	-4196
▁appoint	-4197
▁tradition	-4198
ipe	-4199
▁ep	-4200
▁Nob	-4201
▁drop	-4202
ctober	-4203
▁March	-4204
▁motiv	-4205
▁senior	-4206
SE	-4207
▁cell	-4208
▁aware	-4209
▁inevitable	-4210
2,	-4211
eb	-4212
▁Hong	-4213
▁lines	-4214
▁seven	-4215
▁expensive	-4216
▁adjustment	-4217
▁objectives	-4218
▁combination	-4219
▁Ro	-4220
▁court	-4221
related	-4222
▁degree	-4223
▁formal	-4224
IS	-4225
apital	-4226
iction	-4227
▁hopes	-4228
▁sudden	-4229
▁Whe	-4230
▁dro	-4231
▁enem	-4232
▁spect	-4233
▁impose	-4234
▁useful	-4235
▁October	-4236
▁Vietnam	-4237
▁resolve	-4238
▁twentieth	-4239
▁nationalism	-4240
alle	-4241
rage	-4242
illed	-4243
itter	-4244
▁gave	-4245
▁adapt	-4246
▁causing	-4247
▁driving	-4248
▁hon	-4249
▁Assad	-4250
▁armed	-4251
ivalent	-4252
▁desire	-4253
fall	-4254
▁accum	-4255
▁truly	-4256
▁immigrants	-4257
▁conservative	-4258
▁Te	-4259
▁Mod	-4260
▁calc	-4261
▁stra	-4262
▁Third	-4263
ructive	-4264
▁regulators	-4265
sk	-4266
▁gir	-4267
▁stay	-4268
▁Climate	-4269
▁replace	-4270
▁Democrats	-4271
ozy	-4272
▁phil	-4273
Americ	-4274
▁imped	-4275
▁bailout	-4276
▁reflected	-4277
▁underlying	-4278
2%	-4279
PP	-4280
▁Our	-4281
▁fire	-4282
arency	-4283
arkozy	-4284
▁obser	-4285
▁devast	-4286
▁legisl	-4287
▁prison	-4288
▁Without	-4289
▁towards	-4290
▁profound	-4291
▁promised	-4292
▁enterprises	-4293
▁acad	-4294
▁gone	-4295
roduct	-4296
▁perspective	-4297
ails	-4298
cers	-4299
▁sil	-4300
▁bear	-4301
▁alloc	-4302
▁unique	-4303
▁enforce	-4304
▁imposed	-4305
▁poorest	-4306
▁corporations	-4307
pin	-4308
pret	-4309
adequ	-4310
▁believed	-4311
▁virtually	-4312
▁Br	-4313
▁Two	-4314
▁Sarkozy	-4315
▁violent	-4316
liferation	-4317
gia	-4318
oud	-4319
rud	-4320
ffect	-4321
▁murd	-4322
▁figure	-4323
▁agriculture	-4324
▁ec	-4325
aught	-4326
ipher	-4327
ronic	-4328
▁bubble	-4329
▁declining	-4330
8%	-4331
oke	-4332
▁asp	-4333
▁choices	-4334
▁networks	-4335
▁whatever	-4336
▁ministers	-4337
▁seriously	-4338
▁destruction	-4339
▁restructuring	-4340
enn	-4341
ney	-4342
utr	-4343
▁offers	-4344
▁travel	-4345
▁heavily	-4346
▁holding	-4347
▁victims	-4348
vis	-4349
iban	-4350
▁fulf	-4351
▁symb	-4352
▁green	-4353
▁monit	-4354
▁battle	-4355
▁owners	-4356
▁Communist	-4357
▁developments	-4358
ores	-4359
rown	-4360
▁type	-4361
▁enjoy	-4362
▁recomm	-4363
▁friends	-4364
▁credible	-4365
▁Indonesia	-4366
▁immediately	-4367
▁maintaining	-4368
oly	-4369
urb	-4370
▁li	-4371
▁wond	-4372
▁trends	-4373
▁inclusive	-4374
▁proposals	-4375
▁generations	-4376
▁Swed	-4377
▁ready	-4378
▁active	-4379
▁defeat	-4380
▁desper	-4381
▁studies	-4382
▁occurred	-4383
▁Parliament	-4384
look	-4385
▁50%	-4386
▁schem	-4387
▁elites	-4388
▁dynamic	-4389
▁Treasury	-4390
▁resolution	-4391
Ch	-4392
iant	-4393
▁mitig	-4394
itation	-4395
▁resc	-4396
▁cycle	-4397
▁determine	-4398
ocu	-4399
fers	-4400
anging	-4401
ployed	-4402
▁2010,	-4403
▁shape	-4404
▁cutting	-4405
▁peaceful	-4406
▁decis	-4407
▁deprec	-4408
▁robust	-4409
▁mistake	-4410
▁whereas	-4411
▁bringing	-4412
▁physical	-4413
▁decide	-4414
▁lessons	-4415
▁Australia	-4416
icle	-4417
ustr	-4418
itious	-4419
▁cheap	-4420
▁profit	-4421
▁inadequ	-4422
▁concerned	-4423
▁objective	-4424
▁typically	-4425
▁ut	-4426
fuel	-4427
▁Turkish	-4428
▁affected	-4429
▁investig	-4430
▁minority	-4431
▁addressing	-4432
rank	-4433
ties	-4434
▁Vlad	-4435
▁ment	-4436
▁blame	-4437
▁accord	-4438
iagn	-4439
mbly	-4440
▁195	-4441
owned	-4442
ugust	-4443
▁joint	-4444
▁leads	-4445
▁mobil	-4446
▁persu	-4447
▁react	-4448
▁subsequ	-4449
▁opponents	-4450
▁Gre	-4451
▁bul	-4452
stood	-4453
▁Prot	-4454
ground	-4455
▁Taliban	-4456
▁purpose	-4457
▁resource	-4458
▁strengthening	-4459
asc	-4460
▁Fore	-4461
▁dial	-4462
▁language	-4463
inks	-4464
atisf	-4465
▁heavy	-4466
stitute	-4467
uations	-4468
▁confron	-4469
▁pension	-4470
▁turning	-4471
▁accepted	-4472
▁Venezuela	-4473
Euro	-4474
resp	-4475
▁parent	-4476
▁symbol	-4477
▁undert	-4478
▁related	-4479
▁presence	-4480
reme	-4481
▁wis	-4482
▁lend	-4483
▁dream	-4484
▁elite	-4485
▁taxpay	-4486
▁dictators	-4487
▁perceived	-4488
6.	-4489
▁20%	-4490
▁compe	-4491
▁looks	-4492
▁toler	-4493
▁Health	-4494
▁supporting	-4495
▁counterpart	-4496
▁demonstrated	-4497
leb	-4498
cons	-4499
▁chem	-4500
▁assume	-4501
▁divided	-4502
▁condition	-4503
▁described	-4504
▁determined	-4505
▁discussion	-4506
▁represents	-4507
▁economically	-4508
ager	-4509
usal	-4510
▁explan	-4511
▁obstac	-4512
▁preced	-4513
▁remind	-4514
▁peripher	-4515
▁willingness	-4516
acerb	-4517
orpor	-4518
▁foot	-4519
▁Every	-4520
▁knows	-4521
▁shock	-4522
▁youth	-4523
▁relevant	-4524
▁temporary	-4525
▁equivalent	-4526
▁institution	-4527
che	-4528
ancy	-4529
imir	-4530
ading	-4531
▁flaw	-4532
▁northern	-4533
▁liberalization	-4534
fin	-4535
SEAN	-4536
▁got	-4537
▁ASEAN	-4538
▁review	-4539
▁collaps	-4540
ibilities	-4541
▁Vladimir	-4542
▁promoting	-4543
▁dramatically	-4544
eda	-4545
▁17	-4546
fort	-4547
agers	-4548
luding	-4549
▁online	-4550
▁relief	-4551
bre	-4552
licit	-4553
▁Chile	-4554
▁Count	-4555
▁fuels	-4556
▁equally	-4557
▁pursuing	-4558
igor	-4559
▁fil	-4560
heast	-4561
▁Here	-4562
▁bene	-4563
stream	-4564
▁stead	-4565
▁August	-4566
▁deeper	-4567
▁exacerb	-4568
emen	-4569
▁brut	-4570
Europe	-4571
▁criticism	-4572
▁expanding	-4573
▁Me	-4574
irth	-4575
▁ric	-4576
class	-4577
first	-4578
▁east	-4579
▁crimes	-4580
ographic	-4581
▁although	-4582
▁contributed	-4583
let	-4584
▁She	-4585
count	-4586
▁Bang	-4587
▁Paul	-4588
▁Port	-4589
▁uncon	-4590
▁greenh	-4591
▁coordin	-4592
▁technical	-4593
▁compromise	-4594
▁conver	-4595
▁consist	-4596
▁defined	-4597
▁players	-4598
▁annually	-4599
onom	-4600
▁gained	-4601
▁summer	-4602
▁twenty	-4603
▁trouble	-4604
▁starting	-4605
▁$3	-4606
bled	-4607
▁hours	-4608
▁interven	-4609
8,	-4610
uty	-4611
▁Ky	-4612
▁bold	-4613
▁exit	-4614
▁solve	-4615
▁losing	-4616
▁temper	-4617
▁figures	-4618
▁possibly	-4619
▁delay	-4620
▁resil	-4621
▁opening	-4622
▁Palestine	-4623
aeda	-4624
appe	-4625
erous	-4626
onent	-4627
▁Shia	-4628
▁none	-4629
INGTON	-4630
▁begun	-4631
▁nomin	-4632
▁exactly	-4633
▁dramatic	-4634
▁greenhouse	-4635
urch	-4636
adays	-4637
level	-4638
iences	-4639
▁Colomb	-4640
▁closely	-4641
▁surprise	-4642
▁HIV	-4643
illeg	-4644
▁Constit	-4645
▁religion	-4646
▁necessarily	-4647
▁transparency	-4648
ASH	-4649
lihood	-4650
▁showed	-4651
▁processes	-4652
▁parliamentary	-4653
ias	-4654
▁25	-4655
▁tact	-4656
▁Jewish	-4657
▁modest	-4658
▁collabor	-4659
▁extremely	-4660
ift	-4661
ingu	-4662
▁Cub	-4663
▁mix	-4664
ional	-4665
▁Nobel	-4666
▁issued	-4667
▁command	-4668
▁observers	-4669
▁encouraging	-4670
rs	-4671
iny	-4672
▁Ne	-4673
ster	-4674
▁trip	-4675
▁faith	-4676
▁tempt	-4677
▁However	-4678
▁playing	-4679
▁Fortunately	-4680
IC	-4681
▁Gulf	-4682
▁WASH	-4683
artment	-4684
▁distin	-4685
▁Depression	-4686
▁territorial	-4687
▁arrangements	-4688
▁quantitative	-4689
pril	-4690
ordan	-4691
▁grown	-4692
▁partner	-4693
▁legitimate	-4694
▁requirements	-4695
▁Bal	-4696
▁sea	-4697
▁kept	-4698
▁critics	-4699
▁published	-4700
yl	-4701
ded	-4702
llor	-4703
▁ideal	-4704
▁gender	-4705
▁retire	-4706
security	-4707
▁regular	-4708
▁reinfor	-4709
▁civilian	-4710
▁WASHINGTON	-4711
anish	-4712
▁feed	-4713
contro	-4714
▁chief	-4715
▁earth	-4716
▁illeg	-4717
▁healthy	-4718
▁perfect	-4719
▁billions	-4720
gu	-4721
comm	-4722
▁Act	-4723
▁girls	-4724
▁shocks	-4725
▁happens	-4726
▁opposite	-4727
▁priorities	-4728
▁structures	-4729
trade	-4730
▁signed	-4731
▁discipl	-4732
▁reported	-4733
▁employees	-4734
▁producers	-4735
▁unsustainable	-4736
mad	-4737
eron	-4738
ires	-4739
▁sto	-4740
▁fate	-4741
▁lear	-4742
overed	-4743
▁Policy	-4744
▁keeping	-4745
▁universities	-4746
▁tack	-4747
iberal	-4748
▁added	-4749
▁monop	-4750
▁paper	-4751
▁signs	-4752
▁Jordan	-4753
▁mandate	-4754
▁terrorists	-4755
▁2%	-4756
ffic	-4757
▁saw	-4758
▁fost	-4759
▁bottom	-4760
ventions	-4761
▁putting	-4762
▁learning	-4763
▁ambitious	-4764
▁humanitarian	-4765
iot	-4766
▁bloc	-4767
▁grand	-4768
flation	-4769
▁arrest	-4770
▁moderate	-4771
▁understood	-4772
CS	-4773
enty	-4774
▁2015	-4775
▁trib	-4776
▁April	-4777
▁trigger	-4778
▁achieving	-4779
▁constraints	-4780
▁Cy	-4781
arsh	-4782
▁203	-4783
chers	-4784
▁writ	-4785
aining	-4786
▁survival	-4787
axim	-4788
orient	-4789
▁fewer	-4790
▁rival	-4791
▁urgent	-4792
▁intended	-4793
▁incentive	-4794
▁nationalist	-4795
ana	-4796
▁race	-4797
▁confir	-4798
▁search	-4799
▁interpret	-4800
▁remaining	-4801
ife	-4802
▁Rom	-4803
▁Sil	-4804
lines	-4805
icious	-4806
▁Franc	-4807
▁moved	-4808
▁mutual	-4809
▁Italian	-4810
▁promising	-4811
▁recognition	-4812
▁Mc	-4813
acing	-4814
▁speak	-4815
▁emerge	-4816
▁except	-4817
national	-4818
▁centuries	-4819
▁purchases	-4820
▁remarkable	-4821
▁volatility	-4822
oms	-4823
inian	-4824
▁Iraqi	-4825
▁frust	-4826
▁homes	-4827
▁offset	-4828
▁surely	-4829
▁historic	-4830
▁included	-4831
▁addressed	-4832
ECD	-4833
irect	-4834
rence	-4835
▁shap	-4836
itness	-4837
▁reluct	-4838
▁weight	-4839
▁criminal	-4840
▁inadequate	-4841
▁40%	-4842
▁sus	-4843
ailed	-4844
▁Hung	-4845
▁fixed	-4846
▁Chance	-4847
▁settlement	-4848
unis	-4849
arely	-4850
▁docu	-4851
▁plants	-4852
▁stress	-4853
▁establishing	-4854
pet	-4855
with	-4856
▁Reg	-4857
▁sort	-4858
▁Yemen	-4859
▁compr	-4860
▁parad	-4861
▁neighbor	-4862
▁gradually	-4863
▁pollution	-4864
▁implementation	-4865
yal	-4866
▁3.	-4867
▁cha	-4868
ijing	-4869
iling	-4870
carbon	-4871
mented	-4872
▁2011,	-4873
▁launch	-4874
▁capable	-4875
▁reports	-4876
su	-4877
▁($	-4878
▁30%	-4879
▁says	-4880
▁wave	-4881
▁1980’	-4882
▁2012,	-4883
▁applic	-4884
▁embrace	-4885
▁genetic	-4886
▁adequate	-4887
▁starters	-4888
▁proportion	-4889
▁securities	-4890
▁surprising	-4891
▁Governments	-4892
ested	-4893
▁Plan	-4894
itably	-4895
lected	-4896
▁Tunis	-4897
▁celeb	-4898
▁diagn	-4899
▁tough	-4900
▁track	-4901
aration	-4902
▁stance	-4903
▁entrepreneurs	-4904
ahu	-4905
era	-4906
ihad	-4907
▁Any	-4908
▁thr	-4909
pring	-4910
▁OECD	-4911
▁exam	-4912
▁votes	-4913
▁incomp	-4914
▁Foreign	-4915
▁marginal	-4916
▁Committee	-4917
▁essentially	-4918
EO	-4919
zb	-4920
ole	-4921
udd	-4922
▁PA	-4923
▁evol	-4924
▁Canada	-4925
▁threatened	-4926
▁educational	-4927
▁wake	-4928
▁Never	-4929
▁fueled	-4930
▁reward	-4931
▁served	-4932
▁Georgia	-4933
▁failing	-4934
▁reserve	-4935
▁eliminate	-4936
adow	-4937
▁Sud	-4938
odies	-4939
▁Cont	-4940
▁Once	-4941
▁risky	-4942
▁scope	-4943
uilding	-4944
▁costly	-4945
▁paying	-4946
▁Further	-4947
▁setting	-4948
▁explicit	-4949
▁pressures	-4950
▁restrictions	-4951
rid	-4952
▁Portug	-4953
▁planning	-4954
▁suffered	-4955
▁underpin	-4956
▁10	-4957
▁Em	-4958
ompl	-4959
igned	-4960
▁crop	-4961
▁grew	-4962
▁dialogue	-4963
NA	-4964
▁fal	-4965
anyahu	-4966
country	-4967
ospital	-4968
▁condem	-4969
▁Netanyahu	-4970
▁introduced	-4971
▁stagnation	-4972
ained	-4973
▁1980	-4974
▁opposed	-4975
▁emergence	-4976
▁primarily	-4977
ari	-4978
aily	-4979
▁Mac	-4980
reement	-4981
▁Beijing	-4982
▁England	-4983
▁imagine	-4984
▁solidarity	-4985
▁arch	-4986
▁brok	-4987
▁advis	-4988
▁disag	-4989
▁revol	-4990
▁legacy	-4991
▁mission	-4992
▁identify	-4993
▁rejected	-4994
▁regardless	-4995
hab	-4996
▁13	-4997
oubt	-4998
port	-4999
rote	-5000
▁Bel	-5001
▁anx	-5002
ultane	-5003
▁sales	-5004
▁series	-5005
▁aggressive	-5006
mon	-5007
-201	-5008
bank	-5009
▁Ben	-5010
▁shr	-5011
▁phen	-5012
▁qual	-5013
▁board	-5014
zbollah	-5015
▁pushed	-5016
▁Cameron	-5017
▁carried	-5018
▁reaching	-5019
▁approaches	-5020
pted	-5021
erved	-5022
▁deval	-5023
▁enact	-5024
▁engagement	-5025
▁innovative	-5026
▁lay	-5027
▁sac	-5028
▁Serb	-5029
▁Wall	-5030
▁cyber	-5031
▁engaged	-5032
▁network	-5033
▁practical	-5034
▁taxpayers	-5035
▁controvers	-5036
▁repeatedly	-5037
bas	-5038
rap	-5039
▁Ah	-5040
▁Unt	-5041
▁Ange	-5042
▁Still	-5043
▁maxim	-5044
isingly	-5045
▁corrupt	-5046
▁enhance	-5047
▁exposed	-5048
▁contracts	-5049
gic	-5050
▁BER	-5051
▁father	-5052
▁mother	-5053
▁compete	-5054
ordination	-5055
▁capabilities	-5056
cean	-5057
▁dri	-5058
▁lob	-5059
▁cong	-5060
▁pret	-5061
▁2013,	-5062
▁Human	-5063
▁wider	-5064
▁finding	-5065
▁strongly	-5066
▁targeted	-5067
▁transfers	-5068
Is	-5069
▁David	-5070
▁express	-5071
▁someone	-5072
ineteenth	-5073
▁sentiment	-5074
▁Chancellor	-5075
▁ideological	-5076
GO	-5077
anied	-5078
▁2011	-5079
▁prohib	-5080
▁Nigeria	-5081
▁persist	-5082
▁phenomen	-5083
▁Hezbollah	-5084
▁sustainability	-5085
▁IS	-5086
▁eru	-5087
▁ver	-5088
▁crow	-5089
▁irre	-5090
airman	-5091
estern	-5092
inding	-5093
▁birth	-5094
▁blood	-5095
▁newsp	-5096
▁telev	-5097
nership	-5098
ustrial	-5099
▁prosec	-5100
▁calling	-5101
▁proceed	-5102
▁conducted	-5103
▁evolution	-5104
arak	-5105
▁Naz	-5106
apore	-5107
iders	-5108
▁died	-5109
▁2009,	-5110
▁apply	-5111
▁wrote	-5112
▁ignore	-5113
▁Investment	-5114
▁integrated	-5115
ownt	-5116
▁via	-5117
using	-5118
▁settle	-5119
▁deterior	-5120
▁investing	-5121
▁protecting	-5122
▁undermining	-5123
US	-5124
amb	-5125
▁11	-5126
ebru	-5127
▁fem	-5128
▁vill	-5129
▁multi	-5130
Pacific	-5131
cession	-5132
ebruary	-5133
▁Growth	-5134
▁contem	-5135
▁looking	-5136
▁pushing	-5137
▁simultane	-5138
▁previously	-5139
▁obligations	-5140
▁transactions	-5141
▁sup	-5142
▁veh	-5143
▁downt	-5144
▁reass	-5145
▁humans	-5146
▁philos	-5147
▁Until	-5148
through	-5149
▁benefic	-5150
▁enabled	-5151
▁Israelis	-5152
▁standing	-5153
▁concluded	-5154
▁suggested	-5155
ola	-5156
rew	-5157
▁1%	-5158
free	-5159
▁woman	-5160
▁Beyond	-5161
ffective	-5162
▁failures	-5163
▁Singapore	-5164
▁appreciation	-5165
rog	-5166
▁die	-5167
ether	-5168
icles	-5169
▁wors	-5170
▁delib	-5171
▁Recent	-5172
▁slight	-5173
▁package	-5174
▁February	-5175
▁boosting	-5176
▁attractive	-5177
▁accompanied	-5178
2.	-5179
view	-5180
▁emot	-5181
▁norms	-5182
▁resear	-5183
▁chemical	-5184
▁equality	-5185
▁preventing	-5186
tax	-5187
ches	-5188
▁BRI	-5189
▁quo	-5190
being	-5191
uable	-5192
▁felt	-5193
▁black	-5194
▁linked	-5195
▁supplies	-5196
▁Christian	-5197
▁substantially	-5198
osn	-5199
uit	-5200
▁Car	-5201
ament	-5202
rowing	-5203
▁alike	-5204
▁defin	-5205
▁newly	-5206
appoint	-5207
▁latter	-5208
▁elements	-5209
egu	-5210
eth	-5211
debt	-5212
▁fat	-5213
▁wid	-5214
▁accompl	-5215
▁budgets	-5216
▁destabil	-5217
▁arguments	-5218
▁completely	-5219
▁withdrawal	-5220
ovo	-5221
▁Mor	-5222
ecess	-5223
▁Asse	-5224
▁turm	-5225
▁allows	-5226
▁secret	-5227
▁content	-5228
▁turmoil	-5229
▁welcome	-5230
▁Egyptian	-5231
▁regarded	-5232
▁predecess	-5233
▁reasonable	-5234
▁Nonetheless	-5235
son	-5236
idel	-5237
inced	-5238
▁crime	-5239
agement	-5240
▁satisf	-5241
American	-5242
▁bubbles	-5243
▁survive	-5244
▁Pakistani	-5245
▁isolation	-5246
DR	-5247
▁QE	-5248
border	-5249
▁belie	-5250
▁aspect	-5251
▁rating	-5252
▁notably	-5253
▁realize	-5254
ressional	-5255
▁Countries	-5256
how	-5257
▁Mos	-5258
▁bol	-5259
▁2014,	-5260
▁logic	-5261
▁charge	-5262
▁operate	-5263
▁hospital	-5264
▁emergency	-5265
mosp	-5266
ping	-5267
sels	-5268
▁tim	-5269
▁Jews	-5270
▁barg	-5271
ivered	-5272
▁polls	-5273
▁smart	-5274
▁weaker	-5275
▁adverse	-5276
▁discover	-5277
▁extraordin	-5278
▁Partnership	-5279
cks	-5280
ume	-5281
ifth	-5282
▁Kos	-5283
▁nav	-5284
▁peak	-5285
function	-5286
▁disputes	-5287
▁reaction	-5288
▁bankruptcy	-5289
▁Aut	-5290
ilipp	-5291
crisis	-5292
▁2015,	-5293
▁apart	-5294
▁enabl	-5295
▁discrimin	-5296
▁accounting	-5297
▁Os	-5298
amed	-5299
iled	-5300
▁tariff	-5301
▁autonom	-5302
▁Assembly	-5303
▁invasion	-5304
▁released	-5305
▁renewable	-5306
▁effectiveness	-5307
9.	-5308
TA	-5309
aded	-5310
hers	-5311
known	-5312
▁rose	-5313
▁colon	-5314
▁doesn	-5315
▁holds	-5316
▁unity	-5317
oriented	-5318
▁claimed	-5319
▁expense	-5320
▁killing	-5321
45	-5322
ns	-5323
book	-5324
▁Sup	-5325
ipped	-5326
▁2014	-5327
▁tour	-5328
▁Again	-5329
▁absol	-5330
▁atmosp	-5331
utrition	-5332
▁Philipp	-5333
▁disappe	-5334
▁minimum	-5335
▁bur	-5336
▁fort	-5337
ubarak	-5338
ogether	-5339
theless	-5340
▁Russians	-5341
▁downturn	-5342
▁contributions	-5343
ragm	-5344
icing	-5345
arters	-5346
clical	-5347
▁aging	-5348
ishment	-5349
▁spirit	-5350
▁malaria	-5351
▁advances	-5352
▁managers	-5353
▁experiment	-5354
▁dictatorship	-5355
gas	-5356
▁Ant	-5357
▁TPP	-5358
▁waste	-5359
▁Senate	-5360
▁creates	-5361
▁delivered	-5362
▁seemingly	-5363
7.	-5364
ador	-5365
lete	-5366
▁magn	-5367
▁scar	-5368
▁jihad	-5369
▁intent	-5370
▁initial	-5371
▁operating	-5372
▁explanation	-5373
▁flexibility	-5374
▁professional	-5375
20	-5376
dr	-5377
hi	-5378
rue	-5379
▁Ear	-5380
ashed	-5381
iforn	-5382
▁2013	-5383
▁Summ	-5384
▁clin	-5385
▁liter	-5386
ulating	-5387
▁Sweden	-5388
▁divers	-5389
▁perpet	-5390
▁Supreme	-5391
▁anticip	-5392
▁attempts	-5393
▁humanity	-5394
▁publicly	-5395
▁surround	-5396
▁nineteenth	-5397
▁instruments	-5398
ux	-5399
▁ran	-5400
▁tow	-5401
▁daily	-5402
▁placed	-5403
▁Defense	-5404
▁witness	-5405
▁conclusion	-5406
▁consistent	-5407
der	-5408
▁60%	-5409
lades	-5410
▁alle	-5411
▁champ	-5412
▁gives	-5413
oubtedly	-5414
▁Californ	-5415
▁declined	-5416
▁examples	-5417
▁ideology	-5418
▁shareholders	-5419
▁·	-5420
isp	-5421
▁16	-5422
ables	-5423
▁iron	-5424
▁Spring	-5425
▁harder	-5426
▁Mubarak	-5427
▁Banglades	-5428
▁negotiating	-5429
▁El	-5430
▁Sin	-5431
▁swe	-5432
▁micro	-5433
▁tests	-5434
▁appeal	-5435
▁libert	-5436
▁proced	-5437
▁comment	-5438
▁inflows	-5439
▁Portugal	-5440
▁soldiers	-5441
▁convinced	-5442
▁depression	-5443
duc	-5444
osis	-5445
▁brain	-5446
▁staff	-5447
▁closed	-5448
▁slowly	-5449
▁dismiss	-5450
▁announce	-5451
▁nowadays	-5452
▁surpluses	-5453
▁Furthermore	-5454
▁demonstrate	-5455
▁coordination	-5456
aust	-5457
▁Lead	-5458
▁ball	-5459
▁burn	-5460
▁skept	-5461
▁Street	-5462
▁saying	-5463
▁distort	-5464
▁offering	-5465
▁inevitably	-5466
ma	-5467
▁actual	-5468
▁escape	-5469
▁safegu	-5470
ifically	-5471
▁species	-5472
▁computer	-5473
▁negotiate	-5474
▁implementing	-5475
ami	-5476
imb	-5477
▁fra	-5478
▁born	-5479
▁sole	-5480
▁wish	-5481
▁word	-5482
▁Sudan	-5483
▁pharm	-5484
▁south	-5485
▁table	-5486
▁backed	-5487
▁barely	-5488
▁strike	-5489
European	-5490
▁parents	-5491
▁earnings	-5492
▁ple	-5493
▁solar	-5494
▁mobile	-5495
▁weaken	-5496
ophistic	-5497
▁prolong	-5498
▁dependent	-5499
▁executive	-5500
▁devastating	-5501
▁discussions	-5502
▁transparent	-5503
▁successfully	-5504
▁40	-5505
oned	-5506
▁knew	-5507
depend	-5508
istrib	-5509
▁Colombia	-5510
▁exercise	-5511
▁threaten	-5512
▁producing	-5513
▁statement	-5514
▁subsequent	-5515
ahar	-5516
▁vac	-5517
▁plant	-5518
▁joined	-5519
exchange	-5520
▁illegal	-5521
▁mortgage	-5522
▁ambitions	-5523
▁demanding	-5524
▁generated	-5525
▁television	-5526
▁z	-5527
ius	-5528
uff	-5529
fare	-5530
▁Add	-5531
▁obt	-5532
▁Cypr	-5533
▁stre	-5534
▁viable	-5535
▁wonder	-5536
▁reverse	-5537
▁sharing	-5538
▁wealthy	-5539
▁enabling	-5540
▁resulted	-5541
▁researchers	-5542
▁undoubtedly	-5543
rack	-5544
what	-5545
▁Peace	-5546
connect	-5547
ulative	-5548
▁variety	-5549
▁expressed	-5550
▁successor	-5551
▁occupation	-5552
▁contribution	-5553
DGs	-5554
que	-5555
▁alt	-5556
▁hot	-5557
unger	-5558
▁Bern	-5559
▁Prog	-5560
commun	-5561
urally	-5562
▁alarm	-5563
▁aspir	-5564
▁pragm	-5565
▁users	-5566
▁voted	-5567
▁resort	-5568
▁nominal	-5569
▁expanded	-5570
▁provision	-5571
▁California	-5572
▁interventions	-5573
rete	-5574
▁Yes	-5575
▁index	-5576
▁Malays	-5577
▁ending	-5578
▁chronic	-5579
▁decisive	-5580
▁customers	-5581
▁sophistic	-5582
isan	-5583
otic	-5584
size	-5585
agues	-5586
▁text	-5587
▁White	-5588
osition	-5589
▁attrib	-5590
▁combat	-5591
▁contrad	-5592
▁fragile	-5593
▁renewed	-5594
▁reconcil	-5595
▁replaced	-5596
▁periphery	-5597
▁demographic	-5598
▁counterparts	-5599
▁Pen	-5600
pected	-5601
utical	-5602
▁rebal	-5603
ocratic	-5604
▁Energy	-5605
▁Kosovo	-5606
▁conven	-5607
▁Tunisia	-5608
▁Whether	-5609
▁painful	-5610
▁returned	-5611
▁revealed	-5612
bit	-5613
agan	-5614
body	-5615
odox	-5616
▁lag	-5617
ilemm	-5618
▁Much	-5619
▁nine	-5620
▁badly	-5621
▁speed	-5622
▁passed	-5623
▁voting	-5624
▁Spanish	-5625
including	-5626
▁happening	-5627
▁od	-5628
alin	-5629
▁80%	-5630
▁2001,	-5631
▁retail	-5632
▁rulers	-5633
▁centers	-5634
▁flexible	-5635
▁Department	-5636
▁fundamentally	-5637
▁relationships	-5638
9%	-5639
oes	-5640
▁anc	-5641
gered	-5642
rating	-5643
▁leaves	-5644
▁narrative	-5645
▁5%	-5646
gment	-5647
ivate	-5648
▁2000	-5649
illenn	-5650
iments	-5651
▁equip	-5652
▁buying	-5653
▁dispute	-5654
▁stories	-5655
▁frequently	-5656
▁improvement	-5657
AR	-5658
zz	-5659
GDP	-5660
▁wa	-5661
agen	-5662
rees	-5663
vard	-5664
▁ded	-5665
ellow	-5666
▁ally	-5667
▁fert	-5668
resent	-5669
▁coast	-5670
▁deals	-5671
▁lacks	-5672
▁posed	-5673
▁rarely	-5674
▁sheets	-5675
veraging	-5676
▁channel	-5677
▁diverse	-5678
▁elector	-5679
▁refused	-5680
▁momentum	-5681
▁concerning	-5682
▁threatening	-5683
CE	-5684
▁$5	-5685
▁$1.	-5686
itten	-5687
▁High	-5688
ailand	-5689
▁write	-5690
product	-5691
▁evident	-5692
▁balanced	-5693
▁globally	-5694
▁systemic	-5695
▁Nevertheless	-5696
na	-5697
RIS	-5698
afi	-5699
▁aud	-5700
▁Blair	-5701
▁surge	-5702
▁Nether	-5703
▁unions	-5704
▁yields	-5705
▁applied	-5706
▁unwilling	-5707
▁weakening	-5708
▁guarantees	-5709
▁Netherlands	-5710
▁participants	-5711
▁accountability	-5712
ctr	-5713
adic	-5714
resh	-5715
▁lie	-5716
▁pie	-5717
anmar	-5718
▁eyes	-5719
▁phase	-5720
▁courts	-5721
▁survey	-5722
▁warned	-5723
reaching	-5724
▁downward	-5725
▁mistakes	-5726
▁civilians	-5727
▁university	-5728
tt	-5729
▁$4	-5730
▁acting	-5731
▁transm	-5732
▁wisdom	-5733
▁Thailand	-5734
▁absolute	-5735
▁academic	-5736
▁taxation	-5737
▁borrowers	-5738
▁encouraged	-5739
▁mainstream	-5740
▁struggling	-5741
▁journalists	-5742
CC	-5743
iev	-5744
▁Dut	-5745
▁Sub	-5746
▁ast	-5747
eping	-5748
▁reck	-5749
▁reput	-5750
▁ruled	-5751
▁twice	-5752
▁Unlike	-5753
▁rescue	-5754
▁sexual	-5755
▁dominant	-5756
▁weakened	-5757
▁facilities	-5758
▁innovations	-5759
▁simultaneously	-5760
▁Qaeda	-5761
▁entit	-5762
▁Germans	-5763
▁charges	-5764
intensive	-5765
▁extended	-5766
▁disappoint	-5767
▁Philippines	-5768
▁alternatives	-5769
▁compensation	-5770
8.	-5771
?”	-5772
AD	-5773
...	-5774
▁Cop	-5775
ommod	-5776
▁Hist	-5777
▁north	-5778
▁brutal	-5779
▁divide	-5780
▁proven	-5781
▁pursued	-5782
▁warning	-5783
aceutical	-5784
▁managing	-5785
▁remember	-5786
▁valuable	-5787
▁acknowled	-5788
▁responses	-5789
▁assessment	-5790
▁imperative	-5791
▁supposedly	-5792
oon	-5793
▁dim	-5794
addam	-5795
sight	-5796
▁kinds	-5797
▁raises	-5798
▁transl	-5799
▁version	-5800
▁imperial	-5801
▁similarly	-5802
▁Brotherhood	-5803
▁60	-5804
rant	-5805
▁Burm	-5806
igrant	-5807
termath	-5808
▁Market	-5809
▁volunt	-5810
▁debates	-5811
▁shifting	-5812
▁aftermath	-5813
▁retirement	-5814
▁consolidation	-5815
ao	-5816
aut	-5817
▁sem	-5818
point	-5819
▁Spec	-5820
▁Kenya	-5821
▁Rober	-5822
▁flood	-5823
▁helps	-5824
▁image	-5825
▁shares	-5826
▁methods	-5827
▁discoura	-5828
▁educated	-5829
▁displaced	-5830
▁Bangladesh	-5831
▁complicated	-5832
IA	-5833
rum	-5834
▁14	-5835
▁hege	-5836
▁sacr	-5837
▁decent	-5838
▁extend	-5839
▁Myanmar	-5840
▁missile	-5841
▁pointed	-5842
▁stimulate	-5843
▁Sm	-5844
▁aw	-5845
▁25%	-5846
▁Are	-5847
▁Modi	-5848
▁cast	-5849
ashion	-5850
▁diver	-5851
▁usual	-5852
▁Rights	-5853
▁absorb	-5854
▁fourth	-5855
interest	-5856
▁streets	-5857
▁dominated	-5858
oto	-5859
ura	-5860
▁App	-5861
▁Eth	-5862
oning	-5863
▁accur	-5864
▁heads	-5865
▁polar	-5866
▁advice	-5867
▁multiple	-5868
▁Institute	-5869
▁Nic	-5870
▁bra	-5871
▁zone	-5872
thirds	-5873
▁1970’	-5874
▁print	-5875
▁exclud	-5876
▁trials	-5877
outheast	-5878
▁stopped	-5879
▁weather	-5880
▁worried	-5881
▁distingu	-5882
▁ultimate	-5883
▁atmosphere	-5884
osy	-5885
soc	-5886
oted	-5887
▁2005	-5888
▁Free	-5889
▁2008.	-5890
▁adult	-5891
▁facts	-5892
▁fails	-5893
▁guide	-5894
▁bodies	-5895
▁Pacific	-5896
▁profess	-5897
▁showing	-5898
▁accommod	-5899
▁annivers	-5900
▁approval	-5901
▁purchase	-5902
▁breakthrough	-5903
lock	-5904
▁escal	-5905
▁united	-5906
▁broadly	-5907
▁comfort	-5908
▁damaging	-5909
▁redistrib	-5910
▁background	-5911
▁purchasing	-5912
▁strengthened	-5913
now	-5914
▁hab	-5915
bling	-5916
inded	-5917
integ	-5918
▁Bill	-5919
▁Four	-5920
rights	-5921
▁Abbas	-5922
▁chaos	-5923
▁recip	-5924
▁bigger	-5925
▁friend	-5926
▁marked	-5927
▁ethical	-5928
▁properly	-5929
▁component	-5930
▁ownership	-5931
▁progressive	-5932
▁consistently	-5933
mpt	-5934
▁3%	-5935
▁Mu	-5936
apers	-5937
▁Holl	-5938
▁cars	-5939
▁dark	-5940
▁aside	-5941
▁Angela	-5942
▁Church	-5943
▁brings	-5944
▁cooper	-5945
▁eastern	-5946
▁populism	-5947
▁triggered	-5948
▁consequence	-5949
▁participate	-5950
▁confrontation	-5951
▁,	-5952
ips	-5953
▁70%	-5954
▁Jer	-5955
▁Cuba	-5956
▁aims	-5957
ptions	-5958
▁2007,	-5959
▁voice	-5960
▁white	-5961
illance	-5962
▁Hungary	-5963
▁diversity	-5964
▁succeeded	-5965
▁facilitate	-5966
▁minorities	-5967
cker	-5968
work	-5969
▁Mah	-5970
style	-5971
▁pict	-5972
▁runs	-5973
astrop	-5974
▁argues	-5975
▁alleged	-5976
▁dealing	-5977
▁fulfill	-5978
▁concrete	-5979
▁reliable	-5980
▁Cz	-5981
▁lab	-5982
▁brid	-5983
▁enth	-5984
▁hero	-5985
▁rout	-5986
▁send	-5987
▁uses	-5988
osystem	-5989
▁gather	-5990
▁manner	-5991
▁opened	-5992
▁thanks	-5993
▁original	-5994
▁patterns	-5995
▁carefully	-5996
▁colleagues	-5997
▁expenditures	-5998
▁overwhelming	-5999
▁representatives	-6000
AI	-6001
Es	-6002
▁4.	-6003
▁Bol	-6004
agger	-6005
▁forg	-6006
▁shut	-6007
▁false	-6008
▁loyal	-6009
▁Change	-6010
▁Saddam	-6011
▁mobility	-6012
▁separate	-6013
▁materials	-6014
▁foundation	-6015
▁phenomenon	-6016
▁considerably	-6017
▁revolutionary	-6018
▁pharmaceutical	-6019
▁Law	-6020
enced	-6021
▁depart	-6022
▁hunger	-6023
▁mental	-6024
▁Justice	-6025
▁treated	-6026
▁appeared	-6027
▁benefited	-6028
▁inclusion	-6029
▁discipline	-6030
▁depreciation	-6031
cow	-6032
olar	-6033
▁pet	-6034
democ	-6035
efore	-6036
icial	-6037
itect	-6038
▁epid	-6039
erving	-6040
establ	-6041
ounded	-6042
▁types	-6043
ressing	-6044
▁stocks	-6045
▁capture	-6046
▁presidents	-6047
▁undermined	-6048
▁acknowledge	-6049
ball	-6050
ocol	-6051
pper	-6052
▁Bash	-6053
▁gets	-6054
asters	-6055
ranean	-6056
▁Dutch	-6057
▁Roman	-6058
▁abuse	-6059
▁storm	-6060
▁Agency	-6061
▁Robert	-6062
▁notion	-6063
▁shadow	-6064
▁traged	-6065
▁Holland	-6066
▁coverage	-6067
▁identified	-6068
▁prosperous	-6069
▁engineering	-6070
omal	-6071
pass	-6072
▁CEO	-6073
▁Pet	-6074
▁blam	-6075
▁pure	-6076
▁wall	-6077
ection	-6078
irable	-6079
▁measured	-6080
▁catastrop	-6081
▁apparently	-6082
▁statements	-6083
▁anniversary	-6084
▁challenging	-6085
jad	-6086
oked	-6087
▁Den	-6088
▁Moh	-6089
▁mus	-6090
▁sect	-6091
estate	-6092
▁drawn	-6093
▁Harvard	-6094
▁justify	-6095
▁somewhat	-6096
▁extremists	-6097
ugg	-6098
iver	-6099
lish	-6100
ruit	-6101
▁fle	-6102
▁Hill	-6103
inated	-6104
▁Berlin	-6105
▁unders	-6106
▁disorder	-6107
▁Agreement	-6108
▁architect	-6109
▁equipment	-6110
▁initially	-6111
▁sophisticated	-6112
BO	-6113
oor	-6114
oles	-6115
orsi	-6116
▁Sal	-6117
▁wait	-6118
growth	-6119
▁PARIS	-6120
iterranean	-6121
▁recommend	-6122
▁accelerate	-6123
▁maintained	-6124
▁meaningful	-6125
▁transformed	-6126
▁policymaking	-6127
oods	-6128
▁estate	-6129
▁plenty	-6130
▁Conserv	-6131
▁assumed	-6132
▁forcing	-6133
▁gaining	-6134
▁greatly	-6135
▁focusing	-6136
▁collapsed	-6137
▁advantages	-6138
▁controlled	-6139
she	-6140
xic	-6141
▁Abd	-6142
▁Cur	-6143
▁Clear	-6144
▁Author	-6145
▁Moscow	-6146
▁strict	-6147
▁deposits	-6148
▁limiting	-6149
▁organized	-6150
▁impressive	-6151
▁negotiated	-6152
▁repression	-6153
ley	-6154
onia	-6155
prof	-6156
▁Let	-6157
▁nom	-6158
▁tri	-6159
iking	-6160
rency	-6161
▁2006	-6162
health	-6163
▁cells	-6164
▁fresh	-6165
▁overh	-6166
enhagen	-6167
▁island	-6168
▁estimate	-6169
▁governing	-6170
▁responded	-6171
▁characterized	-6172
ika	-6173
▁Cr	-6174
▁je	-6175
iced	-6176
price	-6177
▁Conf	-6178
itudes	-6179
ussels	-6180
▁minds	-6181
▁night	-6182
▁invested	-6183
▁unilateral	-6184
▁surprisingly	-6185
▁Mediterranean	-6186
lor	-6187
uan	-6188
▁doz	-6189
▁desp	-6190
▁loan	-6191
▁wild	-6192
00,000	-6193
▁moves	-6194
▁Resear	-6195
▁chains	-6196
▁enthus	-6197
▁height	-6198
▁consult	-6199
▁grounds	-6200
▁dependence	-6201
▁neighboring	-6202
▁improvements	-6203
EA	-6204
olf	-6205
pan	-6206
stan	-6207
▁rig	-6208
idden	-6209
▁insu	-6210
▁prox	-6211
▁Morsi	-6212
develop	-6213
▁dilemm	-6214
▁donors	-6215
▁famous	-6216
▁scheme	-6217
▁believes	-6218
▁ecosystem	-6219
▁generating	-6220
▁Mao	-6221
▁2004	-6222
▁City	-6223
addafi	-6224
▁Among	-6225
▁antib	-6226
▁scand	-6227
▁doctors	-6228
▁ignored	-6229
▁monopoly	-6230
▁Political	-6231
▁workforce	-6232
▁Copenhagen	-6233
▁resilience	-6234
▁influential	-6235
We	-6236
ett	-6237
▁Im	-6238
odes	-6239
soft	-6240
▁Inc	-6241
▁Lab	-6242
▁1970	-6243
▁None	-6244
▁drag	-6245
▁Forum	-6246
▁oppose	-6247
▁propag	-6248
▁gradual	-6249
▁selling	-6250
▁preserve	-6251
▁suddenly	-6252
▁unemployed	-6253
▁surveillance	-6254
Ass	-6255
orld	-6256
ylum	-6257
▁Mad	-6258
▁seas	-6259
▁unex	-6260
▁Public	-6261
▁retain	-6262
▁shifts	-6263
▁English	-6264
▁Through	-6265
▁emphasis	-6266
▁occasion	-6267
▁secondary	-6268
▁experiencing	-6269
▁extraordinary	-6270
kan	-6271
rig	-6272
China	-6273
chang	-6274
oples	-6275
▁suic	-6276
▁teac	-6277
▁noted	-6278
▁eradic	-6279
▁enemies	-6280
▁privile	-6281
▁vehicles	-6282
▁presented	-6283
▁threatens	-6284
▁involvement	-6285
▁partnerships	-6286
fol	-6287
osen	-6288
▁Ban	-6289
▁son	-6290
▁blow	-6291
▁tele	-6292
▁2015.	-6293
▁BRICS	-6294
▁Goals	-6295
▁sympt	-6296
▁caught	-6297
▁female	-6298
▁outbre	-6299
▁poorer	-6300
▁Malaysia	-6301
▁meetings	-6302
▁slightly	-6303
▁obstacles	-6304
▁insufficient	-6305
▁unconventional	-6306
);	-6307
iang	-6308
▁90%	-6309
▁Hit	-6310
▁Red	-6311
▁Who	-6312
Assad	-6313
claim	-6314
▁2016	-6315
▁True	-6316
▁eval	-6317
▁tort	-6318
lessly	-6319
▁heard	-6320
▁Brussels	-6321
▁construct	-6322
▁realistic	-6323
▁provisions	-6324
rity	-6325
▁hyp	-6326
ifies	-6327
driven	-6328
▁doctr	-6329
▁older	-6330
▁watch	-6331
▁attend	-6332
▁decreas	-6333
▁entered	-6334
▁fueling	-6335
▁pressing	-6336
▁Southeast	-6337
▁commission	-6338
▁discrimination	-6339
fe	-6340
ebt	-6341
▁Bet	-6342
▁Jin	-6343
▁fill	-6344
▁pill	-6345
▁prud	-6346
▁wise	-6347
gently	-6348
▁Czech	-6349
▁Reagan	-6350
▁backing	-6351
▁communism	-6352
▁attempting	-6353
▁persistent	-6354
▁inefficient	-6355
▁difficulties	-6356
ko	-6357
aus	-6358
ked	-6359
beit	-6360
eted	-6361
face	-6362
▁Her	-6363
cking	-6364
▁repay	-6365
respons	-6366
▁Should	-6367
▁overse	-6368
atlantic	-6369
▁Kurdish	-6370
▁ourselves	-6371
▁perception	-6372
ilib	-6373
▁Fat	-6374
▁Imp	-6375
essim	-6376
icism	-6377
opard	-6378
▁didn	-6379
▁unle	-6380
▁Somal	-6381
▁match	-6382
▁slower	-6383
▁routine	-6384
▁financed	-6385
▁sensible	-6386
▁manipulation	-6387
cut	-6388
vez	-6389
ateg	-6390
▁hed	-6391
ebted	-6392
ourse	-6393
▁Educ	-6394
▁links	-6395
▁artific	-6396
▁urgently	-6397
▁vaccines	-6398
▁activists	-6399
▁involving	-6400
▁mortgages	-6401
▁operation	-6402
▁predicted	-6403
▁regarding	-6404
▁indicators	-6405
▁liabilities	-6406
ein	-6407
roc	-6408
▁1,	-6409
outs	-6410
unch	-6411
▁Big	-6412
▁Chá	-6413
▁spl	-6414
iliar	-6415
▁indu	-6416
▁pipe	-6417
▁Board	-6418
▁penal	-6419
▁asylum	-6420
▁Clearly	-6421
▁prepare	-6422
▁implicit	-6423
▁imposing	-6424
▁informal	-6425
▁straight	-6426
sur	-6427
indu	-6428
real	-6429
oided	-6430
▁pose	-6431
▁1930’	-6432
▁eager	-6433
▁postp	-6434
perform	-6435
▁Hitler	-6436
▁openly	-6437
▁presum	-6438
▁Nuclear	-6439
▁illness	-6440
▁rightly	-6441
inational	-6442
▁obviously	-6443
▁prolonged	-6444
▁Conference	-6445
▁compelling	-6446
▁Sustainable	-6447
▁functioning	-6448
▁internationally	-6449
▁Eb	-6450
▁Ir	-6451
▁AIDS	-6452
inejad	-6453
iously	-6454
▁risen	-6455
▁simpl	-6456
▁Before	-6457
▁broken	-6458
▁privat	-6459
▁talent	-6460
▁possess	-6461
▁constitu	-6462
▁severely	-6463
▁employers	-6464
▁intervene	-6465
▁reductions	-6466
▁statistics	-6467
▁protectionism	-6468
ima	-6469
len	-6470
och	-6471
▁Li	-6472
cost	-6473
omics	-6474
▁pick	-6475
iaries	-6476
▁Front	-6477
▁waters	-6478
▁avoided	-6479
▁careful	-6480
▁traffic	-6481
▁Atlantic	-6482
▁intention	-6483
▁achievement	-6484
yan	-6485
▁6.	-6486
▁Ric	-6487
▁hur	-6488
▁neo	-6489
emics	-6490
place	-6491
▁happy	-6492
▁refer	-6493
rations	-6494
▁Chávez	-6495
▁belong	-6496
▁explos	-6497
▁superv	-6498
▁patient	-6499
▁planned	-6500
▁spectac	-6501
▁outright	-6502
▁Authority	-6503
uls	-6504
▁Art	-6505
▁Hol	-6506
▁gun	-6507
athol	-6508
▁sequ	-6509
▁star	-6510
▁2000,	-6511
▁Inter	-6512
▁arbit	-6513
▁inher	-6514
iations	-6515
▁Stalin	-6516
▁inside	-6517
▁spring	-6518
▁tackle	-6519
▁accused	-6520
▁picture	-6521
▁winning	-6522
▁features	-6523
▁Islamists	-6524
▁prominent	-6525
▁protected	-6526
▁reluctant	-6527
▁expression	-6528
NP	-6529
kin	-6530
sun	-6531
▁Ac	-6532
rors	-6533
▁192	-6534
▁Bas	-6535
Sahar	-6536
▁Char	-6537
minded	-6538
▁Three	-6539
▁categ	-6540
▁consc	-6541
▁imply	-6542
▁presc	-6543
Saharan	-6544
▁agency	-6545
▁paraly	-6546
▁poorly	-6547
▁dangers	-6548
▁intense	-6549
▁jeopard	-6550
▁missing	-6551
▁removed	-6552
▁written	-6553
▁finances	-6554
▁Stability	-6555
▁advocates	-6556
▁assumption	-6557
▁importantly	-6558
alf	-6559
def	-6560
itz	-6561
acco	-6562
agon	-6563
▁191	-6564
▁fun	-6565
▁onto	-6566
▁outl	-6567
▁trap	-6568
▁manif	-6569
▁rooted	-6570
▁deposit	-6571
inflation	-6572
▁distinct	-6573
▁volatile	-6574
▁dominance	-6575
▁proliferation	-6576
II	-6577
win	-6578
ruck	-6579
▁Dar	-6580
▁Scot	-6581
▁hear	-6582
▁rail	-6583
▁unst	-6584
Palest	-6585
usalem	-6586
▁2005,	-6587
▁Ahmad	-6588
▁enlar	-6589
▁falls	-6590
veraged	-6591
▁Francis	-6592
▁dropped	-6593
▁element	-6594
▁portfol	-6595
▁strikes	-6596
▁openness	-6597
▁underest	-6598
▁underway	-6599
▁extremism	-6600
▁inability	-6601
▁projected	-6602
governmental	-6603
▁modernization	-6604
emb	-6605
hani	-6606
ibet	-6607
▁$100	-6608
▁Gold	-6609
▁Rich	-6610
▁ease	-6611
▁rock	-6612
▁Burma	-6613
▁genoc	-6614
▁Others	-6615
▁resent	-6616
▁animals	-6617
▁lasting	-6618
▁paralle	-6619
▁slowing	-6620
▁tragedy	-6621
▁undersc	-6622
▁Keynesian	-6623
▁residents	-6624
▁catastrophe	-6625
▁Constitution	-6626
▁$7	-6627
lymp	-6628
roll	-6629
▁yen	-6630
party	-6631
▁acts	-6632
▁terr	-6633
iances	-6634
rained	-6635
thodox	-6636
▁anger	-6637
▁Bashar	-6638
▁Jinping	-6639
▁indicate	-6640
▁destroyed	-6641
▁Convention	-6642
bor	-6643
ple	-6644
angh	-6645
cell	-6646
ogle	-6647
opia	-6648
▁Off	-6649
▁Shin	-6650
▁epis	-6651
▁lawy	-6652
▁acute	-6653
▁seats	-6654
▁couple	-6655
▁unfair	-6656
▁empower	-6657
▁granted	-6658
▁connected	-6659
▁expenditure	-6660
comp	-6661
reen	-6662
▁You	-6663
▁hyd	-6664
▁Fatah	-6665
▁exists	-6666
▁triump	-6667
▁courage	-6668
▁inherent	-6669
▁abandoned	-6670
▁exporters	-6671
▁sectarian	-6672
▁acceptable	-6673
▁contradict	-6674
▁guaranteed	-6675
▁represented	-6676
▁cab	-6677
▁kil	-6678
▁quot	-6679
▁Arabs	-6680
▁Ebola	-6681
▁Cathol	-6682
▁Corpor	-6683
▁Labour	-6684
▁dispar	-6685
▁Hillary	-6686
▁Scotland	-6687
▁creative	-6688
▁mounting	-6689
▁stabilize	-6690
lu	-6691
bed	-6692
born	-6693
phic	-6694
rium	-6695
atism	-6696
enses	-6697
riage	-6698
ushar	-6699
▁Olymp	-6700
▁check	-6701
▁crash	-6702
▁overt	-6703
alities	-6704
astrous	-6705
▁signal	-6706
▁erupted	-6707
▁release	-6708
▁Hollande	-6709
▁approved	-6710
▁medicine	-6711
▁striking	-6712
▁requiring	-6713
▁disastrous	-6714
▁electorate	-6715
▁neighborhood	-6716
▁[	-6717
ois	-6718
▁Zh	-6719
▁Coop	-6720
▁Shar	-6721
▁puts	-6722
▁unit	-6723
anghai	-6724
▁Tibet	-6725
▁books	-6726
▁sites	-6727
▁Unless	-6728
▁struck	-6729
▁uphold	-6730
usharraf	-6731
▁Denmark	-6732
▁foresee	-6733
▁outlook	-6734
▁paradox	-6735
▁antibiot	-6736
▁Jerusalem	-6737
▁coordinated	-6738
▁contributing	-6739
ara	-6740
cel	-6741
coni	-6742
▁meg	-6743
inger	-6744
tering	-6745
uction	-6746
▁Frank	-6747
▁Power	-6748
▁deleg	-6749
ultural	-6750
▁Google	-6751
▁asking	-6752
▁define	-6753
▁display	-6754
▁feeling	-6755
illennium	-6756
▁Research	-6757
▁analysts	-6758
▁mitigate	-6759
▁resolved	-6760
▁reversed	-6761
▁expertise	-6762
▁populists	-6763
▁aspirations	-6764
▁manufacture	-6765
▁vulnerability	-6766
45;	-6767
fire	-6768
ught	-6769
▁cul	-6770
▁dog	-6771
▁dys	-6772
▁Face	-6773
▁dign	-6774
othing	-6775
▁Fried	-6776
▁expos	-6777
▁seeks	-6778
sharing	-6779
▁fields	-6780
▁Shanghai	-6781
▁generous	-6782
▁motivated	-6783
▁comparable	-6784
▁15%	-6785
▁Che	-6786
▁Del	-6787
▁slo	-6788
▁une	-6789
▁Sand	-6790
▁exem	-6791
▁vent	-6792
▁2010.	-6793
▁backl	-6794
▁enrich	-6795
▁weapon	-6796
▁visible	-6797
▁anywhere	-6798
▁Democracy	-6799
▁accession	-6800
▁explained	-6801
▁prevented	-6802
▁multinational	-6803
tr	-6804
akh	-6805
▁Army	-6806
icking	-6807
utives	-6808
▁Group	-6809
▁cease	-6810
▁chain	-6811
▁enemy	-6812
▁shale	-6813
▁turns	-6814
▁Strate	-6815
▁foster	-6816
▁anxiety	-6817
▁immense	-6818
▁vaccine	-6819
roportion	-6820
▁numerous	-6821
▁controversial	-6822
band	-6823
ctic	-6824
▁Rel	-6825
▁Back	-6826
▁code	-6827
▁date	-6828
rading	-6829
▁looked	-6830
▁select	-6831
▁sooner	-6832
▁convers	-6833
connected	-6834
▁reliance	-6835
▁affordable	-6836
▁interested	-6837
CA	-6838
IP	-6839
bl	-6840
adv	-6841
asp	-6842
aker	-6843
atar	-6844
▁cop	-6845
archy	-6846
utral	-6847
▁Each	-6848
▁Init	-6849
▁grid	-6850
▁pool	-6851
▁Medic	-6852
▁blind	-6853
▁Polish	-6854
▁Romney	-6855
▁arguing	-6856
▁lenders	-6857
▁peoples	-6858
▁pursuit	-6859
▁constant	-6860
▁platforms	-6861
▁foreigners	-6862
&#160;&#160;	-6863
."	-6864
CP	-6865
ES	-6866
ils	-6867
▁BR	-6868
alog	-6869
▁bit	-6870
▁wal	-6871
nings	-6872
▁dele	-6873
▁ends	-6874
▁Earth	-6875
▁plays	-6876
▁toxic	-6877
▁Berlus	-6878
▁unrest	-6879
▁chances	-6880
▁disturb	-6881
▁waiting	-6882
struction	-6883
▁Education	-6884
▁Musharraf	-6885
▁campaigns	-6886
▁confident	-6887
▁favorable	-6888
▁procedures	-6889
bod	-6890
▁Hu	-6891
▁eg	-6892
anke	-6893
rand	-6894
unity	-6895
▁Ethi	-6896
▁halt	-6897
▁vary	-6898
racted	-6899
▁2006,	-6900
▁innoc	-6901
▁albeit	-6902
▁autonomy	-6903
▁awareness	-6904
▁desperate	-6905
▁Berlusconi	-6906
▁devaluation	-6907
▁enforcement	-6908
▁foundations	-6909
▁problematic	-6910
EY	-6911
me	-6912
va	-6913
▁(1	-6914
▁4%	-6915
▁PRI	-6916
▁Pan	-6917
▁Rou	-6918
▁ang	-6919
redit	-6920
▁Deng	-6921
▁tens	-6922
▁tsun	-6923
▁Where	-6924
▁chose	-6925
▁laure	-6926
▁valid	-6927
oration	-6928
▁Cyprus	-6929
▁Serbia	-6930
▁empire	-6931
▁murder	-6932
▁richer	-6933
lessness	-6934
▁request	-6935
▁avoiding	-6936
▁colonial	-6937
▁disagree	-6938
▁persuade	-6939
▁existence	-6940
▁reinforce	-6941
▁concentrated	-6942
▁communications	-6943
enei	-6944
icon	-6945
omed	-6946
▁2001	-6947
▁rent	-6948
▁veto	-6949
amenei	-6950
icians	-6951
▁catch	-6952
▁forth	-6953
ilitary	-6954
▁Finance	-6955
▁feature	-6956
▁periods	-6957
▁Business	-6958
▁disinteg	-6959
▁machines	-6960
▁Government	-6961
▁complement	-6962
▁executives	-6963
▁politician	-6964
▁dysfunction	-6965
▁rebalancing	-6966
▁respectively	-6967
imp	-6968
▁21	-6969
athy	-6970
atri	-6971
ixon	-6972
lets	-6973
adjust	-6974
▁Alger	-6975
▁Found	-6976
▁roads	-6977
▁deploy	-6978
▁recall	-6979
▁regist	-6980
▁cheaper	-6981
▁citizen	-6982
▁Khamenei	-6983
▁criteria	-6984
▁directed	-6985
▁division	-6986
▁realized	-6987
▁supports	-6988
▁competing	-6989
▁commodities	-6990
▁contraction	-6991
arr	-6992
osm	-6993
sen	-6994
▁Ren	-6995
▁dub	-6996
hered	-6997
▁Bosn	-6998
econom	-6999
invest	-7000
▁Kurds	-7001
▁arise	-7002
▁saved	-7003
▁calcul	-7004
chnology	-7005
ilibrium	-7006
▁Mexican	-7007
▁ancient	-7008
▁fashion	-7009
▁triumph	-7010
▁adopting	-7011
▁adoption	-7012
▁backlash	-7013
▁claiming	-7014
▁doctrine	-7015
▁dominate	-7016
▁superior	-7017
▁Represent	-7018
▁attitudes	-7019
▁communist	-7020
▁philosoph	-7021
▁safeguard	-7022
▁monitoring	-7023
▁reconciliation	-7024
iox	-7025
fund	-7026
hand	-7027
usse	-7028
▁upg	-7029
▁subm	-7030
▁Greens	-7031
▁remote	-7032
▁upward	-7033
▁assault	-7034
▁legislative	-7035
▁DNA	-7036
▁WTO	-7037
asive	-7038
eting	-7039
▁brief	-7040
▁facto	-7041
▁Norway	-7042
▁fellow	-7043
▁judges	-7044
▁conclude	-7045
▁divisions	-7046
▁targeting	-7047
▁reputation	-7048
▁accountable	-7049
▁achievements	-7050
onds	-7051
owed	-7052
▁11,	-7053
▁Adm	-7054
▁Dis	-7055
▁Far	-7056
▁Out	-7057
▁arm	-7058
▁mag	-7059
▁sun	-7060
▁ISIS	-7061
▁feas	-7062
▁cohes	-7063
▁Macron	-7064
▁testing	-7065
▁Bernanke	-7066
▁actively	-7067
▁champion	-7068
▁channels	-7069
▁fundamentals	-7070
▁disproportion	-7071
▁5.	-7072
▁Gh	-7073
cles	-7074
backed	-7075
▁hoped	-7076
▁novel	-7077
▁poses	-7078
▁stark	-7079
▁pessim	-7080
idelines	-7081
▁binding	-7082
▁classes	-7083
▁prefere	-7084
▁Chairman	-7085
▁convince	-7086
▁geograph	-7087
▁disasters	-7088
▁justified	-7089
▁announcement	-7090
▁communication	-7091
new	-7092
iest	-7093
uity	-7094
▁Ann	-7095
▁los	-7096
itzer	-7097
▁2003	-7098
▁fasc	-7099
▁symp	-7100
opular	-7101
▁giant	-7102
▁Center	-7103
▁begins	-7104
▁forest	-7105
▁headed	-7106
▁memory	-7107
▁cabinet	-7108
▁premium	-7109
▁Facebook	-7110
▁complain	-7111
▁indirect	-7112
▁judgment	-7113
▁committee	-7114
▁beneficial	-7115
hy	-7116
zed	-7117
iful	-7118
ooth	-7119
▁Aff	-7120
▁eye	-7121
egoti	-7122
ollar	-7123
▁Jong	-7124
ounced	-7125
▁spill	-7126
▁stood	-7127
reshold	-7128
▁advert	-7129
▁ratios	-7130
▁details	-7131
▁pensions	-7132
▁upcoming	-7133
▁alliances	-7134
▁sensitive	-7135
▁shortfall	-7136
▁convergence	-7137
ikh	-7138
▁Bh	-7139
▁SDR	-7140
▁pal	-7141
insula	-7142
▁Qatar	-7143
▁grave	-7144
▁gross	-7145
▁driver	-7146
▁honest	-7147
▁student	-7148
▁tariffs	-7149
▁balances	-7150
▁enhanced	-7151
▁familiar	-7152
▁famously	-7153
▁purposes	-7154
▁extensive	-7155
▁introduce	-7156
▁principal	-7157
▁likelihood	-7158
▁livelihood	-7159
▁optimistic	-7160
▁propaganda	-7161
▁tightening	-7162
▁Ahmadinejad	-7163
▁Cooperation	-7164
▁predictable	-7165
▁recognizing	-7166
OS	-7167
mmet	-7168
olas	-7169
omic	-7170
▁NGO	-7171
&#45;	-7172
▁door	-7173
owered	-7174
redict	-7175
▁alien	-7176
▁genes	-7177
▁remed	-7178
▁Having	-7179
▁inject	-7180
▁lowest	-7181
▁overth	-7182
▁sacrif	-7183
▁Against	-7184
▁explains	-7185
▁difficulty	-7186
▁eliminating	-7187
IT	-7188
hr	-7189
KEL	-7190
lav	-7191
rav	-7192
ding	-7193
mony	-7194
▁Kar	-7195
▁Mil	-7196
erman	-7197
▁cope	-7198
▁love	-7199
ighter	-7200
▁Somet	-7201
▁Times	-7202
▁insol	-7203
▁Reform	-7204
▁flawed	-7205
▁plural	-7206
▁stated	-7207
▁suspic	-7208
building	-7209
▁arrangement	-7210
▁sufficiently	-7211
▁congressional	-7212
jud	-7213
itch	-7214
▁Rec	-7215
KELEY	-7216
ishes	-7217
▁Road	-7218
▁melt	-7219
▁Green	-7220
▁Nixon	-7221
▁corre	-7222
▁haven	-7223
istical	-7224
▁revive	-7225
▁Capital	-7226
itzerland	-7227
▁computers	-7228
▁threshold	-7229
▁interdepend	-7230
▁contemporary	-7231
▁considerations	-7232
zo	-7233
ini	-7234
▁hub	-7235
astic	-7236
▁sets	-7237
Israel	-7238
holder	-7239
▁Kyoto	-7240
▁crops	-7241
▁donor	-7242
▁inequ	-7243
▁lived	-7244
▁ranks	-7245
forward	-7246
ollowing	-7247
▁dilemma	-7248
▁tactics	-7249
▁BERKELEY	-7250
government	-7251
▁attempted	-7252
▁realities	-7253
▁reinforced	-7254
▁Switzerland	-7255
eds	-7256
uate	-7257
▁eld	-7258
▁Chen	-7259
▁Supp	-7260
▁hurt	-7261
▁plun	-7262
▁guard	-7263
▁route	-7264
aughter	-7265
▁circle	-7266
▁invent	-7267
▁street	-7268
currency	-7269
▁somehow	-7270
▁missiles	-7271
▁alongside	-7272
▁integrity	-7273
▁Industrial	-7274
▁weaknesses	-7275
▁bureaucracy	-7276
;&	-7277
bur	-7278
▁mos	-7279
▁deem	-7280
▁fine	-7281
▁male	-7282
energy	-7283
▁Worse	-7284
▁quiet	-7285
▁fought	-7286
▁slowed	-7287
▁earthqu	-7288
▁dynamics	-7289
▁exposure	-7290
▁indebted	-7291
▁marriage	-7292
▁observed	-7293
▁proclaim	-7294
▁produces	-7295
▁affecting	-7296
▁considering	-7297
▁constrained	-7298
▁nonetheless	-7299
▁significance	-7300
▁collaboration	-7301
AV	-7302
oo	-7303
ses	-7304
kers	-7305
rong	-7306
polit	-7307
water	-7308
▁Belg	-7309
▁deny	-7310
▁inex	-7311
▁lobb	-7312
▁hedge	-7313
▁plumm	-7314
▁schol	-7315
▁virus	-7316
▁flight	-7317
▁refuse	-7318
▁remove	-7319
rational	-7320
▁Indians	-7321
▁enacted	-7322
▁reduces	-7323
▁typical	-7324
▁demanded	-7325
▁manifest	-7326
▁mobilize	-7327
controlled	-7328
▁overwhelm	-7329
▁rejection	-7330
▁popularity	-7331
▁confronting	-7332
▁territories	-7333
▁traditionally	-7334
ek	-7335
mor	-7336
▁24	-7337
aunt	-7338
izon	-7339
▁Five	-7340
▁Jean	-7341
accept	-7342
ailing	-7343
▁2012.	-7344
▁Crime	-7345
▁Moroc	-7346
▁enfor	-7347
▁input	-7348
▁pound	-7349
▁Summit	-7350
▁denied	-7351
▁formed	-7352
▁funded	-7353
election	-7354
▁payment	-7355
orruption	-7356
▁Whatever	-7357
▁genocide	-7358
▁treaties	-7359
▁discussed	-7360
▁regularly	-7361
▁understandable	-7362
SA	-7363
▁.	-7364
▁Qu	-7365
▁Rw	-7366
iary	-7367
such	-7368
▁Emp	-7369
ivals	-7370
icated	-7371
▁2013.	-7372
▁plaus	-7373
▁dignity	-7374
▁relying	-7375
▁shifted	-7376
astrophic	-7377
▁Thatcher	-7378
▁accident	-7379
▁steadily	-7380
▁wellbeing	-7381
▁transportation	-7382
sey	-7383
igen	-7384
▁500	-7385
▁cas	-7386
▁exh	-7387
▁fan	-7388
hetic	-7389
inite	-7390
night	-7391
▁Pers	-7392
▁cens	-7393
▁film	-7394
▁jump	-7395
orship	-7396
▁Assoc	-7397
▁Women	-7398
▁judge	-7399
▁merit	-7400
▁proud	-7401
▁analog	-7402
▁chosen	-7403
▁method	-7404
▁volume	-7405
▁Somalia	-7406
▁deserve	-7407
▁isolated	-7408
▁judicial	-7409
▁overseas	-7410
▁software	-7411
▁cooperate	-7412
▁mortality	-7413
▁discovered	-7414
▁destructive	-7415
▁representative	-7416
Th	-7417
umn	-7418
▁7.	-7419
amin	-7420
educ	-7421
hman	-7422
rict	-7423
uris	-7424
▁Ang	-7425
▁ble	-7426
▁coun	-7427
▁intr	-7428
ocrats	-7429
urable	-7430
▁Husse	-7431
▁abund	-7432
▁career	-7433
▁contag	-7434
▁concess	-7435
▁suspect	-7436
▁tension	-7437
▁creditor	-7438
▁foremost	-7439
▁restoring	-7440
▁Millennium	-7441
▁equilibrium	-7442
▁experiences	-7443
HI	-7444
ey	-7445
ras	-7446
▁Gü	-7447
ivot	-7448
serv	-7449
▁Ali	-7450
▁map	-7451
▁pul	-7452
arked	-7453
henko	-7454
under	-7455
▁Park	-7456
▁curb	-7457
▁gaps	-7458
▁heat	-7459
▁tons	-7460
active	-7461
chmark	-7462
incing	-7463
retton	-7464
▁harsh	-7465
▁honor	-7466
▁train	-7467
ription	-7468
▁adding	-7469
▁assist	-7470
▁cataly	-7471
▁deliber	-7472
▁follows	-7473
▁skilled	-7474
▁suicide	-7475
▁investor	-7476
▁desirable	-7477
▁shortages	-7478
ón	-7479
ums	-7480
ache	-7481
anim	-7482
▁glo	-7483
elect	-7484
ophob	-7485
▁luck	-7486
iating	-7487
iciary	-7488
reform	-7489
▁Woods	-7490
▁Office	-7491
▁restra	-7492
▁refusal	-7493
▁schemes	-7494
▁Northern	-7495
▁accurate	-7496
▁laureate	-7497
▁teachers	-7498
▁tendency	-7499
▁deepening	-7500
▁Foundation	-7501
▁components	-7502
▁accelerating	-7503
CT	-7504
asy	-7505
erry	-7506
▁Wal	-7507
scape	-7508
▁depr	-7509
▁1960’	-7510
▁Boliv	-7511
▁Labor	-7512
▁draft	-7513
▁finds	-7514
▁ocean	-7515
▁unequ	-7516
▁abuses	-7517
▁exclus	-7518
▁attitude	-7519
▁democrat	-7520
▁feasible	-7521
▁Ukrainian	-7522
▁followers	-7523
▁happiness	-7524
▁explicitly	-7525
▁situations	-7526
▁inflationary	-7527
CO	-7528
ky	-7529
ocal	-7530
wind	-7531
▁Ter	-7532
▁tob	-7533
ected	-7534
▁unus	-7535
▁resur	-7536
▁School	-7537
▁Several	-7538
▁aspects	-7539
▁enables	-7540
▁talking	-7541
▁telling	-7542
▁tobacco	-7543
▁Alliance	-7544
▁delivery	-7545
▁pragmatic	-7546
▁selection	-7547
▁comparison	-7548
▁eliminated	-7549
▁prevailing	-7550
▁surrounding	-7551
▁administrative	-7552
It	-7553
ham	-7554
▁Ba	-7555
▁Don	-7556
▁Tay	-7557
▁bid	-7558
▁kid	-7559
gments	-7560
▁entry	-7561
▁panic	-7562
▁ultra	-7563
essions	-7564
▁assass	-7565
quarters	-7566
▁Ethiopia	-7567
▁declines	-7568
▁embraced	-7569
▁involves	-7570
▁newspaper	-7571
▁receiving	-7572
▁appreciate	-7573
▁insecurity	-7574
▁supervision	-7575
▁historically	-7576
cul	-7577
▁Ts	-7578
rill	-7579
ernal	-7580
▁Fran	-7581
▁Nazi	-7582
▁Year	-7583
▁trem	-7584
ioxide	-7585
▁sight	-7586
▁fairly	-7587
▁precip	-7588
▁Hussein	-7589
▁bolster	-7590
▁distant	-7591
▁hostile	-7592
▁tsunami	-7593
▁judiciary	-7594
▁resolving	-7595
▁acceptance	-7596
▁emphasized	-7597
▁competitors	-7598
▁ineffective	-7599
iat	-7600
ipp	-7601
supp	-7602
▁San	-7603
▁outf	-7604
advant	-7605
urance	-7606
▁2011.	-7607
▁crack	-7608
▁deriv	-7609
largest	-7610
uration	-7611
▁steady	-7612
▁joining	-7613
▁shortage	-7614
▁unstable	-7615
▁challenged	-7616
▁definition	-7617
▁enterprise	-7618
▁adjustments	-7619
▁desperately	-7620
▁catastrophic	-7621
▁introduction	-7622
▁protectionist	-7623
cu	-7624
▁Xia	-7625
▁fit	-7626
▁Mahm	-7627
▁pull	-7628
▁roll	-7629
ildren	-7630
▁2003,	-7631
▁amend	-7632
▁Lehman	-7633
▁dispos	-7634
▁doubts	-7635
▁incumb	-7636
▁relies	-7637
▁seeing	-7638
▁versus	-7639
ceptions	-7640
▁Bretton	-7641
▁acquire	-7642
▁contest	-7643
▁discont	-7644
▁ranging	-7645
▁optimism	-7646
▁Greenspan	-7647
▁naturally	-7648
▁preferred	-7649
▁constitute	-7650
▁treatments	-7651
▁differently	-7652
▁constructive	-7653
▁determination	-7654
▁straightforward	-7655
gers	-7656
▁bed	-7657
▁isn	-7658
orted	-7659
▁duty	-7660
▁evil	-7661
▁fool	-7662
necess	-7663
▁align	-7664
▁arsen	-7665
▁massac	-7666
▁enlarge	-7667
▁neglect	-7668
▁lowering	-7669
▁unaccept	-7670
▁undertake	-7671
▁criticized	-7672
▁declaration	-7673
ply	-7674
▁23	-7675
▁TV	-7676
dict	-7677
▁Tax	-7678
▁bip	-7679
▁web	-7680
anium	-7681
usive	-7682
▁card	-7683
▁mood	-7684
▁nurt	-7685
▁vice	-7686
▁2016,	-7687
▁broke	-7688
▁tends	-7689
ounding	-7690
▁scarce	-7691
▁machine	-7692
▁neutral	-7693
▁shaping	-7694
▁younger	-7695
▁Brothers	-7696
▁implying	-7697
▁obstacle	-7698
▁benchmark	-7699
▁strongest	-7700
▁collateral	-7701
▁confronted	-7702
▁delivering	-7703
▁recognizes	-7704
▁comparative	-7705
OEs	-7706
irm	-7707
▁Lo	-7708
airo	-7709
▁Dra	-7710
▁Shi	-7711
▁Sur	-7712
ander	-7713
▁Peru	-7714
▁tail	-7715
▁2004,	-7716
▁Gates	-7717
▁bills	-7718
▁dereg	-7719
▁pride	-7720
▁degrad	-7721
▁earned	-7722
▁exempl	-7723
▁nowhere	-7724
▁pledged	-7725
▁dynamism	-7726
▁meltdown	-7727
▁disappear	-7728
ala	-7729
-199	-7730
cure	-7731
hard	-7732
▁Day	-7733
▁Ref	-7734
asted	-7735
isher	-7736
▁1930	-7737
▁note	-7738
▁uphe	-7739
imated	-7740
licted	-7741
▁grant	-7742
▁rigid	-7743
growing	-7744
▁forget	-7745
▁pledge	-7746
▁worker	-7747
▁traject	-7748
▁vicious	-7749
▁worrying	-7750
▁premature	-7751
▁prevention	-7752
▁spectacular	-7753
▁speculative	-7754
▁underpinned	-7755
▁professionals	-7756
▁interpretation	-7757
no	-7758
spe	-7759
irty	-7760
uled	-7761
▁Air	-7762
▁bes	-7763
ullah	-7764
▁rank	-7765
▁Doing	-7766
▁Irish	-7767
▁brand	-7768
▁endors	-7769
▁Mahmoud	-7770
▁burdens	-7771
▁forests	-7772
▁uranium	-7773
▁coherent	-7774
▁entering	-7775
▁findings	-7776
▁outbreak	-7777
▁disadvant	-7778
▁interview	-7779
▁altogether	-7780
▁intentions	-7781
▁protesters	-7782
-7	-7783
ghi	-7784
iol	-7785
▁pu	-7786
asks	-7787
atal	-7788
▁Inf	-7789
▁Oil	-7790
▁hes	-7791
Japan	-7792
▁Decl	-7793
▁Mich	-7794
▁Wolf	-7795
▁rend	-7796
▁Prize	-7797
▁zones	-7798
▁Cambod	-7799
▁advent	-7800
▁bitter	-7801
▁freely	-7802
▁resign	-7803
▁stakes	-7804
▁stream	-7805
adjusted	-7806
▁Richard	-7807
▁liberty	-7808
▁revival	-7809
▁describe	-7810
▁document	-7811
▁employed	-7812
▁inspired	-7813
▁nutrition	-7814
▁settlements	-7815
▁urbanization	-7816
▁concentration	-7817
Cs	-7818
▁27	-7819
▁7%	-7820
lict	-7821
▁Lis	-7822
▁inj	-7823
▁rub	-7824
inces	-7825
prime	-7826
▁flat	-7827
▁mism	-7828
liance	-7829
taking	-7830
▁alive	-7831
▁consp	-7832
enomics	-7833
▁disarm	-7834
▁namely	-7835
▁patent	-7836
▁Austria	-7837
▁degrees	-7838
▁enjoyed	-7839
▁implied	-7840
▁clinical	-7841
▁cyclical	-7842
▁meantime	-7843
▁minimize	-7844
▁troubled	-7845
democratic	-7846
▁Otherwise	-7847
▁diplomats	-7848
▁successes	-7849
▁complexity	-7850
▁assumptions	-7851
▁revolutions	-7852
▁expansionary	-7853
▁temperatures	-7854
▁destabilizing	-7855
DI	-7856
NCE	-7857
zing	-7858
▁Env	-7859
tical	-7860
▁Emer	-7861
▁flag	-7862
▁outs	-7863
▁toll	-7864
NCETON	-7865
iative	-7866
ocracy	-7867
▁Mario	-7868
▁camps	-7869
▁style	-7870
▁Program	-7871
▁affects	-7872
ideration	-7873
▁Governor	-7874
▁advocate	-7875
▁arrested	-7876
▁governed	-7877
▁holdings	-7878
▁PRINCETON	-7879
▁integrate	-7880
▁providers	-7881
▁reporting	-7882
▁returning	-7883
▁infectious	-7884
▁antibiotics	-7885
▁livelihoods	-7886
▁acknowledged	-7887
-8	-7888
gs	-7889
▁$8	-7890
oler	-7891
well	-7892
▁205	-7893
▁Squ	-7894
▁mun	-7895
itate	-7896
▁Iron	-7897
ipping	-7898
▁fraud	-7899
▁indef	-7900
▁moder	-7901
▁safer	-7902
General	-7903
lements	-7904
renched	-7905
▁adults	-7906
▁bought	-7907
▁Rouhani	-7908
▁concert	-7909
▁cultures	-7910
▁defeated	-7911
▁parallel	-7912
▁unnecess	-7913
▁emphasize	-7914
▁interesting	-7915
▁predecessor	-7916
IB	-7917
LIN	-7918
ael	-7919
ille	-7920
ords	-7921
▁DEL	-7922
▁Pre	-7923
▁Ult	-7924
▁cyn	-7925
olved	-7926
organ	-7927
vered	-7928
▁diff	-7929
▁fish	-7930
alling	-7931
apping	-7932
▁vigor	-7933
▁Draghi	-7934
▁therap	-7935
▁consent	-7936
▁exploit	-7937
▁pricing	-7938
▁richest	-7939
▁ambition	-7940
▁frequent	-7941
▁governor	-7942
▁innocent	-7943
▁Following	-7944
▁defending	-7945
▁emotional	-7946
▁cooperative	-7947
▁exacerbated	-7948
▁consideration	-7949
▁investigation	-7950
▁transatlantic	-7951
OK	-7952
oe	-7953
lov	-7954
▁22	-7955
▁sn	-7956
brid	-7957
rutin	-7958
▁cosm	-7959
▁DELHI	-7960
▁blamed	-7961
▁Economy	-7962
▁islands	-7963
▁surpass	-7964
▁Protocol	-7965
▁advisers	-7966
▁enduring	-7967
▁restored	-7968
productive	-7969
▁extremist	-7970
▁irrespons	-7971
▁landscape	-7972
iodiversity	-7973
▁artificial	-7974
▁globalized	-7975
▁newspapers	-7976
▁reflecting	-7977
▁unexpected	-7978
▁concessions	-7979
▁temperature	-7980
▁predecessors	-7981
asi	-7982
▁$6	-7983
▁(“	-7984
▁70	-7985
▁8%	-7986
aked	-7987
▁End	-7988
▁Jun	-7989
ounce	-7990
▁Next	-7991
▁elder	-7992
▁fluct	-7993
▁grasp	-7994
▁polio	-7995
▁sheet	-7996
▁stuck	-7997
▁animal	-7998
▁player	-7999
▁soared	-8000
▁favored	-8001
▁rebuild	-8002
▁scrutin	-8003
▁Friedman	-8004
▁football	-8005
▁officers	-8006
▁scholars	-8007
▁accounted	-8008
▁medicines	-8009
▁prisoners	-8010
▁earthquake	-8011
▁accumulation	-8012
cap	-8013
tic	-8014
van	-8015
▁God	-8016
▁yes	-8017
house	-8018
▁abol	-8019
atible	-8020
▁hydro	-8021
▁juris	-8022
▁seize	-8023
▁stret	-8024
▁waves	-8025
▁Lisbon	-8026
▁shaped	-8027
▁tribal	-8028
▁Morocco	-8029
▁Whereas	-8030
▁aggress	-8031
▁article	-8032
▁surface	-8033
▁fraction	-8034
▁informed	-8035
▁terrible	-8036
▁forecasts	-8037
▁initiated	-8038
▁officially	-8039
▁Association	-8040
▁specifically	-8041
CD	-8042
eu	-8043
ket	-8044
vey	-8045
aise	-8046
inal	-8047
left	-8048
ogen	-8049
▁Sad	-8050
▁haz	-8051
edded	-8052
otten	-8053
vency	-8054
▁Real	-8055
▁cart	-8056
▁Elect	-8057
▁brink	-8058
▁rally	-8059
▁split	-8060
▁steel	-8061
▁upper	-8062
viously	-8063
▁Crisis	-8064
▁Ronald	-8065
▁images	-8066
▁losers	-8067
▁tempor	-8068
▁devoted	-8069
▁doubled	-8070
▁visited	-8071
▁Africans	-8072
▁occupied	-8073
▁socially	-8074
investment	-8075
▁indicates	-8076
▁unpopular	-8077
Palestinian	-8078
▁irrelevant	-8079
BI	-8080
cup	-8081
igm	-8082
voc	-8083
abet	-8084
fold	-8085
need	-8086
velt	-8087
▁Bre	-8088
▁raw	-8089
▁tit	-8090
aping	-8091
▁curt	-8092
▁flee	-8093
▁laid	-8094
▁lift	-8095
▁perv	-8096
▁turb	-8097
▁Micro	-8098
▁Ocean	-8099
▁piece	-8100
▁trick	-8101
osevelt	-8102
▁Rwanda	-8103
▁Shinzo	-8104
▁corner	-8105
▁obtain	-8106
▁Already	-8107
▁Liberal	-8108
▁brother	-8109
▁dismant	-8110
▁focuses	-8111
▁looming	-8112
▁scandal	-8113
▁serving	-8114
▁signals	-8115
▁captured	-8116
▁incorpor	-8117
▁recorded	-8118
▁hospitals	-8119
▁plausible	-8120
▁precedent	-8121
▁highlights	-8122
▁existential	-8123
HO	-8124
▁6%	-8125
▁€1	-8126
arat	-8127
conf	-8128
high	-8129
▁bab	-8130
▁hom	-8131
▁ing	-8132
alley	-8133
ester	-8134
iques	-8135
itime	-8136
▁Alex	-8137
▁Mont	-8138
▁bias	-8139
▁club	-8140
▁leng	-8141
▁tiny	-8142
ispens	-8143
▁2009.	-8144
▁coinc	-8145
▁fault	-8146
▁hyper	-8147
▁stems	-8148
▁regain	-8149
▁smooth	-8150
▁unfold	-8151
▁classic	-8152
▁closing	-8153
▁arguably	-8154
▁founding	-8155
▁generals	-8156
▁accelerated	-8157
▁highlighted	-8158
▁preferences	-8159
▁speculation	-8160
▁stabilizing	-8161
▁deleveraging	-8162
EI	-8163
”)	-8164
FTA	-8165
ude	-8166
uma	-8167
uum	-8168
inst	-8169
▁bio	-8170
liers	-8171
▁amid	-8172
▁cold	-8173
▁enjo	-8174
▁burst	-8175
▁conce	-8176
▁flaws	-8177
leading	-8178
society	-8179
▁System	-8180
▁deemed	-8181
▁contact	-8182
▁founded	-8183
▁lacking	-8184
▁municip	-8185
▁ratings	-8186
▁worries	-8187
▁epidemic	-8188
▁eventual	-8189
▁overlook	-8190
▁republic	-8191
▁Roosevelt	-8192
▁appointed	-8193
▁unpredict	-8194
▁entrenched	-8195
▁responding	-8196
.&	-8197
IF	-8198
yc	-8199
RID	-8200
oha	-8201
tor	-8202
ribe	-8203
▁Lad	-8204
▁Lar	-8205
▁MAD	-8206
▁Vol	-8207
sheet	-8208
▁plus	-8209
▁spot	-8210
▁suit	-8211
▁alleg	-8212
▁humil	-8213
▁ignor	-8214
▁houses	-8215
▁impris	-8216
▁prompt	-8217
▁rivals	-8218
▁serves	-8219
▁solely	-8220
ominated	-8221
▁Neither	-8222
▁lawyers	-8223
▁sending	-8224
▁tremend	-8225
▁writing	-8226
ratically	-8227
▁mutually	-8228
▁tradable	-8229
▁magnitude	-8230
▁occurring	-8231
▁shrinking	-8232
▁Ultimately	-8233
▁bargaining	-8234
▁exclusively	-8235
▁‘	-8236
orse	-8237
prom	-8238
ropr	-8239
▁Few	-8240
▁Sol	-8241
▁bon	-8242
▁hat	-8243
armed	-8244
front	-8245
inter	-8246
ormal	-8247
think	-8248
▁anch	-8249
▁pact	-8250
orious	-8251
rugman	-8252
▁Above	-8253
▁James	-8254
▁admit	-8255
▁incon	-8256
▁mixed	-8257
▁revel	-8258
▁Crimea	-8259
▁Making	-8260
▁Square	-8261
▁median	-8262
▁permit	-8263
▁Environ	-8264
▁Nicolas	-8265
▁complac	-8266
▁tourism	-8267
▁assuming	-8268
▁cohesion	-8269
▁contagion	-8270
▁accomplish	-8271
▁constantly	-8272
▁obligation	-8273
▁suggesting	-8274
EU	-8275
GB	-8276
KP	-8277
ny	-8278
berg	-8279
tech	-8280
▁Gen	-8281
▁Sri	-8282
▁Web	-8283
erson	-8284
icted	-8285
izers	-8286
▁1997	-8287
▁Serv	-8288
▁calm	-8289
▁mira	-8290
▁myth	-8291
▁Gülen	-8292
▁mosqu	-8293
▁Within	-8294
▁anemic	-8295
▁feared	-8296
▁fortun	-8297
ologists	-8298
▁entails	-8299
▁exhaust	-8300
▁winners	-8301
▁buildings	-8302
▁functions	-8303
▁resilient	-8304
▁allocation	-8305
▁convincing	-8306
▁diminished	-8307
▁expectancy	-8308
▁negotiation	-8309
▁availability	-8310
▁bureaucratic	-8311
▁Globalization	-8312
▁overwhelmingly	-8313
DA	-8314
mod	-8315
▁IP	-8316
▁WW	-8317
emer	-8318
riad	-8319
utor	-8320
▁300	-8321
▁Def	-8322
atell	-8323
utors	-8324
▁Dire	-8325
▁Doha	-8326
▁Marx	-8327
▁hike	-8328
▁odds	-8329
▁pays	-8330
▁ramp	-8331
▁site	-8332
global	-8333
ieties	-8334
▁Apple	-8335
▁Franç	-8336
▁lands	-8337
▁patri	-8338
▁roots	-8339
▁trump	-8340
▁League	-8341
▁Report	-8342
▁checks	-8343
▁Krugman	-8344
▁Twitter	-8345
▁biology	-8346
▁college	-8347
▁portray	-8348
▁western	-8349
▁director	-8350
▁headlines	-8351
▁instrument	-8352
▁philosophy	-8353
▁trajectory	-8354
▁temporarily	-8355
▁civilization	-8356
▁deflationary	-8357
room	-8358
▁1.5	-8359
▁asy	-8360
▁Does	-8361
▁Lank	-8362
▁buff	-8363
▁caut	-8364
▁edge	-8365
▁erod	-8366
▁king	-8367
▁nets	-8368
▁topp	-8369
▁Kerry	-8370
▁teams	-8371
▁MADRID	-8372
▁Minist	-8373
▁absent	-8374
▁Qaddafi	-8375
▁charged	-8376
▁devices	-8377
▁mothers	-8378
▁trained	-8379
▁unknown	-8380
▁supervis	-8381
▁Economics	-8382
▁appealing	-8383
▁confirmed	-8384
▁preparing	-8385
▁excessively	-8386
▁frustration	-8387
▁Conservative	-8388
kes	-8389
▁TB	-8390
offs	-8391
▁Pop	-8392
▁sho	-8393
ranch	-8394
riend	-8395
▁Food	-8396
▁SDGs	-8397
▁tasks	-8398
comings	-8399
▁BERLIN	-8400
▁Valley	-8401
▁firmly	-8402
▁letter	-8403
▁rebels	-8404
▁voices	-8405
▁corresp	-8406
▁forever	-8407
▁harmful	-8408
▁virtual	-8409
▁engaging	-8410
▁securing	-8411
industrial	-8412
▁enlargement	-8413
▁stakeholders	-8414
▁transmission	-8415
▁demonstrations	-8416
▁disintegration	-8417
-3	-8418
bar	-8419
▁Ed	-8420
▁lic	-8421
▁pra	-8422
▁pand	-8423
▁sake	-8424
▁sees	-8425
▁breat	-8426
▁utter	-8427
ulators	-8428
▁bridge	-8429
▁spiral	-8430
cyclical	-8431
▁Algeria	-8432
▁answers	-8433
▁arrived	-8434
▁fishing	-8435
▁legally	-8436
▁unified	-8437
▁attacked	-8438
▁deployed	-8439
▁detailed	-8440
ispensable	-8441
▁Churchill	-8442
▁Recession	-8443
▁contained	-8444
▁recapital	-8445
▁aggression	-8446
▁violations	-8447
▁architecture	-8448
▁shortcomings	-8449
▁unacceptable	-8450
▁&	-8451
ONG	-8452
Sem	-8453
▁Ku	-8454
▁NP	-8455
AIDS	-8456
hors	-8457
wage	-8458
aning	-8459
eterm	-8460
▁2002	-8461
▁Long	-8462
▁Tony	-8463
▁cure	-8464
▁feat	-8465
▁rain	-8466
▁soil	-8467
▁succ	-8468
▁yang	-8469
siders	-8470
▁2014.	-8471
▁gases	-8472
▁incur	-8473
▁roles	-8474
▁Fourth	-8475
▁Instit	-8476
▁agents	-8477
▁approx	-8478
▁demise	-8479
▁impede	-8480
▁starts	-8481
▁Article	-8482
▁applies	-8483
▁bargain	-8484
▁exchang	-8485
▁impover	-8486
▁whereby	-8487
▁entities	-8488
ifications	-8489
▁engineers	-8490
▁Economists	-8491
▁compensate	-8492
▁irrational	-8493
▁operational	-8494
odd	-8495
▁35	-8496
eter	-8497
▁Lee	-8498
▁McC	-8499
▁tum	-8500
▁bust	-8501
▁gene	-8502
▁pump	-8503
▁spok	-8504
▁vide	-8505
▁grows	-8506
▁Fiscal	-8507
▁advers	-8508
▁deepen	-8509
▁repair	-8510
▁vacuum	-8511
▁History	-8512
▁elderly	-8513
▁encount	-8514
▁landing	-8515
▁malaise	-8516
▁orderly	-8517
▁torture	-8518
▁François	-8519
▁hegemony	-8520
▁ministry	-8521
▁thousand	-8522
▁widening	-8523
▁discourse	-8524
▁struggles	-8525
▁frameworks	-8526
▁association	-8527
▁derivatives	-8528
▁distinguish	-8529
▁foreseeable	-8530
dec	-8531
des	-8532
imm	-8533
▁28	-8534
▁Ay	-8535
abwe	-8536
▁Fut	-8537
aired	-8538
backs	-8539
▁Zimb	-8540
▁beat	-8541
▁item	-8542
▁wife	-8543
idance	-8544
morrow	-8545
weight	-8546
▁crowd	-8547
▁flour	-8548
▁stick	-8549
▁Simply	-8550
▁excell	-8551
▁purely	-8552
▁winner	-8553
▁declare	-8554
▁ranking	-8555
▁Zimbabwe	-8556
▁intermed	-8557
▁tomorrow	-8558
▁completed	-8559
▁respected	-8560
▁spreading	-8561
▁tolerance	-8562
▁disruption	-8563
▁Constitutional	-8564
vy	-8565
USS	-8566
iro	-8567
ups	-8568
▁Op	-8569
▁id	-8570
▁na	-8571
cked	-8572
step	-8573
▁ice	-8574
lovak	-8575
occup	-8576
orage	-8577
▁1960	-8578
▁town	-8579
▁Civil	-8580
▁Stand	-8581
▁angry	-8582
▁phone	-8583
▁Bosnia	-8584
▁Empire	-8585
▁casual	-8586
▁detain	-8587
▁provoc	-8588
▁reveal	-8589
▁Koreans	-8590
▁beliefs	-8591
▁blocked	-8592
▁entitled	-8593
▁excluded	-8594
▁accepting	-8595
▁suspicion	-8596
▁consolidate	-8597
▁distinction	-8598
▁biodiversity	-8599
▁dysfunctional	-8600
▁psychological	-8601
,"	-8602
Sh	-8603
sch	-8604
▁$10	-8605
▁Equ	-8606
aksin	-8607
▁Vice	-8608
regard	-8609
valued	-8610
▁depth	-8611
▁drove	-8612
▁indif	-8613
▁maneu	-8614
▁recur	-8615
control	-8616
▁missed	-8617
▁satell	-8618
▁window	-8619
▁damaged	-8620
▁dioxide	-8621
▁evolved	-8622
▁kilomet	-8623
▁minimal	-8624
▁monitor	-8625
▁maximize	-8626
▁orthodox	-8627
▁regulate	-8628
▁stemming	-8629
employment	-8630
performing	-8631
▁privatization	-8632
▁representation	-8633
LO	-8634
PEC	-8635
col	-8636
atch	-8637
vity	-8638
▁Hen	-8639
▁sad	-8640
added	-8641
oping	-8642
trans	-8643
▁Bund	-8644
▁Gord	-8645
▁hind	-8646
▁maln	-8647
▁stif	-8648
guided	-8649
saving	-8650
▁Brown	-8651
▁surre	-8652
angible	-8653
assador	-8654
ologies	-8655
▁cycles	-8656
▁Islands	-8657
▁carries	-8658
▁outrage	-8659
▁Cambodia	-8660
▁choosing	-8661
▁dictator	-8662
▁condemned	-8663
▁hostility	-8664
▁prevailed	-8665
▁surprised	-8666
▁temptation	-8667
▁intellectuals	-8668
▁reconstruction	-8669
PA	-8670
tw	-8671
zi	-8672
500	-8673
BOC	-8674
ELS	-8675
ito	-8676
ixt	-8677
risk	-8678
▁Had	-8679
▁lux	-8680
▁ven	-8681
▁Bhut	-8682
▁keen	-8683
▁award	-8684
▁midst	-8685
▁navig	-8686
▁teach	-8687
.&#160;	-8688
▁Iraqis	-8689
▁Sharon	-8690
▁bloody	-8691
▁observ	-8692
▁occurs	-8693
▁sports	-8694
▁ceiling	-8695
▁drivers	-8696
▁tempted	-8697
▁Director	-8698
▁breaking	-8699
▁carrying	-8700
▁discount	-8701
▁downside	-8702
▁insisted	-8703
▁opposing	-8704
▁speaking	-8705
▁symptoms	-8706
▁Initiative	-8707
▁benefiting	-8708
▁impression	-8709
▁indefinite	-8710
▁infections	-8711
▁application	-8712
▁distributed	-8713
▁financially	-8714
▁democratically	-8715
▁redistribution	-8716
ua	-8717
”:	-8718
awa	-8719
nel	-8720
▁Ev	-8721
▁Pu	-8722
ione	-8723
▁ost	-8724
▁Good	-8725
▁Mass	-8726
▁Sino	-8727
▁hide	-8728
▁tied	-8729
▁Armen	-8730
▁Right	-8731
▁lobby	-8732
▁ought	-8733
▁Terror	-8734
▁basket	-8735
▁relent	-8736
▁Bolivia	-8737
▁assumes	-8738
▁confirm	-8739
▁drought	-8740
▁Catholic	-8741
▁fragment	-8742
▁guidance	-8743
▁maritime	-8744
▁promoted	-8745
▁factories	-8746
▁oversight	-8747
▁professor	-8748
▁recovered	-8749
▁scenarios	-8750
▁capitalist	-8751
▁connection	-8752
▁reasonably	-8753
▁undermines	-8754
▁efficiently	-8755
▁demonstrates	-8756
▁justification	-8757
▁characteristics	-8758
In	-8759
yo	-8760
▁x	-8761
irt	-8762
spec	-8763
▁Kaz	-8764
▁McK	-8765
▁box	-8766
▁gar	-8767
skept	-8768
▁Jose	-8769
▁Mand	-8770
▁Time	-8771
▁airc	-8772
▁fier	-8773
▁puzz	-8774
▁tide	-8775
USSELS	-8776
abetes	-8777
profit	-8778
▁Cairo	-8779
▁Chief	-8780
▁incap	-8781
▁units	-8782
defense	-8783
▁tragic	-8784
▁vested	-8785
communic	-8786
▁exceeds	-8787
▁notable	-8788
▁overhaul	-8789
▁pipeline	-8790
▁Brazilian	-8791
▁liability	-8792
▁portfolio	-8793
▁voluntary	-8794
▁ecosystems	-8795
▁traditions	-8796
▁requirement	-8797
▁commentators	-8798
▁polarization	-8799
▁interconnected	-8800
Wh	-8801
ym	-8802
anes	-8803
inct	-8804
▁rac	-8805
▁Stud	-8806
▁diet	-8807
▁toug	-8808
owners	-8809
▁Moham	-8810
▁ample	-8811
▁annex	-8812
▁crude	-8813
▁harmon	-8814
▁parity	-8815
ortheast	-8816
▁Charles	-8817
▁Senator	-8818
▁condemn	-8819
▁consume	-8820
▁exagger	-8821
▁traders	-8822
▁BRUSSELS	-8823
▁aircraft	-8824
▁fairness	-8825
▁interact	-8826
▁reversal	-8827
▁Consensus	-8828
▁discovery	-8829
▁militants	-8830
▁offensive	-8831
▁discontent	-8832
▁exacerbate	-8833
▁punishment	-8834
▁inequalities	-8835
▁manufacturers	-8836
▁recommendations	-8837
LA	-8838
5%.	-8839
isms	-8840
quis	-8841
▁sky	-8842
▁tab	-8843
▁Gene	-8844
▁Less	-8845
▁olig	-8846
encing	-8847
▁alter	-8848
▁incre	-8849
▁radio	-8850
▁refin	-8851
iration	-8852
station	-8853
▁behave	-8854
▁length	-8855
▁notice	-8856
▁preval	-8857
▁theore	-8858
▁asymmet	-8859
▁soaring	-8860
▁bailouts	-8861
▁translate	-8862
▁profitable	-8863
▁tremendous	-8864
▁degradation	-8865
Ps	-8866
hart	-8867
nedy	-8868
onym	-8869
▁Fuk	-8870
▁eat	-8871
arget	-8872
green	-8873
rafat	-8874
▁NGOs	-8875
▁cool	-8876
▁warm	-8877
resist	-8878
▁Lanka	-8879
▁dying	-8880
▁griev	-8881
▁relax	-8882
▁spoke	-8883
▁spons	-8884
▁Greeks	-8885
▁orders	-8886
▁timing	-8887
▁unanim	-8888
▁drawing	-8889
▁install	-8890
▁monopol	-8891
▁retreat	-8892
▁unclear	-8893
fficiency	-8894
▁Lebanese	-8895
▁confined	-8896
▁distrust	-8897
▁embedded	-8898
▁imported	-8899
▁printing	-8900
▁advancing	-8901
▁attracted	-8902
▁countless	-8903
▁forgotten	-8904
▁reference	-8905
▁Christians	-8906
▁disruptive	-8907
▁recessions	-8908
▁resentment	-8909
▁superpower	-8910
▁constitutes	-8911
▁diminishing	-8912
▁predictions	-8913
▁restructure	-8914
▁conservation	-8915
sum	-8916
ulg	-8917
Russ	-8918
ford	-8919
▁Cup	-8920
▁Roy	-8921
▁civ	-8922
▁rid	-8923
atter	-8924
dated	-8925
essed	-8926
osion	-8927
produ	-8928
▁Hait	-8929
▁reun	-8930
▁ster	-8931
arious	-8932
▁McKin	-8933
▁acted	-8934
▁forge	-8935
▁miles	-8936
▁squee	-8937
Western	-8938
enophob	-8939
▁Histor	-8940
▁Kazakh	-8941
▁Sunnis	-8942
▁master	-8943
▁resemb	-8944
▁Freedom	-8945
▁Juncker	-8946
▁Kennedy	-8947
▁Success	-8948
▁erosion	-8949
▁formula	-8950
ependence	-8951
▁admitted	-8952
▁chairman	-8953
▁distress	-8954
▁endorsed	-8955
▁Community	-8956
▁Sometimes	-8957
▁dimension	-8958
▁kilometers	-8959
▁accumulated	-8960
▁approaching	-8961
▁applications	-8962
YO	-8963
eal	-8964
▁CD	-8965
▁BEI	-8966
▁cum	-8967
▁Mart	-8968
▁Post	-8969
▁coff	-8970
▁pock	-8971
▁stal	-8972
▁subt	-8973
ilater	-8974
ocking	-8975
uously	-8976
▁2007.	-8977
▁Marsh	-8978
▁Niger	-8979
▁proof	-8980
lusions	-8981
▁Gordon	-8982
▁inputs	-8983
▁lifest	-8984
▁mathem	-8985
▁taught	-8986
▁transc	-8987
▁Finland	-8988
▁automob	-8989
▁Iranians	-8990
▁Strategy	-8991
▁Together	-8992
▁acquired	-8993
▁facility	-8994
▁partisan	-8995
▁philosop	-8996
▁warnings	-8997
▁promotion	-8998
▁biological	-8999
▁succession	-9000
▁techniques	-9001
▁undertaken	-9002
▁accordingly	-9003
▁anticipated	-9004
▁bureaucrats	-9005
▁controlling	-9006
▁transnational	-9007
▁unpredictable	-9008
UN	-9009
eft	-9010
erg	-9011
ino	-9012
OKYO	-9013
lers	-9014
made	-9015
▁aug	-9016
▁phr	-9017
▁sle	-9018
Islam	-9019
Semit	-9020
ounds	-9021
range	-9022
world	-9023
▁elev	-9024
▁horr	-9025
uggish	-9026
▁TOKYO	-9027
▁error	-9028
▁inhab	-9029
aunting	-9030
looking	-9031
▁breast	-9032
▁injust	-9033
inations	-9034
▁bombing	-9035
▁debtors	-9036
▁loyalty	-9037
▁passing	-9038
▁records	-9039
▁storage	-9040
▁suffers	-9041
▁defining	-9042
▁diminish	-9043
▁quarters	-9044
ilaterally	-9045
▁dismissed	-9046
▁extending	-9047
▁adequately	-9048
▁sanitation	-9049
▁disparities	-9050
▁expectation	-9051
▁deliberately	-9052
▁Congressional	-9053
▁irresponsible	-9054
ont	-9055
▁AM	-9056
▁ho	-9057
iasm	-9058
izer	-9059
ship	-9060
▁Est	-9061
▁Sam	-9062
▁Wen	-9063
▁dan	-9064
▁syn	-9065
comed	-9066
stone	-9067
ulent	-9068
uties	-9069
▁Debt	-9070
▁Pact	-9071
▁Wars	-9072
▁bulk	-9073
▁seat	-9074
▁wins	-9075
▁fifth	-9076
▁hence	-9077
▁sport	-9078
▁steep	-9079
▁ballot	-9080
▁barrel	-9081
▁bright	-9082
▁filled	-9083
▁phones	-9084
▁sphere	-9085
▁thrive	-9086
▁Sanders	-9087
▁Science	-9088
▁boosted	-9089
▁horizon	-9090
▁venture	-9091
istically	-9092
▁2008-200	-9093
▁diabetes	-9094
▁fighters	-9095
▁depressed	-9096
▁genuinely	-9097
▁correspond	-9098
▁destroying	-9099
▁insurgency	-9100
▁bondholders	-9101
▁connections	-9102
▁protections	-9103
▁indispensable	-9104
▁stabilization	-9105
Le	-9106
OM	-9107
amm	-9108
law	-9109
pel	-9110
▁Us	-9111
anth	-9112
elts	-9113
▁$2.	-9114
▁flu	-9115
▁pil	-9116
isons	-9117
owing	-9118
start	-9119
uated	-9120
▁Move	-9121
▁News	-9122
▁guer	-9123
▁heed	-9124
▁hire	-9125
▁semi	-9126
anship	-9127
irical	-9128
▁Round	-9129
▁allev	-9130
▁immun	-9131
▁named	-9132
igenous	-9133
lovakia	-9134
▁Arafat	-9135
▁differ	-9136
▁dozens	-9137
▁hatred	-9138
▁immune	-9139
▁relied	-9140
▁Leaders	-9141
▁Thaksin	-9142
▁delayed	-9143
▁discred	-9144
▁fastest	-9145
▁partial	-9146
▁reading	-9147
▁silence	-9148
▁village	-9149
▁comprise	-9150
▁contempl	-9151
▁normally	-9152
▁scrutiny	-9153
▁subjects	-9154
▁villages	-9155
▁Peninsula	-9156
▁childhood	-9157
▁departure	-9158
▁secretary	-9159
▁misleading	-9160
▁Infrastructure	-9161
EM	-9162
5%,	-9163
arer	-9164
aret	-9165
aval	-9166
cile	-9167
that	-9168
▁Raj	-9169
ashes	-9170
iants	-9171
▁SOEs	-9172
elfare	-9173
needed	-9174
▁Davos	-9175
▁Would	-9176
▁appet	-9177
▁rises	-9178
▁slump	-9179
levance	-9180
▁aggrav	-9181
▁listen	-9182
▁myriad	-9183
▁convert	-9184
▁warfare	-9185
▁reconcile	-9186
▁sacrifice	-9187
▁Developing	-9188
▁adaptation	-9189
▁boundaries	-9190
▁censorship	-9191
▁disarmament	-9192
▁negotiators	-9193
UR	-9194
yp	-9195
unk	-9196
▁Mo	-9197
imal	-9198
trad	-9199
▁unh	-9200
▁van	-9201
exist	-9202
▁grim	-9203
▁loud	-9204
rators	-9205
unning	-9206
▁1,000	-9207
▁actor	-9208
▁ambig	-9209
▁atroc	-9210
▁loose	-9211
▁pione	-9212
iencies	-9213
▁behalf	-9214
▁persec	-9215
▁punish	-9216
▁square	-9217
▁strain	-9218
ognitive	-9219
▁Special	-9220
▁coastal	-9221
▁invited	-9222
▁placing	-9223
▁privacy	-9224
▁Emerging	-9225
▁alarming	-9226
▁distance	-9227
▁freedoms	-9228
▁province	-9229
▁watching	-9230
▁welcomed	-9231
▁exclusion	-9232
▁Throughout	-9233
▁deployment	-9234
▁enthusiasm	-9235
▁exceptions	-9236
▁identities	-9237
▁Corporation	-9238
▁determining	-9239
▁transaction	-9240
▁transforming	-9241
▁automatically	-9242
▁Bor	-9243
▁Yan	-9244
▁vit	-9245
apons	-9246
esity	-9247
overs	-9248
ocaust	-9249
▁Singh	-9250
▁Water	-9251
▁array	-9252
▁marks	-9253
▁plain	-9254
▁Almost	-9255
▁Medved	-9256
▁Saudis	-9257
▁attain	-9258
▁racial	-9259
▁caution	-9260
▁disclos	-9261
▁issuing	-9262
▁located	-9263
▁postwar	-9264
▁spurred	-9265
▁substit	-9266
▁succumb	-9267
▁incompet	-9268
▁reminder	-9269
▁exclusive	-9270
▁imbalance	-9271
▁inherited	-9272
▁Kazakhstan	-9273
▁deterrence	-9274
▁discourage	-9275
▁enrichment	-9276
▁guidelines	-9277
▁remarkably	-9278
▁comfortable	-9279
▁exceptional	-9280
▁projections	-9281
▁deregulation	-9282
▁entrepreneur	-9283
▁facilitating	-9284
ago	-9285
oul	-9286
arus	-9287
irac	-9288
field	-9289
lined	-9290
▁Sach	-9291
▁edit	-9292
▁empt	-9293
▁pron	-9294
▁rand	-9295
▁resh	-9296
terror	-9297
▁chair	-9298
▁fruit	-9299
▁lifet	-9300
▁owned	-9301
achment	-9302
keeping	-9303
▁absurd	-9304
▁deadly	-9305
▁denial	-9306
▁ethics	-9307
▁induce	-9308
▁lately	-9309
▁savers	-9310
▁Belgium	-9311
▁Charter	-9312
▁combine	-9313
▁covered	-9314
▁dubious	-9315
▁engines	-9316
▁knowing	-9317
▁portion	-9318
▁defaults	-9319
▁reckless	-9320
▁budgetary	-9321
▁graduates	-9322
▁overnight	-9323
▁collection	-9324
▁decisively	-9325
▁preserving	-9326
▁substitute	-9327
▁Declaration	-9328
▁unnecessary	-9329
proliferation	-9330
▁Policymakers	-9331
aur	-9332
but	-9333
iam	-9334
ica	-9335
▁8.	-9336
▁Ra	-9337
AVEN	-9338
life	-9339
▁AKP	-9340
▁CIA	-9341
▁Vik	-9342
▁bus	-9343
▁vib	-9344
bonds	-9345
othes	-9346
▁Poor	-9347
▁shot	-9348
states	-9349
▁2030.	-9350
▁Banks	-9351
▁HAVEN	-9352
▁Swiss	-9353
▁bolst	-9354
▁param	-9355
▁peril	-9356
▁retal	-9357
private	-9358
riendly	-9359
▁Chirac	-9360
▁Future	-9361
▁Geneva	-9362
▁entity	-9363
▁fertil	-9364
▁sounds	-9365
▁Michael	-9366
▁charism	-9367
▁emerges	-9368
▁factory	-9369
▁unusual	-9370
▁Medvedev	-9371
▁audience	-9372
▁ignoring	-9373
▁inaction	-9374
▁liberals	-9375
▁spectrum	-9376
▁stagnant	-9377
▁stations	-9378
▁symbolic	-9379
▁whenever	-9380
▁Microsoft	-9381
▁enhancing	-9382
▁extension	-9383
▁gathering	-9384
▁performed	-9385
▁personnel	-9386
▁regulated	-9387
▁witnessed	-9388
▁encourages	-9389
▁incomplete	-9390
▁indigenous	-9391
▁reportedly	-9392
▁distortions	-9393
▁representing	-9394
▁subsequently	-9395
80	-9396
HA	-9397
cho	-9398
elf	-9399
asty	-9400
kans	-9401
▁Six	-9402
▁cow	-9403
▁cry	-9404
▁rot	-9405
otism	-9406
▁Prem	-9407
▁fant	-9408
▁kick	-9409
asting	-9410
omfort	-9411
retion	-9412
▁Catal	-9413
▁label	-9414
▁naval	-9415
▁notes	-9416
▁sched	-9417
▁unite	-9418
anthrop	-9419
▁benign	-9420
▁lender	-9421
▁poised	-9422
▁tested	-9423
arations	-9424
▁Olympic	-9425
▁dissent	-9426
▁revised	-9427
▁spreads	-9428
▁cautious	-9429
▁equipped	-9430
▁feelings	-9431
▁formally	-9432
▁theories	-9433
▁xenophob	-9434
management	-9435
▁conscious	-9436
▁entertain	-9437
▁imperfect	-9438
▁capability	-9439
▁protracted	-9440
▁triggering	-9441
▁citizenship	-9442
▁experiments	-9443
▁reinforcing	-9444
▁aggressively	-9445
▁collectively	-9446
▁environmentally	-9447
RA	-9448
aze	-9449
dad	-9450
esh	-9451
iki	-9452
asse	-9453
gans	-9454
icks	-9455
▁Age	-9456
▁bin	-9457
-2008	-9458
aying	-9459
ghdad	-9460
shore	-9461
▁meat	-9462
▁plot	-9463
▁scre	-9464
eltsin	-9465
▁craft	-9466
▁hikes	-9467
▁rebel	-9468
Israeli	-9469
liberal	-9470
ourcing	-9471
▁Either	-9472
▁debtor	-9473
▁entail	-9474
▁errors	-9475
▁habits	-9476
▁lifted	-9477
▁locked	-9478
▁orient	-9479
▁remitt	-9480
▁string	-9481
▁Belarus	-9482
▁Yeltsin	-9483
▁hegemon	-9484
▁interim	-9485
▁ordered	-9486
▁recruit	-9487
▁separat	-9488
▁Interest	-9489
▁enthusia	-9490
▁outflows	-9491
▁packages	-9492
▁removing	-9493
▁diagnosis	-9494
▁illiberal	-9495
▁conviction	-9496
▁statistical	-9497
▁accomplished	-9498
▁calculations	-9499
▁impoverished	-9500
jo	-9501
zh	-9502
FOR	-9503
dig	-9504
mas	-9505
Arab	-9506
JING	-9507
bial	-9508
ukov	-9509
▁Bay	-9510
▁Tok	-9511
▁mel	-9512
▁mil	-9513
iform	-9514
iracy	-9515
▁Pope	-9516
idable	-9517
▁2020.	-9518
▁artic	-9519
▁grass	-9520
▁habit	-9521
▁keeps	-9522
▁metap	-9523
▁neuro	-9524
▁resum	-9525
▁banned	-9526
▁excuse	-9527
▁phrase	-9528
▁repeat	-9529
▁burning	-9530
▁contains	-9531
▁factions	-9532
▁postpone	-9533
▁producer	-9534
▁Egyptians	-9535
▁allocated	-9536
▁automatic	-9537
▁breakdown	-9538
▁equitable	-9539
▁exchanges	-9540
▁indicator	-9541
▁meanwhile	-9542
▁misguided	-9543
▁reforming	-9544
▁restraint	-9545
▁scientist	-9546
vin	-9547
▁La	-9548
olly	-9549
omas	-9550
▁Cor	-9551
▁Jac	-9552
▁Jud	-9553
▁Leg	-9554
▁Nep	-9555
licop	-9556
worth	-9557
▁Rein	-9558
▁Roma	-9559
▁Sant	-9560
▁grab	-9561
▁hate	-9562
▁mudd	-9563
▁thin	-9564
Soviet	-9565
headed	-9566
▁1999,	-9567
▁Index	-9568
▁Sachs	-9569
▁greed	-9570
▁intim	-9571
▁proxy	-9572
▁store	-9573
▁topic	-9574
▁incons	-9575
▁luxury	-9576
▁random	-9577
▁robots	-9578
▁seized	-9579
▁BEIJING	-9580
▁Markets	-9581
▁Project	-9582
▁farming	-9583
▁passion	-9584
▁surveys	-9585
efficient	-9586
enhancing	-9587
financial	-9588
▁backward	-9589
▁diagnost	-9590
▁illusion	-9591
▁receives	-9592
corruption	-9593
▁criminals	-9594
▁rationale	-9595
▁replacing	-9596
▁socialist	-9597
▁compliance	-9598
▁creativity	-9599
▁electronic	-9600
▁formidable	-9601
▁frustrated	-9602
▁influenced	-9603
▁separation	-9604
▁evolutionary	-9605
▁conservatives	-9606
▁Representatives	-9607
25	-9608
ka	-9609
za	-9610
ova	-9611
rol	-9612
erto	-9613
mble	-9614
thal	-9615
ugos	-9616
umer	-9617
uras	-9618
▁CCP	-9619
▁Dam	-9620
▁FDI	-9621
▁NPT	-9622
Qaeda	-9623
oline	-9624
▁Gaul	-9625
▁fees	-9626
▁Nepal	-9627
▁Royal	-9628
▁Tokyo	-9629
▁genet	-9630
▁prest	-9631
▁tells	-9632
▁weigh	-9633
outhern	-9634
ugoslav	-9635
▁Franco	-9636
▁fisher	-9637
▁hiring	-9638
▁ingred	-9639
▁nobody	-9640
▁slogan	-9641
▁Increas	-9642
▁Silicon	-9643
▁Summers	-9644
▁clients	-9645
▁insight	-9646
▁logical	-9647
▁physics	-9648
▁strange	-9649
▁urgency	-9650
▁McKinsey	-9651
▁amounted	-9652
▁daunting	-9653
▁resident	-9654
▁Holocaust	-9655
▁Obviously	-9656
▁assessing	-9657
▁disregard	-9658
▁formation	-9659
▁routinely	-9660
▁peripheral	-9661
▁disruptions	-9662
▁interference	-9663
▁profitability	-9664
.,	-9665
30	-9666
sm	-9667
coh	-9668
▁Av	-9669
▁Ha	-9670
▁IT	-9671
▁Up	-9672
atan	-9673
city	-9674
sett	-9675
▁Hig	-9676
▁Opp	-9677
▁Spe	-9678
▁Too	-9679
ravel	-9680
▁Coal	-9681
orders	-9682
ranted	-9683
▁Chair	-9684
▁accus	-9685
▁bases	-9686
▁breed	-9687
▁cards	-9688
▁dozen	-9689
▁names	-9690
▁swift	-9691
▁tanks	-9692
▁Joseph	-9693
▁Leader	-9694
▁Puerto	-9695
▁Viktor	-9696
▁doctor	-9697
▁handle	-9698
▁pretty	-9699
▁spends	-9700
▁Nothing	-9701
▁antagon	-9702
▁customs	-9703
▁endorse	-9704
▁intoler	-9705
▁reveals	-9706
estically	-9707
▁Movement	-9708
▁borrowed	-9709
▁incumbent	-9710
▁qualified	-9711
▁permanently	-9712
▁recommended	-9713
▁approximately	-9714
▁participating	-9715
▁possibilities	-9716
SB	-9717
bu	-9718
iph	-9719
▁26	-9720
▁CN	-9721
aire	-9722
▁Abu	-9723
▁sli	-9724
iates	-9725
▁pund	-9726
erated	-9727
normal	-9728
▁foods	-9729
▁monet	-9730
▁towns	-9731
ariably	-9732
atories	-9733
▁Former	-9734
▁hidden	-9735
▁overly	-9736
▁thinks	-9737
▁unreal	-9738
liaments	-9739
▁Current	-9740
▁authors	-9741
▁closest	-9742
▁revived	-9743
▁satisfy	-9744
▁station	-9745
▁appetite	-9746
▁memories	-9747
▁militias	-9748
▁paradigm	-9749
▁resisted	-9750
▁troubles	-9751
▁broadcast	-9752
▁overthrow	-9753
▁suppliers	-9754
▁abandoning	-9755
▁attracting	-9756
▁presumably	-9757
▁composition	-9758
Ind	-9759
FORD	-9760
agog	-9761
inav	-9762
lass	-9763
wart	-9764
▁$50	-9765
▁unm	-9766
▁wre	-9767
cohol	-9768
▁2030	-9769
▁Near	-9770
▁brib	-9771
▁hier	-9772
▁rice	-9773
rising	-9774
▁cliff	-9775
▁matur	-9776
▁pivot	-9777
▁seeds	-9778
▁socio	-9779
andinav	-9780
induced	-9781
limited	-9782
▁Better	-9783
▁Thanks	-9784
▁abrupt	-9785
▁grants	-9786
▁hazard	-9787
▁rebell	-9788
▁heading	-9789
▁inspire	-9790
▁–&#160;	-9791
developed	-9792
▁blocking	-9793
▁massacre	-9794
▁mistrust	-9795
▁tactical	-9796
▁decentral	-9797
▁dividends	-9798
▁launching	-9799
▁permitted	-9800
▁attributed	-9801
▁originally	-9802
▁conclusions	-9803
▁dangerously	-9804
▁intensified	-9805
▁understands	-9806
▁normalization	-9807
▁democratization	-9808
If	-9809
fur	-9810
zen	-9811
bear	-9812
ials	-9813
ques	-9814
wait	-9815
wood	-9816
▁Old	-9817
▁Wil	-9818
▁tap	-9819
World	-9820
asant	-9821
eline	-9822
fifth	-9823
roads	-9824
▁abst	-9825
▁fled	-9826
▁synt	-9827
Brexit	-9828
ularly	-9829
▁2002,	-9830
▁Delhi	-9831
▁Games	-9832
▁perce	-9833
▁vague	-9834
atollah	-9835
version	-9836
▁bacter	-9837
▁favors	-9838
▁mining	-9839
▁solved	-9840
▁100,000	-9841
▁Premier	-9842
▁Similar	-9843
▁examine	-9844
▁obesity	-9845
▁prestig	-9846
▁rewards	-9847
▁vibrant	-9848
▁Abdullah	-9849
▁averaged	-9850
▁favorite	-9851
▁frontier	-9852
▁imminent	-9853
▁insights	-9854
▁treating	-9855
▁arbitrary	-9856
▁depending	-9857
▁municipal	-9858
▁provinces	-9859
▁radically	-9860
▁skeptical	-9861
▁grievances	-9862
▁nomination	-9863
▁psychology	-9864
▁reluctance	-9865
▁introducing	-9866
▁parliaments	-9867
▁unification	-9868
▁nationalists	-9869
IL	-9870
Pro	-9871
cep	-9872
too	-9873
ych	-9874
▁2,	-9875
▁Ug	-9876
rock	-9877
▁mir	-9878
after	-9879
ronts	-9880
▁Prom	-9881
▁WWII	-9882
▁grip	-9883
▁wary	-9884
atural	-9885
cially	-9886
▁Henry	-9887
▁games	-9888
▁acquis	-9889
▁bipart	-9890
▁detect	-9891
▁fierce	-9892
▁replic	-9893
▁stages	-9894
▁traded	-9895
▁Balkans	-9896
▁Yanukov	-9897
▁compare	-9898
▁episode	-9899
▁extends	-9900
▁propose	-9901
▁secured	-9902
▁uniform	-9903
▁Marshall	-9904
▁maneuver	-9905
▁preoccup	-9906
▁Companies	-9907
▁empirical	-9908
▁literally	-9909
▁pervasive	-9910
▁Australian	-9911
▁Ironically	-9912
▁fragmented	-9913
▁restricted	-9914
▁outstanding	-9915
▁fluctuations	-9916
▁malnutrition	-9917
▁unilaterally	-9918
▁fragmentation	-9919
▁industrialized	-9920
40	-9921
ida	-9922
ped	-9923
rim	-9924
rian	-9925
attle	-9926
ports	-9927
▁Fear	-9928
▁phot	-9929
ivable	-9930
vation	-9931
▁Basel	-9932
▁Ghana	-9933
▁avert	-9934
▁coerc	-9935
▁enshr	-9936
▁feels	-9937
▁sheer	-9938
attered	-9939
roughts	-9940
▁shrink	-9941
▁silent	-9942
educated	-9943
▁Mohamed	-9944
▁agendas	-9945
▁despair	-9946
▁handful	-9947
▁migrant	-9948
communist	-9949
▁displace	-9950
▁impunity	-9951
▁predomin	-9952
▁Scandinav	-9953
▁advocated	-9954
▁scheduled	-9955
▁Yanukovych	-9956
▁discretion	-9957
▁indication	-9958
▁centralized	-9959
▁marginalized	-9960
!”	-9961
ARC	-9962
aug	-9963
char	-9964
gian	-9965
ilty	-9966
▁Mic	-9967
▁Ste	-9968
▁Tam	-9969
▁hus	-9970
▁twe	-9971
eches	-9972
▁1950	-9973
▁Mali	-9974
▁Mark	-9975
▁Mayn	-9976
▁Soon	-9977
▁Tayy	-9978
orough	-9979
seless	-9980
▁Popul	-9981
▁cited	-9982
▁rigor	-9983
▁Kuwait	-9984
▁Thomas	-9985
friendly	-9986
▁Romania	-9987
▁alcohol	-9988
▁arsenal	-9989
▁enlight	-9990
▁mindset	-9991
▁removal	-9992
▁settled	-9993
effective	-9994
ugoslavia	-9995
▁Military	-9996
▁deserves	-9997
▁morality	-9998
▁opponent	-9999
▁overhang	-10000
▁considers	-10001
▁incapable	-10002
▁outsiders	-10003
▁paralysis	-10004
▁reactions	-10005
▁worsening	-10006
development	-10007
▁coalitions	-10008
▁coordinate	-10009
▁deliberate	-10010
▁invariably	-10011
▁reflection	-10012
▁respective	-10013
▁containment	-10014
▁discredited	-10015
▁perceptions	-10016
▁deterioration	-10017
aba	-10018
▁9%	-10019
avor	-10020
will	-10021
▁ped	-10022
ruits	-10023
▁Rome	-10024
▁gest	-10025
▁outp	-10026
▁sick	-10027
arians	-10028
ricane	-10029
▁1989,	-10030
▁2005.	-10031
▁Black	-10032
▁Recep	-10033
▁afflu	-10034
▁likes	-10035
▁reign	-10036
ajority	-10037
capital	-10038
etitive	-10039
raining	-10040
▁Darfur	-10041
▁Tayyip	-10042
▁lacked	-10043
▁strang	-10044
▁worsen	-10045
intended	-10046
▁Maynard	-10047
▁adviser	-10048
▁compact	-10049
▁intimid	-10050
reduction	-10051
▁Agricult	-10052
▁Recently	-10053
▁adjusted	-10054
▁infected	-10055
▁lifetime	-10056
▁refusing	-10057
▁tolerate	-10058
ologically	-10059
▁concerted	-10060
▁crackdown	-10061
▁explosion	-10062
▁reasoning	-10063
▁Protection	-10064
▁disturbing	-10065
▁motivation	-10066
▁philanthrop	-10067
▁practically	-10068
▁probability	-10069
▁transitions	-10070
ki	-10071
▁i	-10072
gra	-10073
rov	-10074
alls	-10075
aped	-10076
bean	-10077
ests	-10078
▁Ser	-10079
▁tub	-10080
▁uni	-10081
andhi	-10082
pered	-10083
value	-10084
▁Nord	-10085
▁PBOC	-10086
▁clar	-10087
▁mant	-10088
▁mild	-10089
▁sale	-10090
▁unav	-10091
uating	-10092
▁Laden	-10093
▁bless	-10094
▁drast	-10095
▁outwe	-10096
▁rests	-10097
▁scene	-10098
ography	-10099
▁beings	-10100
▁buyers	-10101
▁fright	-10102
▁nomine	-10103
▁vastly	-10104
▁Baghdad	-10105
▁denying	-10106
▁essence	-10107
▁futures	-10108
▁helpful	-10109
▁lifting	-10110
▁origins	-10111
▁readily	-10112
▁sitting	-10113
▁stalled	-10114
▁Administ	-10115
▁Southern	-10116
▁decrease	-10117
▁droughts	-10118
▁gasoline	-10119
▁mathemat	-10120
▁mistaken	-10121
▁sluggish	-10122
orestation	-10123
▁empowered	-10124
▁unleashed	-10125
▁sustaining	-10126
withstanding	-10127
▁complacency	-10128
▁interaction	-10129
70	-10130
irs	-10131
pre	-10132
sky	-10133
▁Ol	-10134
▁et	-10135
onic	-10136
▁Rem	-10137
▁esp	-10138
Frank	-10139
icket	-10140
itant	-10141
▁1989	-10142
▁AIIB	-10143
▁Dodd	-10144
▁Mold	-10145
▁Prov	-10146
▁Zeal	-10147
▁aren	-10148
▁blue	-10149
▁cere	-10150
▁shed	-10151
funded	-10152
▁Annan	-10153
▁Haiti	-10154
▁Scott	-10155
▁Sinai	-10156
▁climb	-10157
▁empty	-10158
▁mired	-10159
▁music	-10160
▁reson	-10161
manship	-10162
riminal	-10163
▁Twenty	-10164
financed	-10165
▁Gazprom	-10166
▁council	-10167
▁endless	-10168
▁extract	-10169
▁stagger	-10170
▁activist	-10171
▁imagined	-10172
▁instinct	-10173
▁renegoti	-10174
▁speeches	-10175
▁thorough	-10176
▁Ayatollah	-10177
▁Socialist	-10178
▁combating	-10179
▁indicated	-10180
▁accessible	-10181
▁autocratic	-10182
▁ecological	-10183
▁overcoming	-10184
▁undergoing	-10185
▁continental	-10186
▁remittances	-10187
án	-10188
big	-10189
ela	-10190
epr	-10191
nov	-10192
▁Pi	-10193
azon	-10194
idal	-10195
▁Has	-10196
▁fro	-10197
derón	-10198
fired	-10199
▁Cost	-10200
▁nost	-10201
▁ship	-10202
▁clout	-10203
▁euros	-10204
▁prize	-10205
▁throw	-10206
▁wield	-10207
▁Asians	-10208
▁culmin	-10209
▁defect	-10210
▁gotten	-10211
▁recipe	-10212
affected	-10213
▁rethink	-10214
▁subsidy	-10215
▁Politics	-10216
▁Xiaoping	-10217
▁episodes	-10218
▁location	-10219
▁suppress	-10220
▁tangible	-10221
▁believing	-10222
▁cognitive	-10223
▁declaring	-10224
▁ignorance	-10225
▁appearance	-10226
▁atrocities	-10227
▁renewables	-10228
▁advertising	-10229
▁breakthroughs	-10230
UL	-10231
mal	-10232
▁80	-10233
burg	-10234
disc	-10235
▁WHO	-10236
▁peg	-10237
▁rum	-10238
ceans	-10239
cture	-10240
human	-10241
▁aver	-10242
▁elig	-10243
▁mega	-10244
▁tone	-10245
German	-10246
pelled	-10247
usions	-10248
▁Exper	-10249
▁Guant	-10250
▁clash	-10251
▁drone	-10252
▁fatal	-10253
▁march	-10254
▁Refuge	-10255
▁desert	-10256
▁duties	-10257
▁pillar	-10258
▁poison	-10259
location	-10260
▁Private	-10261
▁Swedish	-10262
▁Zealand	-10263
▁letting	-10264
▁monthly	-10265
▁pundits	-10266
▁rampant	-10267
▁Calderón	-10268
▁ceasefire	-10269
▁generates	-10270
▁perfectly	-10271
▁withstand	-10272
▁automation	-10273
▁bipartisan	-10274
▁cosmopolit	-10275
▁underground	-10276
▁Specifically	-10277
▁longstanding	-10278
▁manufactured	-10279
▁disappointing	-10280
▁underestimated	-10281
Af	-10282
TT	-10283
iza	-10284
jan	-10285
▁Rio	-10286
itous	-10287
▁2020	-10288
▁Budd	-10289
▁OPEC	-10290
▁Open	-10291
▁aged	-10292
▁boss	-10293
▁cler	-10294
▁damp	-10295
▁park	-10296
▁sums	-10297
arrass	-10298
assion	-10299
ushima	-10300
▁Panel	-10301
▁bombs	-10302
▁inhib	-10303
▁items	-10304
▁touch	-10305
atively	-10306
▁Action	-10307
▁Gandhi	-10308
▁genome	-10309
▁Johnson	-10310
▁outlets	-10311
▁solving	-10312
▁therapy	-10313
▁tougher	-10314
roductive	-10315
▁doubling	-10316
▁Inflation	-10317
▁academics	-10318
▁allegedly	-10319
▁defensive	-10320
▁insisting	-10321
▁intensify	-10322
▁maintains	-10323
▁systematic	-10324
▁incremental	-10325
▁resolutions	-10326
▁domestically	-10327
▁demonstrating	-10328
▁multilateralism	-10329
EF	-10330
SR	-10331
net	-10332
ski	-10333
▁ES	-10334
iots	-10335
▁AMR	-10336
▁Att	-10337
▁Ecu	-10338
▁asc	-10339
▁fab	-10340
▁voc	-10341
rance	-10342
richt	-10343
▁Fail	-10344
▁Rico	-10345
▁ampl	-10346
▁shel	-10347
▁2001.	-10348
▁Buddh	-10349
▁Smith	-10350
▁civic	-10351
▁effic	-10352
▁erode	-10353
▁reaff	-10354
▁shoot	-10355
herence	-10356
ordable	-10357
welfare	-10358
▁Forces	-10359
▁arrive	-10360
▁floods	-10361
▁hoping	-10362
▁ideals	-10363
▁inward	-10364
▁misman	-10365
▁plight	-10366
▁potent	-10367
▁sevent	-10368
▁tenure	-10369
astricht	-10370
▁Affairs	-10371
▁obliged	-10372
▁restaur	-10373
▁smoking	-10374
▁symptom	-10375
▁Everyone	-10376
▁emotions	-10377
▁enforced	-10378
▁equities	-10379
▁evolving	-10380
▁excesses	-10381
▁initiate	-10382
▁prompted	-10383
▁ratified	-10384
▁referred	-10385
▁undercut	-10386
▁addresses	-10387
▁intensity	-10388
▁documented	-10389
▁enthusiast	-10390
▁heightened	-10391
▁militarily	-10392
▁skepticism	-10393
▁elimination	-10394
▁replacement	-10395
▁indefinitely	-10396
▁telecommunic	-10397
▁Revolutionary	-10398
▁interdependence	-10399
/1	-10400
As	-10401
awn	-10402
omy	-10403
uay	-10404
▁$9	-10405
▁fr	-10406
▁35%	-10407
▁75%	-10408
▁Dem	-10409
▁NCD	-10410
▁aro	-10411
skill	-10412
ungry	-10413
ushed	-10414
▁Home	-10415
▁Imag	-10416
▁Stan	-10417
▁ring	-10418
ensity	-10419
etting	-10420
ferent	-10421
social	-10422
▁Nazis	-10423
▁blunt	-10424
▁conqu	-10425
▁robot	-10426
athered	-10427
quarter	-10428
▁Arctic	-10429
▁Gaulle	-10430
▁Uganda	-10431
▁devise	-10432
▁eroded	-10433
▁insurg	-10434
▁marine	-10435
▁prejud	-10436
▁quotas	-10437
▁season	-10438
▁credits	-10439
▁militar	-10440
▁offices	-10441
▁trapped	-10442
▁unravel	-10443
insurance	-10444
▁Exchange	-10445
▁Ministry	-10446
▁invented	-10447
▁mainland	-10448
▁revision	-10449
▁teaching	-10450
▁Abenomics	-10451
▁embracing	-10452
▁neglected	-10453
▁satellite	-10454
▁schooling	-10455
▁struggled	-10456
▁Venezuelan	-10457
▁comprising	-10458
▁sentiments	-10459
▁controversy	-10460
▁disappeared	-10461
▁exemplified	-10462
▁technocratic	-10463
▁assassination	-10464
▁beneficiaries	-10465
JP	-10466
PJ	-10467
apt	-10468
arc	-10469
ken	-10470
nes	-10471
ros	-10472
upp	-10473
▁Ko	-10474
▁Ox	-10475
eded	-10476
good	-10477
mare	-10478
▁Ach	-10479
▁Hug	-10480
▁Kir	-10481
▁dry	-10482
asure	-10483
digit	-10484
ercul	-10485
grade	-10486
great	-10487
▁Alan	-10488
▁Oslo	-10489
▁monu	-10490
▁rage	-10491
▁unth	-10492
ighted	-10493
▁Guard	-10494
▁Moral	-10495
▁embod	-10496
▁guess	-10497
▁hypoc	-10498
▁shame	-10499
▁spear	-10500
autiful	-10501
▁Budget	-10502
▁Common	-10503
▁Marine	-10504
▁McCain	-10505
▁Prince	-10506
▁arises	-10507
▁deputy	-10508
▁enroll	-10509
▁masses	-10510
▁wasted	-10511
▁existed	-10512
▁flowing	-10513
▁harness	-10514
erculosis	-10515
regulated	-10516
▁assembly	-10517
▁category	-10518
▁commonly	-10519
▁deciding	-10520
▁disputed	-10521
▁Fukushima	-10522
▁dedicated	-10523
▁historian	-10524
▁necessity	-10525
▁proposing	-10526
▁upgrading	-10527
▁Maastricht	-10528
▁Yugoslavia	-10529
▁inherently	-10530
▁safeguards	-10531
▁assessments	-10532
▁facilitated	-10533
▁revelations	-10534
▁conversation	-10535
▁vulnerabilities	-10536
27	-10537
BC	-10538
CH	-10539
▁om	-10540
iors	-10541
▁Hel	-10542
▁Tob	-10543
▁dil	-10544
▁lit	-10545
iably	-10546
isive	-10547
▁Kash	-10548
▁Lula	-10549
▁MDGs	-10550
▁narr	-10551
▁tech	-10552
incial	-10553
ournal	-10554
▁Cuban	-10555
▁Hindu	-10556
▁bleak	-10557
▁overe	-10558
▁voter	-10559
iversal	-10560
▁adhere	-10561
▁drives	-10562
▁fronts	-10563
▁metric	-10564
▁ostens	-10565
▁switch	-10566
icularly	-10567
▁Banking	-10568
▁Ecuador	-10569
▁booming	-10570
▁emulate	-10571
▁founder	-10572
▁holders	-10573
▁motives	-10574
▁pillars	-10575
▁prudent	-10576
▁studied	-10577
▁trusted	-10578
dominated	-10579
▁Franklin	-10580
▁applying	-10581
▁lobbying	-10582
▁offshore	-10583
▁oligarch	-10584
▁prevents	-10585
▁quantity	-10586
▁survived	-10587
▁universe	-10588
celeration	-10589
▁certainty	-10590
▁forefront	-10591
▁autonomous	-10592
▁liberalism	-10593
▁ministries	-10594
▁supplement	-10595
▁concentrate	-10596
▁implication	-10597
▁deforestation	-10598
▁uncertainties	-10599
-4	-10600
afe	-10601
reb	-10602
rev	-10603
uble	-10604
▁Ice	-10605
achev	-10606
apter	-10607
board	-10608
emate	-10609
speed	-10610
vigor	-10611
▁Ever	-10612
▁Prop	-10613
▁baby	-10614
enable	-10615
inians	-10616
▁1950’	-10617
▁2000.	-10618
▁Offic	-10619
▁Secur	-10620
▁booms	-10621
▁cruel	-10622
▁inaug	-10623
▁ports	-10624
▁preca	-10625
ighting	-10626
▁Martin	-10627
▁Regard	-10628
▁embass	-10629
▁oceans	-10630
▁stockp	-10631
▁triple	-10632
▁apparat	-10633
▁appeals	-10634
▁breakup	-10635
▁conting	-10636
▁helicop	-10637
▁inhabit	-10638
▁suscept	-10639
▁unequal	-10640
izational	-10641
▁disposal	-10642
▁incident	-10643
▁organize	-10644
▁shocking	-10645
&#45;&#45;	-10646
▁Investors	-10647
▁documents	-10648
▁statehood	-10649
▁substance	-10650
▁narratives	-10651
▁staggering	-10652
▁communicate	-10653
▁entrepreneurial	-10654
unc	-10655
euro	-10656
kind	-10657
uepr	-10658
▁Exp	-10659
▁Jim	-10660
enter	-10661
ousse	-10662
phone	-10663
umbai	-10664
▁1991	-10665
▁2017	-10666
▁Care	-10667
▁Mikh	-10668
▁Youn	-10669
▁cush	-10670
▁issu	-10671
▁loos	-10672
▁nerv	-10673
perial	-10674
▁Anglo	-10675
▁Could	-10676
▁Event	-10677
▁River	-10678
▁dealt	-10679
▁envis	-10680
▁panel	-10681
finance	-10682
ievable	-10683
porting	-10684
tenance	-10685
umbling	-10686
▁Confuc	-10687
▁Syriza	-10688
▁expose	-10689
▁guided	-10690
▁patron	-10691
▁physic	-10692
▁rememb	-10693
▁scores	-10694
▁soccer	-10695
resolved	-10696
▁Earlier	-10697
▁Jacques	-10698
▁coupled	-10699
▁durable	-10700
▁expects	-10701
▁journey	-10702
▁minutes	-10703
▁pressed	-10704
▁strains	-10705
▁friendly	-10706
▁instance	-10707
especially	-10708
▁embarrass	-10709
▁infection	-10710
▁liberties	-10711
▁marketing	-10712
▁relevance	-10713
▁somewhere	-10714
▁strengths	-10715
▁ambassador	-10716
▁continuous	-10717
▁processing	-10718
▁accommodate	-10719
▁limitations	-10720
▁maintenance	-10721
▁trafficking	-10722
▁exploitation	-10723
▁deteriorating	-10724
▁diversification	-10725
IR	-10726
SF	-10727
bul	-10728
due	-10729
exp	-10730
case	-10731
fulf	-10732
igil	-10733
osni	-10734
▁Mem	-10735
▁Yas	-10736
aming	-10737
icago	-10738
ienna	-10739
▁1999	-10740
▁Gorb	-10741
▁Marg	-10742
▁Stra	-10743
▁Thai	-10744
▁blog	-10745
▁feet	-10746
▁urge	-10747
ibbean	-10748
reason	-10749
▁Hosni	-10750
▁divor	-10751
▁exped	-10752
▁forum	-10753
▁fract	-10754
▁score	-10755
▁swing	-10756
▁urged	-10757
▁video	-10758
acities	-10759
conserv	-10760
ignific	-10761
ortions	-10762
▁Amazon	-10763
▁Castro	-10764
▁affair	-10765
▁giants	-10766
▁illust	-10767
▁revolt	-10768
▁unhapp	-10769
▁wishes	-10770
changing	-10771
▁Goldman	-10772
▁Syrians	-10773
▁battles	-10774
▁bearing	-10775
▁circles	-10776
▁discern	-10777
▁endured	-10778
▁ignores	-10779
▁linking	-10780
▁morally	-10781
olidarity	-10782
▁Medicare	-10783
▁clearing	-10784
▁exceeded	-10785
▁flooding	-10786
▁literacy	-10787
▁respects	-10788
▁signaled	-10789
▁tackling	-10790
▁Caribbean	-10791
▁Eurobonds	-10792
▁exercises	-10793
▁exploited	-10794
▁healthier	-10795
▁plummeted	-10796
▁violation	-10797
▁&#45;&#45;	-10798
▁behavioral	-10799
▁emphasizes	-10800
▁insistence	-10801
▁performing	-10802
▁proclaimed	-10803
▁compromises	-10804
▁eradication	-10805
▁residential	-10806
▁indifference	-10807
▁intensifying	-10808
▁Environmental	-10809
-9	-10810
aku	-10811
ben	-10812
obs	-10813
via	-10814
who	-10815
▁9.	-10816
▁AT	-10817
feld	-10818
namo	-10819
role	-10820
▁Ott	-10821
▁Was	-10822
▁cra	-10823
ipras	-10824
ánamo	-10825
▁Cels	-10826
▁Crit	-10827
▁Main	-10828
▁intu	-10829
▁walk	-10830
dollar	-10831
▁arrog	-10832
▁borne	-10833
▁cripp	-10834
▁erect	-10835
▁prone	-10836
▁redef	-10837
diction	-10838
▁Libyan	-10839
▁Manuel	-10840
▁Nearly	-10841
▁Review	-10842
▁conced	-10843
▁guilty	-10844
▁oversh	-10845
▁suited	-10846
▁Celsius	-10847
▁Certain	-10848
▁Imagine	-10849
▁Tsipras	-10850
▁clarity	-10851
▁clearer	-10852
▁harvest	-10853
▁inherit	-10854
▁mineral	-10855
▁pockets	-10856
resistant	-10857
▁activism	-10858
▁daughter	-10859
▁feedback	-10860
▁guerrill	-10861
▁killings	-10862
▁militant	-10863
▁outweigh	-10864
▁presents	-10865
▁segments	-10866
▁sweeping	-10867
▁Gorbachev	-10868
▁champions	-10869
▁correctly	-10870
▁excellent	-10871
▁fertility	-10872
▁injustice	-10873
▁Ukrainians	-10874
▁preventive	-10875
▁provincial	-10876
▁unresolved	-10877
▁destination	-10878
▁humiliation	-10879
▁identifying	-10880
▁legislators	-10881
▁philosopher	-10882
▁technocrats	-10883
ps	-10884
”;	-10885
isk	-10886
exas	-10887
ften	-10888
ills	-10889
raid	-10890
▁$40	-10891
▁Dig	-10892
▁ICT	-10893
▁Liu	-10894
▁bea	-10895
▁ham	-10896
▁haw	-10897
ricts	-10898
roika	-10899
▁peer	-10900
▁rapp	-10901
▁reap	-10902
people	-10903
▁Maybe	-10904
▁Techn	-10905
▁infer	-10906
▁irrig	-10907
▁maybe	-10908
▁smugg	-10909
▁swept	-10910
ologist	-10911
reating	-10912
weapons	-10913
▁Baltic	-10914
▁Mumbai	-10915
▁breaks	-10916
▁freeze	-10917
▁native	-10918
▁outset	-10919
▁reserv	-10920
▁rivers	-10921
▁sensit	-10922
▁tribun	-10923
▁winter	-10924
▁Between	-10925
▁Chicago	-10926
▁Mandela	-10927
▁Mikhail	-10928
▁assured	-10929
▁destiny	-10930
▁gravity	-10931
▁miracle	-10932
▁reaches	-10933
▁utterly	-10934
▁vehicle	-10935
itization	-10936
▁Children	-10937
▁drinking	-10938
▁integral	-10939
▁traction	-10940
▁Christmas	-10941
▁troubling	-10942
▁Guantánamo	-10943
▁attraction	-10944
▁casualties	-10945
▁cumulative	-10946
▁fulfilling	-10947
▁indirectly	-10948
▁overlooked	-10949
▁preference	-10950
▁contributes	-10951
▁enlightened	-10952
▁exaggerated	-10953
▁imagination	-10954
▁theoretical	-10955
▁totalitarian	-10956
-5	-10957
AL	-10958
iy	-10959
Cla	-10960
emy	-10961
non	-10962
sub	-10963
ule	-10964
away	-10965
bert	-10966
clos	-10967
iege	-10968
obil	-10969
ulum	-10970
▁Com	-10971
▁Tea	-10972
▁Val	-10973
▁gal	-10974
▁sat	-10975
eding	-10976
issue	-10977
ivial	-10978
wered	-10979
▁1995	-10980
▁Hugo	-10981
▁Well	-10982
▁Wild	-10983
▁gang	-10984
Claude	-10985
Muslim	-10986
roleum	-10987
▁2030,	-10988
▁Canad	-10989
▁Renzi	-10990
▁bears	-10991
▁brave	-10992
▁embar	-10993
▁quasi	-10994
▁spark	-10995
economy	-10996
elected	-10997
ication	-10998
inkable	-10999
rategic	-11000
ustomed	-11001
▁anyway	-11002
▁bluepr	-11003
▁dreams	-11004
▁electr	-11005
▁nostal	-11006
▁Journal	-11007
▁Moldova	-11008
▁cynical	-11009
▁desired	-11010
▁margins	-11011
▁provoke	-11012
icultural	-11013
rudential	-11014
▁Reinhart	-11015
▁abundant	-11016
▁consists	-11017
▁irrevers	-11018
▁missions	-11019
▁proposes	-11020
▁scarcity	-11021
▁selected	-11022
▁stressed	-11023
▁celebrate	-11024
▁districts	-11025
▁everybody	-11026
▁execution	-11027
▁fostering	-11028
▁mentioned	-11029
▁nightmare	-11030
▁rejecting	-11031
▁unlimited	-11032
otechnology	-11033
▁escalating	-11034
▁privileged	-11035
▁suspicious	-11036
▁unintended	-11037
▁subsidiaries	-11038
200	-11039
lie	-11040
rey	-11041
amac	-11042
rend	-11043
▁Dub	-11044
▁Ext	-11045
▁Rog	-11046
▁odd	-11047
acked	-11048
child	-11049
ellen	-11050
itage	-11051
▁Cauc	-11052
▁Deal	-11053
▁Fram	-11054
▁Zhou	-11055
▁medi	-11056
▁west	-11057
asions	-11058
urning	-11059
▁1997,	-11060
▁Money	-11061
▁Small	-11062
▁Texas	-11063
▁calam	-11064
▁doors	-11065
▁floor	-11066
▁reper	-11067
amacare	-11068
ussions	-11069
▁Scient	-11070
▁Vienna	-11071
▁assemb	-11072
▁consec	-11073
▁curric	-11074
▁firing	-11075
▁insure	-11076
▁spoken	-11077
▁thwart	-11078
illusion	-11079
ineering	-11080
▁anytime	-11081
▁hardest	-11082
▁lowered	-11083
▁maximum	-11084
▁optimal	-11085
▁patents	-11086
▁covering	-11087
▁hardship	-11088
▁instruct	-11089
▁maternal	-11090
▁operates	-11091
▁reminded	-11092
▁accompany	-11093
▁assertive	-11094
▁attacking	-11095
▁beautiful	-11096
▁compelled	-11097
▁describes	-11098
▁orthodoxy	-11099
▁suspended	-11100
denominated	-11101
functioning	-11102
▁accurately	-11103
▁advocating	-11104
▁anticipate	-11105
▁committing	-11106
▁containing	-11107
▁distribute	-11108
▁homeowners	-11109
▁insolvency	-11110
▁ostensibly	-11111
▁peacefully	-11112
▁conditional	-11113
▁contentious	-11114
▁immunization	-11115
▁Administration	-11116
WF	-11117
TAN	-11118
ads	-11119
kew	-11120
▁–&	-11121
ania	-11122
▁DPJ	-11123
▁Dal	-11124
▁ath	-11125
▁mad	-11126
ringe	-11127
roche	-11128
uming	-11129
▁1992	-11130
▁Biny	-11131
▁Left	-11132
▁akin	-11133
▁jail	-11134
▁plag	-11135
▁sist	-11136
esbank	-11137
lywood	-11138
requis	-11139
school	-11140
ushing	-11141
▁Parad	-11142
▁delic	-11143
▁exhib	-11144
▁fired	-11145
▁movie	-11146
▁pregn	-11147
▁royal	-11148
ropical	-11149
▁Rousse	-11150
▁counts	-11151
▁fabric	-11152
▁lethal	-11153
▁repeal	-11154
▁shield	-11155
breaking	-11156
capacity	-11157
▁Iceland	-11158
▁Workers	-11159
▁ensures	-11160
▁nervous	-11161
▁nominee	-11162
▁penalty	-11163
▁regards	-11164
▁specter	-11165
▁totally	-11166
▁Margaret	-11167
▁Nowadays	-11168
▁Scottish	-11169
▁centrist	-11170
▁concepts	-11171
▁examined	-11172
▁preceded	-11173
▁reviving	-11174
▁salaries	-11175
▁collected	-11176
▁distorted	-11177
▁insolvent	-11178
▁mandatory	-11179
▁secession	-11180
▁stalemate	-11181
▁surrender	-11182
▁collapsing	-11183
▁escalation	-11184
▁journalist	-11185
▁responsive	-11186
▁Politicians	-11187
▁publication	-11188
establishment	-11189
▁disagreement	-11190
▁interactions	-11191
▁dictatorships	-11192
▁disagreements	-11193
▁strategically	-11194
fty	-11195
lan	-11196
opt	-11197
▁65	-11198
▁BO	-11199
▁ax	-11200
anch	-11201
neum	-11202
uded	-11203
▁($1	-11204
▁150	-11205
▁Dec	-11206
▁hij	-11207
angan	-11208
eness	-11209
ribed	-11210
winds	-11211
▁Acad	-11212
▁boys	-11213
▁copy	-11214
▁hast	-11215
▁nutr	-11216
acious	-11217
itated	-11218
risome	-11219
▁Monti	-11220
▁Start	-11221
▁aston	-11222
▁defer	-11223
▁irony	-11224
▁magaz	-11225
▁onset	-11226
▁secre	-11227
▁tyran	-11228
▁vigil	-11229
erating	-11230
itement	-11231
▁boards	-11232
▁cement	-11233
▁influx	-11234
▁lesser	-11235
▁regret	-11236
▁thrown	-11237
▁fallout	-11238
▁husband	-11239
▁oversee	-11240
▁renewal	-11241
▁rivalry	-11242
▁transit	-11243
▁trivial	-11244
rochement	-11245
▁affluent	-11246
▁consumed	-11247
▁metaphor	-11248
▁pointing	-11249
▁scandals	-11250
▁thriving	-11251
▁violated	-11252
▁geography	-11253
▁mobilized	-11254
▁reinvigor	-11255
▁worrisome	-11256
▁compounded	-11257
▁diagnostic	-11258
▁recipients	-11259
▁remembered	-11260
▁correlation	-11261
▁interpreted	-11262
▁personality	-11263
▁jurisdiction	-11264
▁underestimate	-11265
TB	-11266
vo	-11267
▁¥	-11268
ano	-11269
iar	-11270
usp	-11271
asus	-11272
aved	-11273
blem	-11274
seen	-11275
umes	-11276
▁GNP	-11277
▁Orb	-11278
▁etc	-11279
▁fer	-11280
ammar	-11281
blown	-11282
cular	-11283
roots	-11284
▁100%	-11285
▁1998	-11286
▁dual	-11287
▁vind	-11288
determ	-11289
manuel	-11290
utable	-11291
▁1979,	-11292
▁1990,	-11293
▁2006.	-11294
▁2050,	-11295
▁NAFTA	-11296
▁Using	-11297
▁chess	-11298
▁cloud	-11299
▁color	-11300
▁frict	-11301
▁intra	-11302
▁sugar	-11303
▁trees	-11304
service	-11305
▁Michel	-11306
▁Yellen	-11307
▁judged	-11308
▁makers	-11309
▁overst	-11310
▁ranked	-11311
▁unjust	-11312
▁Equally	-11313
▁Muammar	-11314
▁broaden	-11315
▁contend	-11316
▁embargo	-11317
▁hearing	-11318
▁hostage	-11319
▁passage	-11320
▁watched	-11321
▁Binyamin	-11322
▁Italians	-11323
▁comments	-11324
▁determin	-11325
▁persists	-11326
▁sentence	-11327
▁talented	-11328
▁thinkers	-11329
▁democrats	-11330
▁reformers	-11331
▁revealing	-11332
▁socialism	-11333
▁suspected	-11334
▁uncomfort	-11335
information	-11336
▁Bundesbank	-11337
▁historians	-11338
▁portfolios	-11339
▁appointment	-11340
▁businessmen	-11341
▁destabilize	-11342
▁restoration	-11343
▁stimulating	-11344
▁unrealistic	-11345
▁connectivity	-11346
▁cosmopolitan	-11347
▁complementary	-11348
▁contradictory	-11349
▁unfortunately	-11350
kh	-11351
uh	-11352
ows	-11353
rah	-11354
arre	-11355
icit	-11356
ilip	-11357
moon	-11358
prot	-11359
rush	-11360
scar	-11361
uits	-11362
▁12%	-11363
▁Ret	-11364
▁Ten	-11365
▁Tim	-11366
amble	-11367
borne	-11368
peror	-11369
rones	-11370
▁1979	-11371
▁Anti	-11372
▁Flor	-11373
▁Silk	-11374
▁Tian	-11375
▁hang	-11376
▁inse	-11377
▁leap	-11378
▁rush	-11379
▁tear	-11380
fiscal	-11381
solete	-11382
▁Alban	-11383
▁Euras	-11384
▁Force	-11385
▁Short	-11386
▁exert	-11387
▁inert	-11388
▁overl	-11389
▁theme	-11390
nuclear	-11391
▁Across	-11392
▁Modern	-11393
▁commem	-11394
▁exempt	-11395
▁remedy	-11396
▁storms	-11397
resource	-11398
▁Society	-11399
▁elusive	-11400
▁foolish	-11401
▁forming	-11402
▁inspect	-11403
▁reacted	-11404
prisingly	-11405
▁customer	-11406
▁exporter	-11407
▁headline	-11408
▁linkages	-11409
▁psychiat	-11410
▁radicals	-11411
▁strictly	-11412
▁uprising	-11413
▁comprises	-11414
▁exceeding	-11415
▁exhausted	-11416
▁Regardless	-11417
▁accumulate	-11418
▁calculated	-11419
▁dimensions	-11420
▁mitigation	-11421
▁accusations	-11422
▁materialize	-11423
▁shareholder	-11424
▁unthinkable	-11425
Proliferation	-11426
▁organizational	-11427
DB	-11428
dis	-11429
iri	-11430
isi	-11431
pts	-11432
rip	-11433
Iran	-11434
drop	-11435
pace	-11436
ules	-11437
▁Ide	-11438
▁Mel	-11439
fuels	-11440
icked	-11441
▁1967	-11442
▁Bulg	-11443
▁Snow	-11444
▁band	-11445
▁epic	-11446
▁impe	-11447
astics	-11448
ulture	-11449
▁2,000	-11450
▁Advis	-11451
▁Barro	-11452
▁Orbán	-11453
▁boast	-11454
Qaddafi	-11455
onymous	-11456
▁Credit	-11457
▁branch	-11458
▁clever	-11459
▁cultiv	-11460
▁miscon	-11461
▁misery	-11462
▁timely	-11463
▁visits	-11464
Japanese	-11465
balanced	-11466
regional	-11467
▁ensuing	-11468
▁fortune	-11469
▁officer	-11470
▁pledges	-11471
▁procure	-11472
▁rebound	-11473
▁tighter	-11474
dependent	-11475
▁efficacy	-11476
▁modified	-11477
▁obtained	-11478
▁prestige	-11479
▁reactors	-11480
▁wherever	-11481
▁Hungarian	-11482
▁broadband	-11483
▁channeled	-11484
▁prerequis	-11485
▁complained	-11486
▁internally	-11487
▁profoundly	-11488
▁rebuilding	-11489
▁proposition	-11490
▁speculators	-11491
▁vaccination	-11492
▁explanations	-11493
▁peacekeeping	-11494
▁perpetrators	-11495
▁rapprochement	-11496
▁reunification	-11497
▁unwillingness	-11498
▁systematically	-11499
ato	-11500
een	-11501
▁ox	-11502
000,	-11503
aint	-11504
help	-11505
keep	-11506
pora	-11507
quir	-11508
▁11%	-11509
▁9/1	-11510
▁Fox	-11511
▁Lag	-11512
▁Pat	-11513
▁Tig	-11514
eling	-11515
found	-11516
rants	-11517
sider	-11518
▁Kiss	-11519
▁Zion	-11520
▁echo	-11521
▁forb	-11522
▁hamp	-11523
▁unim	-11524
member	-11525
struct	-11526
▁1991,	-11527
▁holid	-11528
▁rever	-11529
▁river	-11530
▁sober	-11531
▁spike	-11532
▁swaps	-11533
▁tries	-11534
▁veget	-11535
itizens	-11536
oidable	-11537
seekers	-11538
▁Altern	-11539
▁betray	-11540
▁detail	-11541
▁evolve	-11542
▁newcom	-11543
▁ratify	-11544
▁rounds	-11545
▁safely	-11546
▁speaks	-11547
▁writer	-11548
▁acquies	-11549
▁analogy	-11550
▁careers	-11551
▁evasion	-11552
▁leftist	-11553
▁manager	-11554
▁permits	-11555
▁revital	-11556
▁stepped	-11557
▁unleash	-11558
▁violate	-11559
elligence	-11560
political	-11561
▁Caucasus	-11562
▁Olympics	-11563
▁Rousseff	-11564
▁impeding	-11565
▁opinions	-11566
▁perceive	-11567
▁resigned	-11568
▁denounced	-11569
▁explosive	-11570
▁accustomed	-11571
▁competence	-11572
▁constraint	-11573
▁convenient	-11574
▁distressed	-11575
▁enormously	-11576
▁personally	-11577
▁repressive	-11578
▁surrounded	-11579
▁consecutive	-11580
▁emphasizing	-11581
▁restricting	-11582
▁undertaking	-11583
aya	-11584
bec	-11585
”).	-11586
enda	-11587
nest	-11588
ourg	-11589
stop	-11590
yles	-11591
▁400	-11592
▁Bah	-11593
▁Cro	-11594
▁III	-11595
▁Imm	-11596
▁jun	-11597
iency	-11598
imity	-11599
osity	-11600
yield	-11601
▁Adam	-11602
▁Step	-11603
▁adds	-11604
▁glut	-11605
▁ride	-11606
▁wasn	-11607
▁woes	-11608
▁Peter	-11609
▁drama	-11610
▁fever	-11611
▁pecul	-11612
▁ships	-11613
▁slack	-11614
▁compel	-11615
▁devote	-11616
▁doomed	-11617
▁hearts	-11618
▁resume	-11619
▁tended	-11620
▁virtue	-11621
▁Florida	-11622
▁anxious	-11623
▁derived	-11624
▁fleeing	-11625
▁payroll	-11626
▁tighten	-11627
▁viewing	-11628
▁Contrary	-11629
▁evaluate	-11630
▁gathered	-11631
▁skeptics	-11632
▁exporting	-11633
▁incidents	-11634
▁modernize	-11635
▁organisms	-11636
▁Solidarity	-11637
▁annexation	-11638
▁capacities	-11639
▁mitigating	-11640
▁pragmatism	-11641
▁relentless	-11642
▁successive	-11643
▁witnessing	-11644
▁allegations	-11645
▁conferences	-11646
▁description	-11647
▁forthcoming	-11648
▁intelligent	-11649
▁associations	-11650
▁environments	-11651
▁prescription	-11652
▁constituencies	-11653
▁fundamentalism	-11654
ED	-11655
PM	-11656
ady	-11657
anz	-11658
▁Lu	-11659
▁NT	-11660
ales	-11661
awat	-11662
list	-11663
▁Mat	-11664
▁lik	-11665
▁owe	-11666
▁tor	-11667
ework	-11668
heres	-11669
inked	-11670
otion	-11671
▁$500	-11672
▁Exec	-11673
▁Self	-11674
▁Uber	-11675
▁boyc	-11676
▁busy	-11677
▁cert	-11678
▁hall	-11679
▁plut	-11680
artial	-11681
handed	-11682
reated	-11683
ubborn	-11684
▁2017,	-11685
▁Impro	-11686
▁Innov	-11687
▁Osama	-11688
▁Young	-11689
▁cance	-11690
▁centr	-11691
▁fires	-11692
▁sever	-11693
▁shall	-11694
balance	-11695
▁Anyone	-11696
▁Madrid	-11697
▁Mechan	-11698
▁afraid	-11699
▁anchor	-11700
▁endang	-11701
▁reperc	-11702
equality	-11703
oliberal	-11704
▁bonuses	-11705
▁demagog	-11706
▁faction	-11707
▁proflig	-11708
▁quietly	-11709
▁readers	-11710
▁shouldn	-11711
▁varying	-11712
▁Managing	-11713
▁commerce	-11714
▁navigate	-11715
▁obsolete	-11716
▁perverse	-11717
▁proceeds	-11718
▁Euroskept	-11719
▁balancing	-11720
▁detention	-11721
▁eradicate	-11722
▁identical	-11723
▁immigrant	-11724
▁impending	-11725
▁leveraged	-11726
▁pessimism	-11727
▁radiation	-11728
▁reversing	-11729
▁compatible	-11730
▁dependency	-11731
▁manipulate	-11732
▁positioned	-11733
▁quantities	-11734
▁disillusion	-11735
▁Independence	-11736
▁headquarters	-11737
▁occasionally	-11738
QE	-11739
gue	-11740
▁EM	-11741
▁Ho	-11742
▁Ji	-11743
What	-11744
aven	-11745
host	-11746
▁Hum	-11747
▁Low	-11748
▁Nap	-11749
athan	-11750
gical	-11751
spons	-11752
▁$200	-11753
▁CEOs	-11754
▁Mult	-11755
▁Resp	-11756
▁Tric	-11757
▁dias	-11758
▁drew	-11759
▁glim	-11760
▁harb	-11761
rawing	-11762
unting	-11763
▁Large	-11764
▁Sadly	-11765
▁Turks	-11766
▁chart	-11767
▁farms	-11768
▁globe	-11769
▁pneum	-11770
▁unden	-11771
▁Around	-11772
▁Milton	-11773
▁burned	-11774
▁crunch	-11775
▁embark	-11776
▁harass	-11777
▁merits	-11778
▁wouldn	-11779
berspace	-11780
majority	-11781
ortunate	-11782
riptions	-11783
▁Service	-11784
▁cushion	-11785
▁guiding	-11786
▁impasse	-11787
▁refuses	-11788
iological	-11789
▁Canadian	-11790
▁Criminal	-11791
▁defenses	-11792
▁employer	-11793
▁executed	-11794
▁incurred	-11795
▁promotes	-11796
▁resemble	-11797
▁standoff	-11798
▁stopping	-11799
▁stubborn	-11800
▁studying	-11801
▁stunning	-11802
▁Kissinger	-11803
▁ballistic	-11804
▁competent	-11805
▁criticize	-11806
▁languages	-11807
▁pipelines	-11808
▁recipient	-11809
▁convention	-11810
▁discussing	-11811
▁explaining	-11812
▁reconsider	-11813
▁structured	-11814
▁persecution	-11815
▁prohibition	-11816
▁specialized	-11817
▁transferred	-11818
▁Unemployment	-11819
▁decentralized	-11820
▁repercussions	-11821
▁understandably	-11822
ui	-11823
MEs	-11824
ais	-11825
inf	-11826
zai	-11827
▁Ki	-11828
▁nu	-11829
....	-11830
acle	-11831
arth	-11832
chen	-11833
inis	-11834
iped	-11835
lead	-11836
mail	-11837
ndra	-11838
rows	-11839
viol	-11840
▁$20	-11841
▁$3.	-11842
▁Ale	-11843
▁Jos	-11844
▁RMB	-11845
▁SAN	-11846
▁Teh	-11847
▁Var	-11848
▁Zed	-11849
▁cod	-11850
▁tie	-11851
aires	-11852
apped	-11853
eters	-11854
ierra	-11855
ourge	-11856
perty	-11857
tered	-11858
▁Carn	-11859
▁Drug	-11860
▁Life	-11861
▁Shah	-11862
▁cite	-11863
▁diam	-11864
▁page	-11865
▁tank	-11866
▁tant	-11867
chenko	-11868
inence	-11869
▁2016.	-11870
▁Hence	-11871
▁title	-11872
▁comply	-11873
▁hungry	-11874
▁silver	-11875
▁worthy	-11876
ractable	-11877
utionary	-11878
▁Failure	-11879
▁Overall	-11880
▁Poverty	-11881
▁aligned	-11882
▁approve	-11883
▁arrival	-11884
▁barrier	-11885
▁bridges	-11886
▁clashes	-11887
▁decides	-11888
▁earning	-11889
▁exclude	-11890
▁handled	-11891
▁illustr	-11892
▁organic	-11893
▁plunged	-11894
▁Eurozone	-11895
▁agreeing	-11896
▁allocate	-11897
▁backdrop	-11898
▁sympathy	-11899
▁Certainly	-11900
▁apparatus	-11901
▁blueprint	-11902
▁confusion	-11903
▁disorders	-11904
▁enshrined	-11905
▁locations	-11906
▁postponed	-11907
▁realizing	-11908
▁rebellion	-11909
▁resistant	-11910
▁satisfied	-11911
established	-11912
▁complaints	-11913
▁insurgents	-11914
▁reassuring	-11915
▁forecasting	-11916
▁inspiration	-11917
▁Historically	-11918
▁displacement	-11919
▁irreversible	-11920
di	-11921
TIP	-11922
awi	-11923
mir	-11924
sol	-11925
”),	-11926
▁du	-11927
edge	-11928
gone	-11929
heid	-11930
lege	-11931
▁1.2	-11932
▁13%	-11933
▁45%	-11934
▁Bes	-11935
▁COP	-11936
▁Fac	-11937
▁Lux	-11938
▁MIL	-11939
▁Ram	-11940
▁pin	-11941
5,000	-11942
acies	-11943
books	-11944
intao	-11945
oting	-11946
▁Camp	-11947
▁Conc	-11948
▁Maur	-11949
▁Murd	-11950
▁Rest	-11951
▁Trad	-11952
▁lest	-11953
▁ling	-11954
▁ruth	-11955
▁spin	-11956
▁swap	-11957
▁unsu	-11958
anches	-11959
azeera	-11960
isible	-11961
issile	-11962
orking	-11963
umping	-11964
utting	-11965
▁1992,	-11966
▁2020,	-11967
▁About	-11968
▁Domin	-11969
▁Dream	-11970
▁Fifth	-11971
▁Poles	-11972
▁brill	-11973
▁drain	-11974
▁drops	-11975
▁inner	-11976
▁penet	-11977
▁traum	-11978
▁verge	-11979
issance	-11980
oshenko	-11981
uctions	-11982
▁Jintao	-11983
▁Rising	-11984
▁Sierra	-11985
▁dubbed	-11986
▁enjoys	-11987
▁nearby	-11988
▁oldest	-11989
▁overhe	-11990
▁picked	-11991
▁render	-11992
children	-11993
▁Digital	-11994
▁Protest	-11995
▁adapted	-11996
▁curtail	-11997
▁embassy	-11998
▁explore	-11999
▁herself	-12000
▁nurture	-12001
▁outsize	-12002
▁passive	-12003
▁signing	-12004
▁Cultural	-12005
▁confused	-12006
▁markedly	-12007
▁messages	-12008
▁prevails	-12009
▁protocol	-12010
▁sacrific	-12011
▁sciences	-12012
▁spurring	-12013
▁succeeds	-12014
▁illnesses	-12015
▁paralyzed	-12016
▁pluralism	-12017
▁privately	-12018
▁surpassed	-12019
▁trillions	-12020
▁varieties	-12021
▁categories	-12022
▁conspiracy	-12023
▁credential	-12024
▁geographic	-12025
▁irrigation	-12026
▁manageable	-12027
▁oppression	-12028
▁prohibited	-12029
▁appreciated	-12030
▁conflicting	-12031
▁outsourcing	-12032
▁unavoidable	-12033
▁highlighting	-12034
▁satisfaction	-12035
▁transitional	-12036
▁exceptionally	-12037
▁Representative	-12038
▁extraordinarily	-12039
▁fundamentalists	-12040
AT	-12041
No	-12042
abe	-12043
dep	-12044
gar	-12045
umi	-12046
vio	-12047
▁ug	-12048
UNIC	-12049
imil	-12050
okes	-12051
upid	-12052
▁Kac	-12053
▁Kat	-12054
▁Len	-12055
▁lov	-12056
ariff	-12057
overy	-12058
ovsky	-12059
rates	-12060
▁1994	-12061
▁Deut	-12062
▁bell	-12063
▁bird	-12064
▁boon	-12065
▁butt	-12066
▁stro	-12067
orrect	-12068
rapped	-12069
▁1998,	-12070
▁havoc	-12071
rafting	-12072
▁batter	-12073
▁broker	-12074
▁lasted	-12075
▁proves	-12076
▁traits	-12077
▁upside	-12078
icrobial	-12079
▁Critics	-12080
▁William	-12081
▁counted	-12082
▁courses	-12083
▁crossed	-12084
▁debated	-12085
▁descend	-12086
▁dictate	-12087
▁insists	-12088
▁intends	-12089
▁profile	-12090
▁unhappy	-12091
sponsored	-12092
▁finished	-12093
▁flourish	-12094
▁imprison	-12095
▁moreover	-12096
▁precious	-12097
▁reformed	-12098
▁visiting	-12099
▁Argentine	-12100
▁Framework	-12101
▁headwinds	-12102
▁measuring	-12103
▁moderates	-12104
▁particles	-12105
▁privilege	-12106
▁subjected	-12107
▁watershed	-12108
▁worldview	-12109
▁Liberation	-12110
▁achievable	-12111
▁depositors	-12112
▁intervened	-12113
▁moderation	-12114
▁multiplier	-12115
▁prediction	-12116
▁radicalism	-12117
▁genetically	-12118
▁inhabitants	-12119
▁intervening	-12120
▁proceedings	-12121
▁unfortunate	-12122
▁demonstrators	-12123
BM	-12124
FP	-12125
POR	-12126
hon	-12127
san	-12128
▁SP	-12129
Year	-12130
acit	-12131
chev	-12132
held	-12133
hend	-12134
inea	-12135
mert	-12136
otal	-12137
pric	-12138
risy	-12139
▁Ent	-12140
▁KGB	-12141
▁Rad	-12142
▁fee	-12143
heads	-12144
orbyn	-12145
▁Dani	-12146
▁Kenn	-12147
▁ages	-12148
▁bind	-12149
▁nurs	-12150
▁obsc	-12151
▁owes	-12152
▁skin	-12153
izarre	-12154
liners	-12155
wealth	-12156
appropr	-12157
changed	-12158
ifiable	-12159
itively	-12160
▁Agenda	-12161
▁Silvio	-12162
▁Wilson	-12163
▁coffee	-12164
▁convey	-12165
▁crowds	-12166
▁havens	-12167
▁humili	-12168
payments	-12169
▁Bahrain	-12170
▁Ottoman	-12171
▁Paradox	-12172
▁educate	-12173
▁invaded	-12174
▁outlays	-12175
▁sparked	-12176
▁surging	-12177
▁symbols	-12178
▁verdict	-12179
▁attended	-12180
▁capitals	-12181
▁centered	-12182
▁composed	-12183
▁defended	-12184
▁emission	-12185
▁employee	-12186
▁everyday	-12187
▁horrific	-12188
▁rendered	-12189
▁evidently	-12190
▁inflicted	-12191
▁judgments	-12192
▁lifestyle	-12193
▁modernity	-12194
▁notorious	-12195
▁rebalance	-12196
▁classified	-12197
▁delegation	-12198
▁domination	-12199
▁questioned	-12200
▁regulating	-12201
▁calculation	-12202
▁exploration	-12203
▁intractable	-12204
▁procurement	-12205
▁disadvantage	-12206
▁inconsistent	-12207
▁entertainment	-12208
▁administrations	-12209
ta	-12210
”?	-12211
dem	-12212
map	-12213
oup	-12214
▁90	-12215
▁GM	-12216
▁Je	-12217
hips	-12218
laim	-12219
qual	-12220
rior	-12221
xual	-12222
▁30-	-12223
▁BJP	-12224
▁BOJ	-12225
▁Bad	-12226
▁Kyi	-12227
▁Pot	-12228
▁Rab	-12229
▁SWF	-12230
▁dat	-12231
▁luc	-12232
▁ves	-12233
benef	-12234
group	-12235
merce	-12236
month	-12237
ulous	-12238
▁0.5%	-12239
▁Mitt	-12240
▁Need	-12241
▁chol	-12242
▁dece	-12243
▁gamb	-12244
▁samp	-12245
▁warn	-12246
▁webs	-12247
Brazil	-12248
ercant	-12249
ighbor	-12250
public	-12251
rehend	-12252
riched	-12253
ulence	-12254
▁Boris	-12255
▁Leone	-12256
▁deple	-12257
▁disse	-12258
▁endow	-12259
▁freer	-12260
▁naive	-12261
▁pages	-12262
▁ruler	-12263
▁theor	-12264
irected	-12265
▁Bhutto	-12266
▁Corbyn	-12267
▁Khrush	-12268
▁Olmert	-12269
▁Rogoff	-12270
▁hugely	-12271
▁hybrid	-12272
▁insult	-12273
▁mature	-12274
▁meters	-12275
▁squand	-12276
▁subtle	-12277
▁uncomp	-12278
Semitism	-12279
iniscent	-12280
▁Armenia	-12281
▁College	-12282
▁Persian	-12283
▁bizarre	-12284
▁ensured	-12285
▁moments	-12286
▁plastic	-12287
▁reprodu	-12288
▁retired	-12289
▁volunte	-12290
▁Regional	-12291
▁contempt	-12292
▁depended	-12293
▁dividend	-12294
▁elevated	-12295
▁extremes	-12296
▁inclined	-12297
▁mountain	-12298
▁patience	-12299
▁provoked	-12300
▁rigorous	-12301
▁Economist	-12302
▁Executive	-12303
▁admission	-12304
▁directors	-12305
▁fulfilled	-12306
▁slaughter	-12307
▁submitted	-12308
▁unchanged	-12309
▁Khrushchev	-12310
▁correction	-12311
▁exploiting	-12312
▁extraction	-12313
▁jeopardize	-12314
▁precarious	-12315
▁subsidized	-12316
▁supportive	-12317
▁tendencies	-12318
▁entitlement	-12319
▁questioning	-12320
▁realization	-12321
▁superiority	-12322
▁technically	-12323
▁deficiencies	-12324
▁exacerbating	-12325
▁incompetence	-12326
▁participated	-12327
▁civilizations	-12328
▁corresponding	-12329
▁distinguished	-12330
-6	-12331
GI	-12332
▁£	-12333
aki	-12334
ali	-12335
aud	-12336
dog	-12337
ede	-12338
▁Fl	-12339
-198	-12340
abao	-12341
arde	-12342
fast	-12343
inqu	-12344
play	-12345
star	-12346
▁1.3	-12347
▁Beg	-12348
▁Rod	-12349
▁geo	-12350
▁hoc	-12351
▁orc	-12352
▁pit	-12353
▁rav	-12354
amous	-12355
anmen	-12356
annon	-12357
arrhe	-12358
dling	-12359
inery	-12360
lived	-12361
ouses	-12362
▁IPCC	-12363
▁Stat	-12364
▁Urug	-12365
▁Yush	-12366
▁belt	-12367
▁dose	-12368
▁fake	-12369
▁sway	-12370
ixture	-12371
▁Istan	-12372
▁Major	-12373
▁Stock	-12374
▁backs	-12375
▁embry	-12376
▁inval	-12377
▁sanct	-12378
▁steam	-12379
▁stuff	-12380
▁tacit	-12381
▁Darwin	-12382
▁Higher	-12383
▁Jiabao	-12384
▁Maduro	-12385
▁affirm	-12386
▁ancest	-12387
▁clause	-12388
▁dismal	-12389
▁motion	-12390
▁papers	-12391
▁stores	-12392
▁taxing	-12393
▁unsett	-12394
▁Jazeera	-12395
▁advised	-12396
▁depress	-12397
▁endemic	-12398
▁fantasy	-12399
▁illicit	-12400
▁monarch	-12401
▁overest	-12402
▁realism	-12403
▁refrain	-12404
▁useless	-12405
▁Building	-12406
▁Emmanuel	-12407
▁Istanbul	-12408
▁abstract	-12409
▁crossing	-12410
▁enjoying	-12411
▁envision	-12412
▁exported	-12413
▁gridlock	-12414
▁innovate	-12415
▁landmark	-12416
▁narrowly	-12417
▁sequence	-12418
▁treasury	-12419
revolution	-12420
▁Communism	-12421
▁accidents	-12422
▁amendment	-12423
▁decreased	-12424
▁fragility	-12425
▁newcomers	-12426
▁persuaded	-12427
▁populated	-12428
▁proximity	-12429
▁unfolding	-12430
▁absolutely	-12431
▁critically	-12432
▁enrollment	-12433
▁grassroots	-12434
▁liberation	-12435
▁literature	-12436
▁majorities	-12437
▁organizing	-12438
▁predicting	-12439
▁privileges	-12440
▁registered	-12441
▁adversaries	-12442
▁empowerment	-12443
▁resignation	-12444
▁demonstration	-12445
▁multicultural	-12446
At	-12447
GH	-12448
ids	-12449
▁CH	-12450
aque	-12451
greg	-12452
igue	-12453
lose	-12454
teen	-12455
▁16%	-12456
▁Cap	-12457
▁Rob	-12458
▁hem	-12459
▁sta	-12460
UNICH	-12461
arted	-12462
heric	-12463
liest	-12464
reach	-12465
stein	-12466
▁HONG	-12467
▁KONG	-12468
▁Nare	-12469
▁TTIP	-12470
▁auto	-12471
▁hint	-12472
▁mole	-12473
▁omin	-12474
▁rall	-12475
▁ruin	-12476
▁stip	-12477
▁stir	-12478
▁tape	-12479
enment	-12480
▁1994,	-12481
▁2000’	-12482
▁exile	-12483
▁inexp	-12484
▁loses	-12485
▁spell	-12486
America	-12487
sighted	-12488
▁Diplom	-12489
▁Luxemb	-12490
▁MUNICH	-12491
▁Tehran	-12492
▁Warren	-12493
▁Warsaw	-12494
▁buffer	-12495
▁device	-12496
▁pulled	-12497
▁suprem	-12498
▁trauma	-12499
▁Consequ	-12500
▁Looking	-12501
▁Uruguay	-12502
▁Volcker	-12503
▁beneath	-12504
▁crowded	-12505
▁dispers	-12506
▁imposes	-12507
▁presupp	-12508
▁reactor	-12509
▁talents	-12510
▁Narendra	-12511
▁maturity	-12512
▁murdered	-12513
▁protects	-12514
▁reassert	-12515
▁tropical	-12516
▁Mechanism	-12517
▁Relations	-12518
▁Tiananmen	-12519
▁commander	-12520
▁diffusion	-12521
▁dissatisf	-12522
▁installed	-12523
▁outbreaks	-12524
▁repayment	-12525
▁Eventually	-12526
▁disorderly	-12527
▁expressing	-12528
▁financiers	-12529
▁journalism	-12530
▁prevalence	-12531
▁reinforces	-12532
▁compromised	-12533
▁credentials	-12534
▁geopolitics	-12535
▁pessimistic	-12536
▁prosecution	-12537
▁signatories	-12538
▁substantive	-12539
▁supervisory	-12540
▁susceptible	-12541
▁underscores	-12542
▁artificially	-12543
▁consultation	-12544
▁discouraging	-12545
▁systemically	-12546
▁contradiction	-12547
▁predominantly	-12548
▁conditionality	-12549
▁investigations	-12550
ero	-12551
ker	-12552
pop	-12553
from	-12554
iral	-12555
▁EMU	-12556
▁Gra	-12557
▁Hay	-12558
▁Suu	-12559
▁bru	-12560
▁fur	-12561
▁gay	-12562
peace	-12563
track	-12564
umber	-12565
wards	-12566
▁1996	-12567
▁Disc	-12568
▁Emir	-12569
▁Hans	-12570
▁Land	-12571
▁fans	-12572
▁gift	-12573
▁owed	-12574
▁skew	-12575
▁unve	-12576
arctic	-12577
fueled	-12578
ulsion	-12579
▁datab	-12580
▁disen	-12581
▁meets	-12582
▁realm	-12583
▁riots	-12584
▁veter	-12585
▁walls	-12586
angered	-12587
arching	-12588
inating	-12589
▁Guinea	-12590
▁Rohing	-12591
▁athlet	-12592
▁caliph	-12593
▁hosted	-12594
▁plunge	-12595
▁repaid	-12596
▁underw	-12597
dictions	-12598
▁Kashmir	-12599
▁Trichet	-12600
▁augment	-12601
▁cleaner	-12602
▁coexist	-12603
▁fiction	-12604
▁lagging	-12605
▁picking	-12606
▁plagued	-12607
▁preempt	-12608
▁retains	-12609
▁turnout	-12610
▁weakens	-12611
▁engineer	-12612
▁misunder	-12613
▁monarchy	-12614
▁retrench	-12615
▁subordin	-12616
imicrobial	-12617
▁Catalonia	-12618
▁Confucian	-12619
▁Northeast	-12620
▁alleviate	-12621
▁amounting	-12622
▁avoidance	-12623
▁frequency	-12624
▁jihadists	-12625
▁machinery	-12626
▁proactive	-12627
▁reformist	-12628
▁screening	-12629
conditional	-12630
▁Inequality	-12631
▁Resolution	-12632
▁compassion	-12633
▁conducting	-12634
▁disposable	-12635
▁objections	-12636
▁constructed	-12637
▁ingredients	-12638
▁preoccupied	-12639
▁reminiscent	-12640
▁suppression	-12641
▁undervalued	-12642
▁geographical	-12643
▁persistently	-12644
▁ratification	-12645
▁accommodation	-12646
▁independently	-12647
▁jurisdictions	-12648
▁socioeconomic	-12649
▁uncomfortable	-12650
▁transformative	-12651
St	-12652
nn	-12653
uy	-12654
ouf	-12655
▁ze	-12656
etus	-12657
game	-12658
habi	-12659
omer	-12660
▁2.5	-12661
▁Ash	-12662
▁Cru	-12663
▁Lim	-12664
▁Men	-12665
▁Xin	-12666
▁cam	-12667
▁pes	-12668
▁upd	-12669
anged	-12670
inate	-12671
izumi	-12672
jiang	-12673
overe	-12674
äuble	-12675
▁1993	-12676
▁FARC	-12677
▁Hass	-12678
▁Tanz	-12679
▁junt	-12680
▁mine	-12681
▁soul	-12682
▁wart	-12683
decade	-12684
eville	-12685
idding	-12686
inable	-12687
killed	-12688
ledged	-12689
modern	-12690
ulates	-12691
▁Harry	-12692
▁boats	-12693
▁energ	-12694
▁lucky	-12695
▁mayor	-12696
▁owner	-12697
▁posts	-12698
▁quota	-12699
▁stamp	-12700
instein	-12701
urances	-12702
▁Oxford	-12703
▁autumn	-12704
▁portra	-12705
▁surviv	-12706
▁tactic	-12707
▁talked	-12708
▁tissue	-12709
ependent	-12710
military	-12711
▁Challen	-12712
▁Cypriot	-12713
▁Koizumi	-12714
▁Liberia	-12715
▁Support	-12716
▁footing	-12717
▁impeded	-12718
▁longest	-12719
▁proving	-12720
▁shocked	-12721
▁staying	-12722
▁supreme	-12723
▁utility	-12724
democracy	-12725
president	-12726
producing	-12727
▁Citizens	-12728
▁Standard	-12729
▁bacteria	-12730
▁homeland	-12731
▁hypothes	-12732
▁retained	-12733
▁servants	-12734
▁Achieving	-12735
▁Antarctic	-12736
▁chemicals	-12737
▁constrain	-12738
▁governors	-12739
▁invention	-12740
▁obsession	-12741
▁penalties	-12742
▁qualities	-12743
▁resembles	-12744
▁withdrawn	-12745
engineering	-12746
▁analytical	-12747
▁eighteenth	-12748
▁helicopter	-12749
▁proponents	-12750
▁separatist	-12751
▁turbulence	-12752
▁battlefield	-12753
▁diversified	-12754
▁macroeconom	-12755
▁persistence	-12756
▁Intelligence	-12757
▁acceleration	-12758
▁disappointed	-12759
▁enthusiastic	-12760
▁incompatible	-12761
▁tuberculosis	-12762
▁Conservatives	-12763
▁mismanagement	-12764
▁interdependent	-12765
15	-12766
MT	-12767
ati	-12768
▁Ap	-12769
Chin	-12770
apid	-12771
even	-12772
ihil	-12773
inge	-12774
ldom	-12775
lude	-12776
▁17%	-12777
▁22%	-12778
▁JPM	-12779
▁PLO	-12780
▁cig	-12781
▁mig	-12782
▁sed	-12783
asser	-12784
grown	-12785
ighed	-12786
irmed	-12787
ogene	-12788
quiry	-12789
there	-12790
▁1.5%	-12791
▁Vict	-12792
▁mend	-12793
▁oust	-12794
▁twin	-12795
▁2002.	-12796
▁Seoul	-12797
▁bread	-12798
▁repud	-12799
▁scant	-12800
▁shore	-12801
▁siege	-12802
▁sorts	-12803
Chinese	-12804
▁Little	-12805
▁Recogn	-12806
▁assign	-12807
▁breath	-12808
▁futile	-12809
▁glance	-12810
▁inclus	-12811
▁mantra	-12812
▁neglig	-12813
▁plague	-12814
▁trades	-12815
aissance	-12816
▁Malaria	-12817
▁awarded	-12818
▁clinics	-12819
▁divorce	-12820
▁fertile	-12821
▁inertia	-12822
▁locally	-12823
▁mixture	-12824
▁outward	-12825
▁precond	-12826
▁rejects	-12827
terrorism	-12828
▁Mohammed	-12829
▁Orthodox	-12830
▁Progress	-12831
▁Schäuble	-12832
▁airports	-12833
▁asserted	-12834
▁brothers	-12835
▁deprived	-12836
▁divisive	-12837
▁mandates	-12838
▁outdated	-12839
▁shopping	-12840
▁taxpayer	-12841
▁vigilant	-12842
▁vigorous	-12843
▁2008-2009	-12844
▁Governing	-12845
▁colleague	-12846
▁hegemonic	-12847
▁oligarchs	-12848
▁synthetic	-12849
▁accordance	-12850
▁automobile	-12851
▁celebrated	-12852
▁continuity	-12853
▁cyberspace	-12854
▁describing	-12855
▁disability	-12856
▁divergence	-12857
▁imprisoned	-12858
▁professors	-12859
▁prosecutor	-12860
▁successors	-12861
▁integrating	-12862
▁modernizing	-12863
▁restrictive	-12864
▁retaliation	-12865
▁strengthens	-12866
▁jeopardizing	-12867
▁perspectives	-12868
▁Transatlantic	-12869
▁acknowledging	-12870
▁neighborhoods	-12871
▁disappointment	-12872
Ab	-12873
00,	-12874
bel	-12875
mes	-12876
mit	-12877
▁Hy	-12878
▁IA	-12879
icot	-12880
uana	-12881
▁FSB	-12882
▁Lou	-12883
▁Nav	-12884
▁Slo	-12885
▁Wah	-12886
▁coc	-12887
▁lax	-12888
▁ton	-12889
craft	-12890
ivism	-12891
owitz	-12892
ucing	-12893
▁2050	-12894
▁Brex	-12895
▁Dise	-12896
▁Gore	-12897
▁Pres	-12898
▁bets	-12899
▁dies	-12900
▁hurd	-12901
▁myst	-12902
▁poet	-12903
▁sons	-12904
▁wear	-12905
arming	-12906
asures	-12907
▁Congo	-12908
▁Recon	-12909
▁agent	-12910
▁alert	-12911
▁cling	-12912
▁lingu	-12913
▁opted	-12914
▁paths	-12915
▁peers	-12916
▁scram	-12917
▁widen	-12918
Russian	-12919
akening	-12920
million	-12921
▁Atomic	-12922
▁Bannon	-12923
▁Sharif	-12924
▁Zedong	-12925
▁abound	-12926
▁banker	-12927
▁column	-12928
▁drones	-12929
▁elabor	-12930
▁forged	-12931
▁galvan	-12932
▁gamble	-12933
▁heroic	-12934
▁intact	-12935
▁organs	-12936
▁puzzle	-12937
▁sacred	-12938
▁diarrhe	-12939
▁fraught	-12940
▁hitting	-12941
▁impacts	-12942
▁militia	-12943
▁morning	-12944
▁obscure	-12945
▁orchest	-12946
▁priorit	-12947
▁squeeze	-12948
▁tyranny	-12949
▁volumes	-12950
▁wartime	-12951
▁Americas	-12952
▁Rohingya	-12953
▁blessing	-12954
▁catalyst	-12955
▁delicate	-12956
▁duration	-12957
▁embodied	-12958
▁exciting	-12959
▁hardline	-12960
▁illiquid	-12961
▁improves	-12962
▁mosquito	-12963
▁peculiar	-12964
▁settings	-12965
▁takeover	-12966
▁traveled	-12967
▁upheaval	-12968
▁Alexander	-12969
▁Colombian	-12970
▁collapses	-12971
▁disrupted	-12972
▁procedure	-12973
▁relatives	-12974
▁religions	-12975
▁Individual	-12976
▁comprehend	-12977
▁mobilizing	-12978
▁practition	-12979
▁pronounced	-12980
▁recovering	-12981
particularly	-12982
▁advancement	-12983
▁discoveries	-12984
▁manipulated	-12985
▁sensitivity	-12986
▁specialists	-12987
▁transmitted	-12988
▁unregulated	-12989
▁imprisonment	-12990
▁overcapacity	-12991
▁precautionary	-12992
▁distributional	-12993
EV	-12994
-15	-12995
gor	-12996
pse	-12997
-20,	-12998
This	-12999
dest	-13000
ukun	-13001
zhen	-13002
▁(19	-13003
▁2%.	-13004
▁Adv	-13005
▁BoE	-13006
▁Dif	-13007
▁Hur	-13008
▁Moz	-13009
▁Taj	-13010
▁ans	-13011
There	-13012
chant	-13013
icter	-13014
▁Jeff	-13015
▁NCDs	-13016
▁bull	-13017
▁ende	-13018
▁evac	-13019
▁guns	-13020
▁inad	-13021
▁ugly	-13022
acking	-13023
around	-13024
arther	-13025
hengen	-13026
ittees	-13027
ourced	-13028
▁1995,	-13029
▁2003.	-13030
▁Which	-13031
▁Years	-13032
▁fines	-13033
▁grain	-13034
▁heter	-13035
▁horse	-13036
▁junta	-13037
▁recal	-13038
▁sleep	-13039
hemical	-13040
▁framed	-13041
▁golden	-13042
▁heated	-13043
▁pestic	-13044
▁pollut	-13045
▁praise	-13046
▁strife	-13047
▁surged	-13048
▁theirs	-13049
▁Morales	-13050
▁analyze	-13051
▁anymore	-13052
▁counsel	-13053
▁debacle	-13054
▁matched	-13055
▁skyrock	-13056
▁Democrat	-13057
▁Schengen	-13058
▁answered	-13059
▁commemor	-13060
▁embarked	-13061
▁incoming	-13062
▁stricter	-13063
confidence	-13064
▁Taiwanese	-13065
▁basically	-13066
▁brutality	-13067
▁civilized	-13068
▁fisheries	-13069
▁Management	-13070
▁Yushchenko	-13071
▁depreciate	-13072
▁depressing	-13073
▁engineered	-13074
▁healthcare	-13075
▁sacrifices	-13076
▁wealthiest	-13077
▁imperatives	-13078
▁observation	-13079
▁withdrawing	-13080
globalization	-13081
▁governmental	-13082
▁questionable	-13083
▁discretionary	-13084
▁fundamentalist	-13085
wa	-13086
ald	-13087
bes	-13088
hud	-13089
ota	-13090
▁29	-13091
▁Dr	-13092
▁Il	-13093
0027	-13094
EOUL	-13095
Shia	-13096
bott	-13097
hour	-13098
isen	-13099
itim	-13100
kaku	-13101
paid	-13102
yans	-13103
▁190	-13104
▁85%	-13105
▁CIT	-13106
▁Dom	-13107
▁GCC	-13108
▁LDP	-13109
▁MIT	-13110
▁Min	-13111
▁upt	-13112
appro	-13113
eless	-13114
ivest	-13115
lings	-13116
oston	-13117
oving	-13118
raged	-13119
rying	-13120
▁Area	-13121
▁Belt	-13122
▁Salv	-13123
▁beef	-13124
▁chau	-13125
▁eman	-13126
▁swit	-13127
▁user	-13128
ainted	-13129
collar	-13130
iteers	-13131
ompass	-13132
target	-13133
▁1980,	-13134
▁2050.	-13135
▁Croat	-13136
▁SEOUL	-13137
▁Uribe	-13138
▁arena	-13139
▁curve	-13140
▁dirty	-13141
▁magic	-13142
▁reloc	-13143
▁slows	-13144
▁unamb	-13145
▁upris	-13146
fledged	-13147
itating	-13148
▁10,000	-13149
▁Boston	-13150
▁Compet	-13151
▁Deputy	-13152
▁Napole	-13153
▁apolog	-13154
▁endure	-13155
▁flying	-13156
▁fruits	-13157
▁lawyer	-13158
▁mirror	-13159
▁opaque	-13160
▁pieces	-13161
▁submit	-13162
▁troika	-13163
specific	-13164
▁Studies	-13165
▁Tibetan	-13166
▁defines	-13167
▁fearful	-13168
▁horrors	-13169
▁publish	-13170
▁shelter	-13171
▁undergo	-13172
▁upgrade	-13173
▁virtues	-13174
▁visions	-13175
Palestine	-13176
President	-13177
establish	-13178
reasuries	-13179
▁Tanzania	-13180
▁analyses	-13181
▁deepened	-13182
▁diaspora	-13183
▁dividing	-13184
▁floating	-13185
▁heritage	-13186
▁inflated	-13187
▁pandemic	-13188
▁sizeable	-13189
▁tourists	-13190
fulfilling	-13191
▁behaviors	-13192
▁convicted	-13193
▁diversify	-13194
▁logistics	-13195
▁occasions	-13196
▁peninsula	-13197
▁portrayed	-13198
▁readiness	-13199
▁selective	-13200
▁unskilled	-13201
▁uprisings	-13202
▁viability	-13203
▁Affordable	-13204
▁Technology	-13205
▁commentary	-13206
▁disclosure	-13207
▁fertilizer	-13208
▁imposition	-13209
▁indicating	-13210
▁innovators	-13211
▁laboratory	-13212
▁possession	-13213
▁properties	-13214
▁suggestion	-13215
▁worthwhile	-13216
▁illustrates	-13217
▁refinancing	-13218
▁respondents	-13219
▁constituency	-13220
▁continuation	-13221
▁experimental	-13222
▁consequential	-13223
PE	-13224
cr	-13225
azi	-13226
bai	-13227
can	-13228
hot	-13229
ofi	-13230
rot	-13231
rup	-13232
urk	-13233
▁IR	-13234
▁Ib	-13235
▁LA	-13236
pins	-13237
poor	-13238
▁28%	-13239
▁Mun	-13240
▁Pow	-13241
▁Way	-13242
▁awa	-13243
▁bom	-13244
abled	-13245
arded	-13246
auses	-13247
aware	-13248
iller	-13249
rooms	-13250
ukuni	-13251
▁Azer	-13252
▁Plen	-13253
▁Rums	-13254
▁Test	-13255
▁culp	-13256
▁disd	-13257
▁lags	-13258
▁pend	-13259
▁rape	-13260
▁seed	-13261
ouring	-13262
paying	-13263
▁Chern	-13264
▁Dubai	-13265
▁Glass	-13266
▁franc	-13267
▁recyc	-13268
▁spots	-13269
benefit	-13270
defined	-13271
▁Damasc	-13272
▁Shiite	-13273
▁Sovere	-13274
▁Strong	-13275
▁Taylor	-13276
▁Things	-13277
▁boosts	-13278
▁client	-13279
▁infant	-13280
▁listed	-13281
▁milest	-13282
▁myself	-13283
▁seldom	-13284
▁sister	-13285
▁stupid	-13286
▁varied	-13287
▁wisely	-13288
▁worlds	-13289
ercantil	-13290
▁Britons	-13291
▁appease	-13292
▁arising	-13293
▁expropr	-13294
▁gesture	-13295
▁jointly	-13296
▁millenn	-13297
▁pulling	-13298
▁secrecy	-13299
▁segment	-13300
▁simpler	-13301
▁toppled	-13302
▁yielded	-13303
ilization	-13304
▁Facility	-13305
▁Mohammad	-13306
▁Refugees	-13307
▁Rumsfeld	-13308
▁Services	-13309
▁Slovakia	-13310
▁Yasukuni	-13311
▁deadline	-13312
▁develops	-13313
▁eligible	-13314
▁graduate	-13315
▁operated	-13316
▁rainfall	-13317
▁tailored	-13318
▁variable	-13319
▁Hollywood	-13320
▁Universal	-13321
▁capturing	-13322
▁encompass	-13323
▁listening	-13324
▁lucrative	-13325
▁nostalgia	-13326
▁possesses	-13327
▁resisting	-13328
▁circumvent	-13329
▁functional	-13330
▁groundwork	-13331
▁influences	-13332
▁multipolar	-13333
▁sovereigns	-13334
productivity	-13335
▁charismatic	-13336
▁marketplace	-13337
▁overwhelmed	-13338
▁prerequisite	-13339
▁reproductive	-13340
▁unconditional	-13341
MI	-13342
da	-13343
IFA	-13344
Sax	-13345
aka	-13346
ams	-13347
oko	-13348
thy	-13349
▁(2	-13350
▁75	-13351
▁Py	-13352
aund	-13353
ifty	-13354
ithm	-13355
lium	-13356
sche	-13357
take	-13358
uber	-13359
west	-13360
▁-0.	-13361
▁Kor	-13362
▁bag	-13363
▁dra	-13364
▁tip	-13365
chner	-13366
ombie	-13367
onies	-13368
▁1945	-13369
▁Deep	-13370
▁IAEA	-13371
▁José	-13372
▁Work	-13373
▁buck	-13374
▁cher	-13375
▁dent	-13376
▁hect	-13377
▁kids	-13378
▁mask	-13379
▁pond	-13380
▁soci	-13381
anding	-13382
hammad	-13383
ijuana	-13384
placed	-13385
supply	-13386
▁2017.	-13387
▁Child	-13388
▁recru	-13389
▁reval	-13390
▁shake	-13391
▁versa	-13392
banking	-13393
icament	-13394
overing	-13395
politik	-13396
ulatory	-13397
umption	-13398
▁Bhutan	-13399
▁Carter	-13400
▁Karzai	-13401
▁Latvia	-13402
▁Powell	-13403
▁Target	-13404
▁bailed	-13405
▁bypass	-13406
▁covert	-13407
▁uneven	-13408
thinking	-13409
▁200,000	-13410
▁Lagarde	-13411
▁Murdoch	-13412
▁beating	-13413
▁blaming	-13414
▁convict	-13415
▁devised	-13416
▁drastic	-13417
▁emotion	-13418
▁hopeful	-13419
▁manages	-13420
▁mergers	-13421
▁primacy	-13422
▁risking	-13423
▁stretch	-13424
▁summits	-13425
▁tripled	-13426
▁unequiv	-13427
immigrant	-13428
stitution	-13429
▁Bulgaria	-13430
▁coercion	-13431
▁handling	-13432
▁likewise	-13433
▁magazine	-13434
▁populous	-13435
ranational	-13436
▁Francisco	-13437
▁apartheid	-13438
▁disparate	-13439
▁hypocrisy	-13440
▁northeast	-13441
▁pneumonia	-13442
▁reporters	-13443
▁sidelines	-13444
▁spiritual	-13445
▁supplying	-13446
▁tightened	-13447
▁workplace	-13448
▁Securities	-13449
▁authorized	-13450
▁developers	-13451
▁dissidents	-13452
▁endangered	-13453
▁maximizing	-13454
▁minimizing	-13455
▁monopolies	-13456
▁resurgence	-13457
▁simplistic	-13458
▁starvation	-13459
▁variations	-13460
▁coincidence	-13461
▁unanimously	-13462
▁administered	-13463
▁indebtedness	-13464
▁inefficiency	-13465
▁underpinning	-13466
▁disadvantaged	-13467
▁notwithstanding	-13468
▁technologically	-13469
AM	-13470
▁­	-13471
New	-13472
lem	-13473
ona	-13474
ora	-13475
▁37	-13476
bing	-13477
gery	-13478
hent	-13479
ifts	-13480
obyl	-13481
olen	-13482
othe	-13483
plan	-13484
rier	-13485
▁10.	-13486
▁FBI	-13487
▁Sor	-13488
▁ber	-13489
▁nan	-13490
▁sab	-13491
eller	-13492
icate	-13493
luded	-13494
print	-13495
setts	-13496
▁Ehud	-13497
▁Niet	-13498
▁Star	-13499
▁corn	-13500
▁detr	-13501
▁hole	-13502
▁shop	-13503
▁song	-13504
▁subs	-13505
▁wire	-13506
▁wood	-13507
eating	-13508
fforts	-13509
inston	-13510
ousing	-13511
▁Costa	-13512
▁Early	-13513
▁MILAN	-13514
▁Think	-13515
▁arose	-13516
▁disgu	-13517
▁doses	-13518
▁ethos	-13519
▁knock	-13520
▁lofty	-13521
▁subdu	-13522
▁vivid	-13523
certain	-13524
habilit	-13525
onsense	-13526
profile	-13527
▁Nature	-13528
▁Thirty	-13529
▁agrees	-13530
▁armies	-13531
▁breach	-13532
▁delays	-13533
▁engulf	-13534
▁fusion	-13535
▁handed	-13536
▁incurs	-13537
▁reiter	-13538
▁unimag	-13539
▁valued	-13540
Pakistan	-13541
tradable	-13542
▁Barroso	-13543
▁Czechos	-13544
▁Drawing	-13545
▁Medical	-13546
▁Winston	-13547
▁chaotic	-13548
▁chooses	-13549
▁forging	-13550
▁instant	-13551
▁replied	-13552
▁rescued	-13553
▁shorter	-13554
▁stature	-13555
▁tipping	-13556
▁unambig	-13557
▁vessels	-13558
▁Austrian	-13559
▁advocacy	-13560
▁bombings	-13561
▁confirms	-13562
▁jihadist	-13563
▁reassure	-13564
▁solvency	-13565
▁textbook	-13566
antitative	-13567
▁Strategic	-13568
▁candidacy	-13569
▁classical	-13570
▁comparing	-13571
▁conceived	-13572
▁detriment	-13573
▁epidemics	-13574
▁excluding	-13575
▁invisible	-13576
▁occupying	-13577
▁polarized	-13578
▁signaling	-13579
▁transcend	-13580
lightenment	-13581
▁Brexiteers	-13582
▁assurances	-13583
▁asymmetric	-13584
▁patriotism	-13585
▁unbalanced	-13586
▁underscore	-13587
▁automobiles	-13588
▁contemplate	-13589
▁dismantling	-13590
▁investigate	-13591
▁mathematics	-13592
▁orientation	-13593
▁predicament	-13594
▁preventable	-13595
▁prosecutors	-13596
determination	-13597
▁Scandinavian	-13598
▁retrenchment	-13599
▁collaborative	-13600
rö	-13601
ado	-13602
usk	-13603
xon	-13604
▁36	-13605
▁38	-13606
▁Fe	-13607
achu	-13608
akis	-13609
asht	-13610
emia	-13611
iber	-13612
lick	-13613
post	-13614
▁$60	-13615
▁18%	-13616
▁Ill	-13617
▁MPs	-13618
▁boy	-13619
▁din	-13620
▁gig	-13621
▁lin	-13622
▁rom	-13623
-2015	-13624
South	-13625
arest	-13626
isure	-13627
lical	-13628
maker	-13629
mount	-13630
onial	-13631
urate	-13632
urned	-13633
▁1973	-13634
▁Cond	-13635
▁Dist	-13636
▁Kofi	-13637
▁SMEs	-13638
▁Sure	-13639
▁blat	-13640
▁glac	-13641
▁impl	-13642
▁lean	-13643
▁teen	-13644
linked	-13645
losion	-13646
odshed	-13647
strong	-13648
▁Abdel	-13649
▁Later	-13650
▁clubs	-13651
▁decay	-13652
▁faire	-13653
▁looph	-13654
▁misal	-13655
▁pilot	-13656
▁ridic	-13657
▁stars	-13658
▁taxed	-13659
▁vowed	-13660
general	-13661
keepers	-13662
natural	-13663
oufakis	-13664
repared	-13665
serving	-13666
taining	-13667
▁Santos	-13668
▁atomic	-13669
▁eating	-13670
▁famine	-13671
▁helium	-13672
▁passes	-13673
▁prolif	-13674
▁rocket	-13675
▁staged	-13676
▁wholes	-13677
business	-13678
esterday	-13679
▁Control	-13680
▁Greater	-13681
▁Senkaku	-13682
▁cholera	-13683
▁fascism	-13684
▁fatigue	-13685
▁holiday	-13686
▁intrins	-13687
▁married	-13688
▁redress	-13689
▁repatri	-13690
▁revenge	-13691
▁teacher	-13692
achusetts	-13693
ividually	-13694
strategic	-13695
▁Muhammad	-13696
▁Salvador	-13697
▁branches	-13698
▁catalyze	-13699
▁combines	-13700
▁convened	-13701
▁enriched	-13702
▁exposing	-13703
▁premiums	-13704
▁punished	-13705
▁remedies	-13706
▁rewarded	-13707
▁tortured	-13708
ignificant	-13709
▁Wolfowitz	-13710
▁acquiring	-13711
▁asserting	-13712
▁audiences	-13713
▁computing	-13714
▁deploying	-13715
▁donations	-13716
▁interrupt	-13717
▁prevalent	-13718
▁purchased	-13719
▁rehabilit	-13720
▁stringent	-13721
▁untenable	-13722
▁upholding	-13723
▁wealthier	-13724
▁Luxembourg	-13725
▁capitalize	-13726
▁committees	-13727
▁determines	-13728
▁hardliners	-13729
▁stabilized	-13730
▁thoughtful	-13731
▁translated	-13732
▁underscored	-13733
▁inclusiveness	-13734
▁Czechoslovakia	-13735
▁radicalization	-13736
RT	-13737
del	-13738
pie	-13739
▁31	-13740
▁EF	-13741
▁ME	-13742
arag	-13743
coin	-13744
eder	-13745
iche	-13746
ript	-13747
tion	-13748
▁14%	-13749
▁Yuk	-13750
▁lav	-13751
apego	-13752
asset	-13753
ilton	-13754
ndrom	-13755
rahim	-13756
steps	-13757
▁0.7%	-13758
▁Clos	-13759
▁FIFA	-13760
▁Hard	-13761
▁Karl	-13762
▁USSR	-13763
▁axis	-13764
▁thro	-13765
▁zeal	-13766
akable	-13767
ducive	-13768
enders	-13769
ontane	-13770
undrum	-13771
▁Exxon	-13772
▁Larry	-13773
▁Price	-13774
▁cheer	-13775
▁downs	-13776
▁films	-13777
▁stone	-13778
▁strip	-13779
▁undes	-13780
athetic	-13781
ittedly	-13782
olation	-13783
rection	-13784
versely	-13785
working	-13786
▁Accord	-13787
▁Hassan	-13788
▁Nobody	-13789
▁adoles	-13790
▁aiming	-13791
▁allied	-13792
▁domain	-13793
▁finger	-13794
▁motive	-13795
▁racism	-13796
▁shorts	-13797
▁spared	-13798
▁Getting	-13799
▁Nicarag	-13800
▁dragged	-13801
▁heating	-13802
▁indices	-13803
▁inhibit	-13804
▁license	-13805
▁persons	-13806
▁reminds	-13807
▁reviews	-13808
▁scapego	-13809
▁seeming	-13810
▁staunch	-13811
▁widened	-13812
▁writers	-13813
valuation	-13814
▁Consumer	-13815
▁Damascus	-13816
▁Medicaid	-13817
▁Millions	-13818
▁aversion	-13819
▁compound	-13820
▁converge	-13821
▁diplomat	-13822
▁fortunes	-13823
▁friction	-13824
▁inferior	-13825
▁paternal	-13826
▁rankings	-13827
▁resolute	-13828
▁shutdown	-13829
▁supplied	-13830
▁withdrew	-13831
▁worsened	-13832
▁Catholics	-13833
▁Currently	-13834
▁assembled	-13835
▁bloodshed	-13836
▁designing	-13837
▁enforcing	-13838
▁intensive	-13839
▁partition	-13840
▁preceding	-13841
▁subsidize	-13842
▁survivors	-13843
▁devastated	-13844
▁recoveries	-13845
▁standpoint	-13846
▁thoroughly	-13847
▁vocational	-13848
▁Information	-13849
▁Recognizing	-13850
▁meaningless	-13851
▁ministerial	-13852
▁deteriorated	-13853
▁mobilization	-13854
▁Massachusetts	-13855
▁supranational	-13856
PI	-13857
uj	-13858
vi	-13859
és	-13860
ña	-13861
-2.	-13862
iah	-13863
igl	-13864
▁45	-13865
▁OS	-13866
▁€3	-13867
azir	-13868
bond	-13869
furt	-13870
rick	-13871
▁Amb	-13872
▁Ger	-13873
▁NTC	-13874
▁PiS	-13875
▁Sar	-13876
▁Tah	-13877
▁Vot	-13878
▁von	-13879
Great	-13880
Saxon	-13881
alism	-13882
elior	-13883
odork	-13884
oment	-13885
opian	-13886
pling	-13887
▁$300	-13888
▁Data	-13889
▁Dmit	-13890
▁Fort	-13891
▁Seas	-13892
▁hack	-13893
▁ills	-13894
▁leak	-13895
▁mode	-13896
▁nice	-13897
▁offs	-13898
▁vari	-13899
Russia	-13900
atched	-13901
system	-13902
▁Ahmed	-13903
▁Along	-13904
▁Anwar	-13905
▁Based	-13906
▁Faced	-13907
▁Grand	-13908
▁Guate	-13909
▁Local	-13910
▁Lower	-13911
▁affil	-13912
▁femin	-13913
▁hotel	-13914
▁shark	-13915
▁subsc	-13916
▁swath	-13917
Islamic	-13918
ialogue	-13919
managed	-13920
respect	-13921
skilled	-13922
▁Chechn	-13923
▁Columb	-13924
▁brains	-13925
▁couldn	-13926
▁divert	-13927
▁ironic	-13928
▁shaken	-13929
▁wholly	-13930
▁yellow	-13931
▁Khodork	-13932
▁Snowden	-13933
▁Suppose	-13934
▁amelior	-13935
▁cheaply	-13936
▁commens	-13937
▁disdain	-13938
▁dynasty	-13939
▁fearing	-13940
▁impetus	-13941
▁inflict	-13942
▁injured	-13943
▁leisure	-13944
▁polling	-13945
▁prisons	-13946
▁variant	-13947
▁wrought	-13948
organized	-13949
▁Buddhist	-13950
▁arsenals	-13951
▁athletes	-13952
▁burdened	-13953
▁deadlock	-13954
▁diarrhea	-13955
▁plastics	-13956
▁recourse	-13957
▁unveiled	-13958
generation	-13959
▁assertion	-13960
▁brilliant	-13961
▁conducive	-13962
▁confronts	-13963
▁defenders	-13964
▁deterrent	-13965
▁employing	-13966
▁hierarchy	-13967
▁murderous	-13968
▁spillover	-13969
▁textbooks	-13970
▁Employment	-13971
▁conscience	-13972
▁department	-13973
▁hypothesis	-13974
▁injections	-13975
▁publishing	-13976
▁xenophobia	-13977
▁disciplines	-13978
▁humiliating	-13979
▁legislature	-13980
▁proportions	-13981
▁Khodorkovsky	-13982
▁accumulating	-13983
▁condemnation	-13984
▁coordinating	-13985
▁guaranteeing	-13986
▁liberalizing	-13987
▁consciousness	-13988
▁externalities	-13989
TPP	-13990
You	-13991
bad	-13992
ppo	-13993
uts	-13994
▁3,	-13995
▁Du	-13996
▁VI	-13997
ardo	-13998
ashv	-13999
exts	-14000
half	-14001
ikud	-14002
khaz	-14003
lide	-14004
mand	-14005
▁189	-14006
▁Bit	-14007
▁OMT	-14008
agall	-14009
istry	-14010
raded	-14011
sters	-14012
surge	-14013
▁Case	-14014
▁Hiro	-14015
▁Pric	-14016
▁Viol	-14017
▁aven	-14018
▁carn	-14019
▁drow	-14020
▁fits	-14021
▁flam	-14022
▁lock	-14023
▁tall	-14024
▁tent	-14025
▁unre	-14026
etched	-14027
iosity	-14028
orable	-14029
return	-14030
▁2004.	-14031
▁Guang	-14032
▁Peres	-14033
▁Tamil	-14034
▁autoc	-14035
▁burge	-14036
▁clock	-14037
▁dread	-14038
▁frame	-14039
▁ghost	-14040
▁hosts	-14041
▁ingen	-14042
▁prote	-14043
▁slide	-14044
▁stops	-14045
▁twist	-14046
TANFORD	-14047
healthy	-14048
iscally	-14049
licting	-14050
seeking	-14051
▁30,000	-14052
▁Balkan	-14053
▁Nordic	-14054
▁Taking	-14055
▁contam	-14056
▁frozen	-14057
▁intend	-14058
▁lament	-14059
▁laying	-14060
▁livest	-14061
▁medioc	-14062
▁occupy	-14063
▁racist	-14064
▁redund	-14065
▁scenes	-14066
▁strive	-14067
▁testim	-14068
▁urging	-14069
▁Academy	-14070
▁Respons	-14071
▁conform	-14072
▁curbing	-14073
▁isolate	-14074
▁lengthy	-14075
▁offense	-14076
▁smarter	-14077
continent	-14078
▁Chechnya	-14079
▁Emirates	-14080
▁Georgian	-14081
▁Xinjiang	-14082
▁charisma	-14083
▁electron	-14084
▁inadvert	-14085
▁infamous	-14086
▁interloc	-14087
▁prudence	-14088
▁punitive	-14089
▁requests	-14090
▁sanction	-14091
▁settlers	-14092
▁severity	-14093
▁sterling	-14094
▁stresses	-14095
▁tempting	-14096
▁tolerant	-14097
▁uniquely	-14098
▁Chernobyl	-14099
▁Frankfurt	-14100
▁Terrorism	-14101
▁adjusting	-14102
▁alienated	-14103
▁ambiguous	-14104
▁diagnosed	-14105
▁ethnicity	-14106
▁expecting	-14107
▁interfere	-14108
▁lobbyists	-14109
▁mentality	-14110
▁parallels	-14111
▁reckoning	-14112
▁rivalries	-14113
▁shattered	-14114
▁Innovation	-14115
▁completing	-14116
▁courageous	-14117
▁prudential	-14118
▁squandered	-14119
conservative	-14120
▁Environment	-14121
▁campaigning	-14122
▁celebration	-14123
▁circulation	-14124
▁corporation	-14125
▁devastation	-14126
▁endorsement	-14127
▁examination	-14128
▁imperialism	-14129
▁nationality	-14130
▁attributable	-14131
▁similarities	-14132
ID	-14133
Ob	-14134
fl	-14135
aza	-14136
opp	-14137
uns	-14138
vic	-14139
▁39	-14140
▁IN	-14141
▁Id	-14142
arty	-14143
ayan	-14144
best	-14145
eous	-14146
etty	-14147
hrop	-14148
lood	-14149
pers	-14150
pert	-14151
▁95%	-14152
▁Bon	-14153
▁Cho	-14154
▁pac	-14155
▁sla	-14156
arist	-14157
plant	-14158
urban	-14159
▁$1.5	-14160
▁2018	-14161
▁9/11	-14162
▁Alas	-14163
▁Bure	-14164
▁Canc	-14165
▁Else	-14166
▁Lear	-14167
▁Pent	-14168
▁Ryan	-14169
▁arts	-14170
▁bars	-14171
▁bent	-14172
▁clim	-14173
▁cycl	-14174
▁dust	-14175
▁fest	-14176
▁hasn	-14177
▁icon	-14178
▁lows	-14179
▁misd	-14180
▁neur	-14181
equity	-14182
hecked	-14183
ifting	-14184
omeini	-14185
parent	-14186
ridden	-14187
scious	-14188
▁Armed	-14189
▁Aside	-14190
▁Himal	-14191
▁Likud	-14192
▁Osset	-14193
▁Press	-14194
▁Super	-14195
▁codes	-14196
▁crony	-14197
▁erupt	-14198
▁grapp	-14199
▁looms	-14200
▁loved	-14201
▁mines	-14202
▁taboo	-14203
▁upset	-14204
anguage	-14205
fashion	-14206
ricanes	-14207
▁Abkhaz	-14208
▁Danish	-14209
▁barbar	-14210
▁coined	-14211
▁derive	-14212
▁diseng	-14213
▁fringe	-14214
▁heroes	-14215
▁hiding	-14216
▁metrop	-14217
▁salary	-14218
▁stolen	-14219
▁unfore	-14220
▁Besides	-14221
▁Efforts	-14222
▁Experts	-14223
▁chapter	-14224
▁clarify	-14225
▁designs	-14226
▁erratic	-14227
▁farther	-14228
▁premise	-14229
▁pretend	-14230
▁selfish	-14231
▁session	-14232
▁slavery	-14233
▁starkly	-14234
▁subdued	-14235
▁suspend	-14236
▁warrant	-14237
emocratic	-14238
exporting	-14239
▁Khomeini	-14240
▁STANFORD	-14241
▁adapting	-14242
▁dropping	-14243
▁fiscally	-14244
▁goodwill	-14245
▁inconven	-14246
▁societal	-14247
▁spontane	-14248
▁virtuous	-14249
▁yourself	-14250
▁abundance	-14251
▁autocracy	-14252
▁contested	-14253
▁converted	-14254
▁encounter	-14255
▁importers	-14256
▁lawmakers	-14257
▁livestock	-14258
▁massively	-14259
▁mercantil	-14260
▁petroleum	-14261
▁therapies	-14262
▁unchecked	-14263
▁underpins	-14264
▁warranted	-14265
▁announcing	-14266
▁attainment	-14267
▁directions	-14268
▁evaluation	-14269
▁federalism	-14270
▁nationwide	-14271
▁powerhouse	-14272
▁succeeding	-14273
▁Agriculture	-14274
▁denominated	-14275
▁presupposes	-14276
▁voluntarily	-14277
▁constituents	-14278
▁devaluations	-14279
▁manipulating	-14280
▁safeguarding	-14281
▁disappearance	-14282
▁characteristic	-14283
▁contradictions	-14284
BA	-14285
ET	-14286
Os	-14287
Ste	-14288
han	-14289
two	-14290
vol	-14291
▁34	-14292
aine	-14293
atur	-14294
deep	-14295
only	-14296
riel	-14297
zhou	-14298
▁$30	-14299
▁BEA	-14300
▁Fam	-14301
▁eve	-14302
▁gau	-14303
▁hel	-14304
▁lip	-14305
avals	-14306
erion	-14307
orous	-14308
pivot	-14309
useum	-14310
▁Fair	-14311
▁Fall	-14312
▁OSCE	-14313
▁Prad	-14314
▁Prof	-14315
▁amaz	-14316
▁holy	-14317
▁rebu	-14318
▁sand	-14319
▁sche	-14320
▁visa	-14321
author	-14322
inning	-14323
itters	-14324
▁Cross	-14325
▁Fidel	-14326
▁Haram	-14327
▁Insur	-14328
▁Trust	-14329
▁egreg	-14330
▁fanat	-14331
▁hawks	-14332
▁highs	-14333
▁merch	-14334
▁mouth	-14335
▁purge	-14336
▁resid	-14337
▁smoke	-14338
▁taste	-14339
▁venge	-14340
Semitic	-14341
ettered	-14342
imposed	-14343
lasting	-14344
violent	-14345
▁Aleppo	-14346
▁Bernie	-14347
▁Coming	-14348
▁Wealth	-14349
▁astron	-14350
▁babies	-14351
▁embold	-14352
▁fixing	-14353
▁incite	-14354
▁licens	-14355
▁resett	-14356
Atlantic	-14357
Steagall	-14358
▁Azerbai	-14359
▁Croatia	-14360
▁hosting	-14361
▁inquiry	-14362
▁scholar	-14363
▁Election	-14364
▁Nigerian	-14365
▁abortion	-14366
▁attached	-14367
▁dilemmas	-14368
▁distract	-14369
▁drilling	-14370
▁observer	-14371
▁outgoing	-14372
▁relating	-14373
▁subprime	-14374
▁supplier	-14375
▁Elsewhere	-14376
▁ambiguity	-14377
▁automated	-14378
▁concludes	-14379
[...]
